{
  "version": "1.0",
  "truncation": null,
  "padding": null,
  "added_tokens": [
    {
      "id": 0,
      "content": "[PAD]",
      "single_word": false,
      "lstrip": false,
      "rstrip": false,
      "normalized": false,
      "special": true
    },
    {
      "id": 1,
      "content": "[UNK]",
      "single_word": false,
      "lstrip": false,
      "rstrip": false,
      "normalized": false,
      "special": true
    },
    {
      "id": 2,
      "content": "[CLS]",
      "single_word": false,
      "lstrip": false,
      "rstrip": false,
      "normalized": false,
      "special": true
    },
    {
      "id": 3,
      "content": "[SEP]",
      "single_word": false,
      "lstrip": false,
      "rstrip": false,
      "normalized": false,
      "special": true
    },
    {
      "id": 4,
      "content": "[END]",
      "single_word": false,
      "lstrip": false,
      "rstrip": false,
      "normalized": false,
      "special": true
    },
    {
      "id": 5,
      "content": "[BOS]",
      "single_word": false,
      "lstrip": false,
      "rstrip": false,
      "normalized": false,
      "special": true
    },
    {
      "id": 6,
      "content": "[EOS]",
      "single_word": false,
      "lstrip": false,
      "rstrip": false,
      "normalized": false,
      "special": true
    }
  ],
  "normalizer": null,
  "pre_tokenizer": {
    "type": "ByteLevel",
    "add_prefix_space": false,
    "trim_offsets": true,
    "use_regex": true
  },
  "post_processor": null,
  "decoder": {
    "type": "ByteLevel",
    "add_prefix_space": true,
    "trim_offsets": true,
    "use_regex": true
  },
  "model": {
    "type": "BPE",
    "dropout": null,
    "unk_token": "[UNK]",
    "continuing_subword_prefix": null,
    "end_of_word_suffix": null,
    "fuse_unk": false,
    "byte_fallback": false,
    "ignore_merges": false,
    "vocab": {
      "[PAD]": 0,
      "[UNK]": 1,
      "[CLS]": 2,
      "[SEP]": 3,
      "[END]": 4,
      "[BOS]": 5,
      "[EOS]": 6,
      ".": 7,
      "0": 8,
      "1": 9,
      "2": 10,
      "4": 11,
      "5": 12,
      "6": 13,
      "7": 14,
      "8": 15,
      "A": 16,
      "F": 17,
      "I": 18,
      "P": 19,
      "R": 20,
      "Y": 21,
      "e": 22,
      "h": 23,
      "i": 24,
      "l": 25,
      "n": 26,
      "o": 27,
      "r": 28,
      "s": 29,
      "t": 30,
      "u": 31,
      "v": 32,
      "w": 33,
      "y": 34,
      "~": 35,
      "¡": 36,
      "¢": 37,
      "£": 38,
      "¤": 39,
      "¥": 40,
      "¦": 41,
      "§": 42,
      "¨": 43,
      "©": 44,
      "ª": 45,
      "«": 46,
      "¬": 47,
      "®": 48,
      "¯": 49,
      "°": 50,
      "±": 51,
      "²": 52,
      "³": 53,
      "´": 54,
      "µ": 55,
      "¶": 56,
      "·": 57,
      "¸": 58,
      "¹": 59,
      "º": 60,
      "»": 61,
      "¼": 62,
      "½": 63,
      "¾": 64,
      "¿": 65,
      "ã": 66,
      "ä": 67,
      "å": 68,
      "æ": 69,
      "ç": 70,
      "è": 71,
      "é": 72,
      "ï": 73,
      "Ġ": 74,
      "Ģ": 75,
      "ģ": 76,
      "Ĥ": 77,
      "ĥ": 78,
      "Ħ": 79,
      "ħ": 80,
      "Ĩ": 81,
      "ĩ": 82,
      "Ī": 83,
      "ī": 84,
      "Ĭ": 85,
      "ĭ": 86,
      "Į": 87,
      "į": 88,
      "İ": 89,
      "ı": 90,
      "Ĳ": 91,
      "ĳ": 92,
      "Ĵ": 93,
      "ĵ": 94,
      "Ķ": 95,
      "ķ": 96,
      "ĸ": 97,
      "Ĺ": 98,
      "ĺ": 99,
      "Ļ": 100,
      "ļ": 101,
      "Ľ": 102,
      "ľ": 103,
      "Ŀ": 104,
      "ŀ": 105,
      "Ł": 106,
      "ł": 107,
      "Ń": 108,
      "ï¼": 109,
      "½ŀ": 110,
      "ï½ŀ": 111,
      "ï¼Į": 112,
      "ä¸": 113,
      "å¥": 114,
      "å¥½": 115,
      "æĪ": 116,
      "ä½": 117,
      "äº": 118,
      "æĪĳ": 119,
      "ä½ł": 120,
      "åĳ": 121,
      "ä¹": 122,
      "è¯": 123,
      "åľ": 124,
      "ï¼ģ": 125,
      "åĲ": 126,
      "çļ": 127,
      "åľ¨": 128,
      "çļĦ": 129,
      "æĥ": 130,
      "å¤": 131,
      "æĥ³": 132,
      "ä¸Ģ": 133,
      "æľ": 134,
      "å¾": 135,
      "åĸ": 136,
      "äºĨ": 137,
      "å¿": 138,
      "µ·": 139,
      "èµ·": 140,
      "åĳ¢": 141,
      "åĳĢ": 142,
      "åĵ": 143,
      "åĴ": 144,
      "ä¹Ł": 145,
      "æĿ": 146,
      "æĹ": 147,
      "åİ": 148,
      "å¿ĥ": 149,
      "åĸľ": 150,
      "æĪĳä¹Ł": 151,
      "åĬ": 152,
      "äºº": 153,
      "å¼": 154,
      "åĴĮ": 155,
      "æĿ¥": 156,
      "è¿": 157,
      "ä¼": 158,
      "ä¸ĭ": 159,
      "çĶ": 160,
      "æ¬": 161,
      "ä»": 162,
      "åı": 163,
      "å®": 164,
      "æ¬¢": 165,
      "ä¸į": 166,
      "åĸľæ¬¢": 167,
      "åŃ": 168,
      "è§": 169,
      "å¼Ģ": 170,
      "å¼Ģå¿ĥ": 171,
      "åŃ¦": 172,
      "å¾Ī": 173,
      "ï¼Ł": 174,
      "è¯ķ": 175,
      "å¤©": 176,
      "åħ": 177,
      "Ĭå¤©": 178,
      "åķ": 179,
      "æĺ": 180,
      "ä¸Ģèµ·": 181,
      "æĺ¯": 182,
      "æĢ": 183,
      "èģ": 184,
      "è®": 185,
      "æ²": 186,
      "æħ": 187,
      "æħ¢": 188,
      "æľī": 189,
      "å½": 190,
      "ä»Ĭå¤©": 191,
      "çĿ": 192,
      "æĦ": 193,
      "å·": 194,
      "çľ": 195,
      "æľĢ": 196,
      "æĦŁ": 197,
      "åİ»": 198,
      "åĵ¦": 199,
      "æŃ": 200,
      "è§ī": 201,
      "åıĹ": 202,
      "ä¹Ī": 203,
      "åĪ": 204,
      "æĮ": 205,
      "åķĬ": 206,
      "çĤ": 207,
      "çĤ¹": 208,
      "åĹ": 209,
      "è¶": 210,
      "åĹ¯": 211,
      "èģĬ": 212,
      "ä¸ª": 213,
      "è¯¶": 214,
      "èµ·æĿ¥": 215,
      "ä¼ļ": 216,
      "è®©": 217,
      "æĪĳç": 218,
      "å¾Ĺ": 219,
      "Ľè": 220,
      "åĲ¬": 221,
      "åĴĮä½ł": 222,
      "è¯´": 223,
      "è®©äºº": 224,
      "ç´": 225,
      "æľīè¶": 226,
      "æľīè¶£": 227,
      "è¾": 228,
      "æĥ³ä½ł": 229,
      "çĿĢ": 230,
      "åĽ": 231,
      "æĪĳæ": 232,
      "è¯ķè¯ķ": 233,
      "æģ": 234,
      "å¥½å¥½": 235,
      "ä¸º": 236,
      "ä¸Ģä¸ĭ": 237,
      "å¥½åĳĢ": 238,
      "å¹": 239,
      "łä¸º": 240,
      "åĽłä¸º": 241,
      "éĶ": 242,
      "éĶĻ": 243,
      "İä¹Ī": 244,
      "æĢİä¹Ī": 245,
      "¨è": 246,
      "¦äºĨ": 247,
      "¸¸": 248,
      "įĲ": 249,
      "İ¨è": 250,
      "İ¨èįĲ": 251,
      "ä¸įéĶĻ": 252,
      "æģ¯": 253,
      "³»": 254,
      "ç³»": 255,
      "ä¼ĳ": 256,
      "Ľèĭ": 257,
      "è¾Ľèĭ": 258,
      "åľ¨ä¸Ģèµ·": 259,
      "åĪ«": 260,
      "æľĢå¼Ģå¿ĥ": 261,
      "è¾Ľèĭ¦äºĨ": 262,
      "åľ¨ä¸Ģèµ·æľĢå¼Ģå¿ĥ": 263,
      "ä¼ĳæģ¯": 264,
      "åĲ§": 265,
      "åĲ¬èµ·æĿ¥": 266,
      "åħ³": 267,
      "Ĭ±": 268,
      "å¥½å¥½ä¼ĳæģ¯": 269,
      "éĤ": 270,
      "åĲĮ": 271,
      "éĤ£": 272,
      "å½±": 273,
      "æ²¡": 274,
      "ĲĨ": 275,
      "æĹł": 276,
      "åĬł": 277,
      "åħ³ç³»": 278,
      "æ²¡åħ³ç³»": 279,
      "æĹ¶": 280,
      "çĶŁ": 281,
      "æ²¹": 282,
      "åĬłæ²¹": 283,
      "åĬĽ": 284,
      "å¤§": 285,
      "çľĭ": 286,
      "ç´¯": 287,
      "åľ¨æĥ³ä½ł": 288,
      "ä½łçļĦ": 289,
      "æĥ³åŃ¦": 290,
      "æħ¢æĿ¥": 291,
      "æħ¢æħ¢æĿ¥": 292,
      "åĲĹ": 293,
      "åİĭ": 294,
      "åİĭåĬĽ": 295,
      "ä½ľ": 296,
      "æĮģ": 297,
      "è§£": 298,
      "æł": 299,
      "ĲĨè§£": 300,
      "å®ŀ": 301,
      "ĲĨè§£ä½łçļĦ": 302,
      "¡®": 303,
      "ç¡®": 304,
      "æĦŁåıĹ": 305,
      "ä¼ļè®©äºº": 306,
      "æĪĳçĲĨè§£ä½łçļĦ": 307,
      "å®ŀä¼ļè®©äºº": 308,
      "ç¡®å®ŀä¼ļè®©äºº": 309,
      "æĪĳçĲĨè§£ä½łçļĦæĦŁåıĹ": 310,
      "åĩ": 311,
      "åį": 312,
      "¦ı": 313,
      "ç¦ı": 314,
      "çĶ»": 315,
      "æ¸¸": 316,
      "å¯": 317,
      "µå½±": 318,
      "çĶµå½±": 319,
      "æĬ±": 320,
      "éļ": 321,
      "åĬ¨": 322,
      "åįĪ": 323,
      "éļ¾": 324,
      "çļĦäºº": 325,
      "å¯¹": 326,
      "æ¯": 327,
      "ä¹¦": 328,
      "¸ç¦ı": 329,
      "å¹¸ç¦ı": 330,
      "éĻ": 331,
      "å®³": 332,
      "¾İ": 333,
      "ç¾İ": 334,
      "é£": 335,
      "æŃ£": 336,
      "ä¹ł": 337,
      "åŃ¦ä¹ł": 338,
      "ĥ½": 339,
      "åĵĪ": 340,
      "è·": 341,
      "é£Ł": 342,
      "çľŁ": 343,
      "åĢ": 344,
      "å·¥": 345,
      "å°": 346,
      "åĨ": 347,
      "åĸĿ": 348,
      "è§īå¾Ĺ": 349,
      "ĲåĬ¨": 350,
      "çļĦæĹ¶": 351,
      "è¿ĲåĬ¨": 352,
      "ç¾İé£Ł": 353,
      "åĢĻ": 354,
      "çļĦæĹ¶åĢĻ": 355,
      "å·¥ä½ľ": 356,
      "æĥħ": 357,
      "çĪ": 358,
      "è¡": 359,
      "è¿Ļ": 360,
      "ä¹Ĳ": 361,
      "Ľ´": 362,
      "éĤ£ä¸ª": 363,
      "å¥½å¹¸ç¦ı": 364,
      "è¯Ŀ": 365,
      "³ä¹Ĳ": 366,
      "éŁ": 367,
      "éŁ³ä¹Ĳ": 368,
      "åľ¨åŃ¦": 369,
      "äºĭ": 370,
      "ĩª": 371,
      "èĩª": 372,
      "å°±": 373,
      "è¡Į": 374,
      "è¯Ŀè¯´": 375,
      "ãĢ": 376,
      "å½ĵ": 377,
      "éĻª": 378,
      "å¯¹äºĨ": 379,
      "åĴĮåĸľæ¬¢": 380,
      "çļĦäººåľ¨ä¸Ģèµ·æľĢå¼Ģå¿ĥ": 381,
      "åĴĮåĸľæ¬¢çļĦäººåľ¨ä¸Ģèµ·æľĢå¼Ģå¿ĥ": 382,
      "ä¸Ģç": 383,
      "ħè¡Į": 384,
      "æĹħè¡Į": 385,
      "ç»": 386,
      "äº«": 387,
      "æĪĳä¹Łæĥ³": 388,
      "çĦ": 389,
      "ä¸Ĭ": 390,
      "å½ĵä¸ĭ": 391,
      "æİ¨èįĲ": 392,
      "æĪĳä¹Łæĺ¯": 393,
      "ä¸įéĶĻåĳ¢": 394,
      "å¤ª": 395,
      "æĻ": 396,
      "å¾Īä¸įéĶĻåĳ¢": 397,
      "åıĹå½ĵä¸ĭ": 398,
      "åĲ¬èµ·æĿ¥å¾Īä¸įéĶĻåĳ¢": 399,
      "äº«åıĹå½ĵä¸ĭ": 400,
      "å¥½ç´¯": 401,
      "æĪı": 402,
      "èģĬå¤©": 403,
      "æ¸¸æĪı": 404,
      "ä¸ĢçĽ´": 405,
      "ç§": 406,
      "çļĦåĲĹ": 407,
      "çľŁçļĦåĲĹ": 408,
      "çĥ": 409,
      "çī": 410,
      "æĺ¯åĳĢ": 411,
      "æł·": 412,
      "å¥½å¥½ä¼ĳæģ¯ä¸Ģä¸ĭ": 413,
      "æĹłèģĬ": 414,
      "è¿·": 415,
      "åģ": 416,
      "ä¿": 417,
      "ç»Ļ": 418,
      "éĹ": 419,
      "æĪĳéĻª": 420,
      "ä¿¡": 421,
      "å¥½çļĦ": 422,
      "æĦŁè§ī": 423,
      "æĶ": 424,
      "æĶ¾": 425,
      "įæĦŁè§ī": 426,
      "çļĦäºĭ": 427,
      "è¿Ļç§": 428,
      "è¿Ļç§įæĦŁè§ī": 429,
      "å·±": 430,
      "æĢİä¹ĪäºĨ": 431,
      "æĻļ": 432,
      "èĥ½": 433,
      "èĩªå·±": 434,
      "åħ»": 435,
      "å®¶": 436,
      "çİ": 437,
      "çī©": 438,
      "åĵŃ": 439,
      "éľ": 440,
      "ä½łè¯ķè¯ķ": 441,
      "æĪĳæİ¨èįĲ": 442,
      "æİ¨èįĲçĤ¹": 443,
      "ä½łè¯ķè¯ķçľĭ": 444,
      "æĪĳæİ¨èįĲä½łè¯ķè¯ķçľĭ": 445,
      "Ĩå¤": 446,
      "æĪĳåĸľæ¬¢": 447,
      "åĩĨå¤": 448,
      "åĩĨå¤ĩ": 449,
      "æĢ»": 450,
      "çĿ¡": 451,
      "çĿĢä½ł": 452,
      "æĪĳéĻªçĿĢä½ł": 453,
      "åĤ": 454,
      "éģ": 455,
      "æĢİä¹Īæł·": 456,
      "éģĵ": 457,
      "åķ¦": 458,
      "æ¯ı": 459,
      "æ°": 460,
      "å¾Īå¼Ģå¿ĥ": 461,
      "æŃ£åľ¨": 462,
      "©å¾Ĺ": 463,
      "å¼Ģå¿ĥçĤ¹": 464,
      "åĲ¬èµ·æĿ¥ä¸įéĶĻ": 465,
      "çİ©å¾Ĺ": 466,
      "åĩĨå¤ĩåİ»": 467,
      "çİ©å¾Ĺå¼Ģå¿ĥçĤ¹": 468,
      "å¥½å¤§": 469,
      "å¥½éļ¾": 470,
      "æĪĳä¹Łåľ¨æĥ³ä½ł": 471,
      "åĪ«ç»Ļ": 472,
      "å¤§åİĭåĬĽ": 473,
      "åİĭåĬĽå¥½å¤§": 474,
      "å¤ªå¤§åİĭåĬĽ": 475,
      "èĩªå·±å¤ªå¤§åİĭåĬĽ": 476,
      "åĪ«ç»Ļèĩªå·±å¤ªå¤§åİĭåĬĽ": 477,
      "¯æĮģ": 478,
      "Ķ¯æĮģ": 479,
      "åĲĪ": 480,
      "åİ»è¯ķè¯ķ": 481,
      "æĪĳæĶ¯æĮģ": 482,
      "æĥ³åŃ¦å°±": 483,
      "æĪĳæĶ¯æĮģä½ł": 484,
      "æĥ³åŃ¦å°±åİ»è¯ķè¯ķ": 485,
      "åĿ": 486,
      "ĹåĲĮ": 487,
      "å¥½æ": 488,
      "å¿ĹåĲĮ": 489,
      "æĪĳä¹Łåĸľæ¬¢": 490,
      "éģĵåĲĪ": 491,
      "æ°Ķ": 492,
      "å¿ĹåĲĮéģĵåĲĪ": 493,
      "¸ä¿¡": 494,
      "çĨ": 495,
      "Ľ¸ä¿¡": 496,
      "Łèĥ½": 497,
      "å·§": 498,
      "ä¸ªäºº": 499,
      "æĪĳçĽ¸ä¿¡": 500,
      "çĶŁå·§": 501,
      "æĪĳä¹Łåľ¨æĥ³ä½łåĳ¢": 502,
      "çĨŁèĥ½": 503,
      "æĪĳçĽ¸ä¿¡ä½ł": 504,
      "çĨŁèĥ½çĶŁå·§": 505,
      "ļæĮģ": 506,
      "åĴĮä½łåľ¨ä¸Ģèµ·æľĢå¼Ģå¿ĥ": 507,
      "åĿļæĮģ": 508,
      "åĴĮä½łåľ¨ä¸Ģèµ·æľĢå¼Ģå¿ĥäºĨ": 509,
      "è¯»": 510,
      "çļĦæĹ¶åĢĻåľ¨æĥ³ä½ł": 511,
      "ãĢĤ": 512,
      "å¥½ä¸į": 513,
      "åĸľå¥½ä¸į": 514,
      "ä¸įåĸľæ¬¢": 515,
      "æĥħæĢ»": 516,
      "æ¯ıä¸ªäºº": 517,
      "åĸľå¥½ä¸įåĲĮ": 518,
      "æ¯ıä¸ªäººåĸľå¥½ä¸įåĲĮ": 519,
      "ºå¥½çļĦ": 520,
      "ä½łè§īå¾Ĺ": 521,
      "æĥ³åĴĮä½ł": 522,
      "æĮºå¥½çļĦ": 523,
      "ä½łè§īå¾Ĺåĳ¢": 524,
      "æĥ³åĴĮä½łä¸Ģèµ·": 525,
      "æĮºå¥½çļĦåĳĢ": 526,
      "éĩ": 527,
      "æĪĳä¸įåĸľæ¬¢": 528,
      "åĵĩ": 529,
      "æŃ¥": 530,
      "£Ĵ": 531,
      "ä¸Ń": 532,
      "å¥½æľīè¶£": 533,
      "ä¸ĭåİ»": 534,
      "å¾Īæľīè¶£": 535,
      "æĺ¯è®©äºº": 536,
      "æľīè¶£çļĦäºĭ": 537,
      "çĿĢè¿·": 538,
      "å¥½æ£Ĵ": 539,
      "åĿļæĮģä¸ĭåİ»": 540,
      "æĥħæĢ»æĺ¯è®©äºº": 541,
      "æľīè¶£çļĦäºĭæĥħæĢ»æĺ¯è®©äºº": 542,
      "æľīè¶£çļĦäºĭæĥħæĢ»æĺ¯è®©äººçĿĢè¿·": 543,
      "çĶ»çĶ»": 544,
      "æĭ": 545,
      "è¯»ä¹¦": 546,
      "è¿ĳ": 547,
      "æľĢè¿ĳ": 548,
      "æĹ©": 549,
      "īå®³": 550,
      "å¥½åİ": 551,
      "æĪĳä¹Łå¾Ī": 552,
      "æľĢè¿ĳåľ¨": 553,
      "å¥½åİīå®³": 554,
      "æĪĳä¹Łå¾Īåĸľæ¬¢": 555,
      "å±": 556,
      "çĶŁæ°Ķ": 557,
      "ä¸ŃåįĪ": 558,
      "åģļ": 559,
      "æĸ": 560,
      "æĬ±ä½ł": 561,
      "æĬ±æĬ±ä½ł": 562,
      "įæĻļ": 563,
      "åĤįæĻļ": 564,
      "åħ¬": 565,
      "¦ģ": 566,
      "è¦ģ": 567,
      "éĢ": 568,
      "Ģä¹Ī": 569,
      "è¿ĩ": 570,
      "ä»Ģä¹Ī": 571,
      "æĸ¹": 572,
      "åıĭ": 573,
      "èĮ": 574,
      "æĹ©ä¸Ĭ": 575,
      "ä¸ĭåįĪ": 576,
      "æĢķ": 577,
      "°æĸ¹": 578,
      "æī": 579,
      "åħ´": 580,
      "ç´§": 581,
      "å¼ł": 582,
      "å®³æĢķ": 583,
      "çĥŃ": 584,
      "ç´§å¼ł": 585,
      "éĴ": 586,
      "èģĬèģĬ": 587,
      "ĸåķ": 588,
      "åĴĸåķ": 589,
      "åĴĸåķ¡": 590,
      "·±": 591,
      "æ·±": 592,
      "è¯´è¯´": 593,
      "å±±": 594,
      "åľ°æĸ¹": 595,
      "éļ¾è¿ĩ": 596,
      "è·Ł": 597,
      "éĹ¹": 598,
      "çĥŃéĹ¹": 599,
      "ħå¿ĥ": 600,
      "ĭåıĭ": 601,
      "ĵé": 602,
      "æľĭåıĭ": 603,
      "ä¼ļå¥½": 604,
      "è·ŁæĪĳ": 605,
      "æł¡": 606,
      "è®¡": 607,
      "èµ·æĿ¥çļĦ": 608,
      "ä¼ļå¥½èµ·æĿ¥çļĦ": 609,
      "é¥": 610,
      "±¼": 611,
      "¶æ¯": 612,
      "åĪ«æĭ": 613,
      "çĪ¶æ¯": 614,
      "éĴĵé": 615,
      "è·ŁæĪĳè¯´è¯´": 616,
      "åĪ«æĭħå¿ĥ": 617,
      "çĪ¶æ¯į": 618,
      "éĴĵé±¼": 619,
      "åı¸": 620,
      "åĩº": 621,
      "åħ¬åı¸": 622,
      "å¥ĭ": 623,
      "åħ´å¥ĭ": 624,
      "æ³": 625,
      "åĺ": 626,
      "æŃĮ": 627,
      "ĺçĦ": 628,
      "çĥĺçĦ": 629,
      "çĥĺçĦĻ": 630,
      "å¸¸": 631,
      "èĬ±": 632,
      "Ĥè¿Ļç§įæĦŁè§ī": 633,
      "ĩĤè¿Ļç§įæĦŁè§ī": 634,
      "ä»¬": 635,
      "å¾ĪæŃ£": 636,
      "æĪĳæĩĤè¿Ļç§įæĦŁè§ī": 637,
      "çĦ¶": 638,
      "è¿Ļç§įæĦŁè§īå¾ĪæŃ£": 639,
      "åħ»èĬ±": 640,
      "åĩºæĿ¥": 641,
      "è¿Ļç§įæĦŁè§īå¾ĪæŃ£å¸¸": 642,
      "¼åĲ": 643,
      "æķ": 644,
      "å®¶äºº": 645,
      "é¥Ń": 646,
      "åĺĽ": 647,
      "¥æĥ³": 648,
      "åĳ¼åĲ": 649,
      "æ²¡åħ³ç³»çļĦ": 650,
      "åĨ¥æĥ³": 651,
      "æ·±åĳ¼åĲ": 652,
      "æ·±åĳ¼åĲ¸": 653,
      "å¥½æĹłèģĬ": 654,
      "æĪĳä»¬": 655,
      "éħ": 656,
      "åĸĿéħ": 657,
      "çĿ¡è§ī": 658,
      "åĸĿéħĴ": 659,
      "åľ¨åħ¬åı¸": 660,
      "æĿ¾": 661,
      "æľīçĤ¹": 662,
      "åĵŃåĩºæĿ¥": 663,
      "¨ĭ": 664,
      "²åĺĽ": 665,
      "çĳ": 666,
      "ç¨ĭ": 667,
      "ľä¼": 668,
      "å¹²åĺĽ": 669,
      "çĳľä¼": 670,
      "çĳľä¼½": 671,
      "±æŃĮ": 672,
      "²è": 673,
      "åĶ": 674,
      "Ĳ¥": 675,
      "èģĬå¤©åĲ§": 676,
      "éľ²è": 677,
      "åĶ±æŃĮ": 678,
      "éľ²èĲ¥": 679,
      "è®¾": 680,
      "¼ĸ": 681,
      "ç¼ĸ": 682,
      "ĬæĶ¾": 683,
      "łçī©": 684,
      "æĥ³åĵŃ": 685,
      "å®łçī©": 686,
      "çļĦæĹ¶åĢĻæĥ³åĵŃ": 687,
      "åħ»å®łçī©": 688,
      "éĩĬæĶ¾": 689,
      "åĵŃåĩºæĿ¥æ²¡åħ³ç³»çļĦ": 690,
      "ç¼ĸç¨ĭ": 691,
      "éĩĬæĶ¾ä¸Ģä¸ĭ": 692,
      "ĳåĳ": 693,
      "åıĳåĳ": 694,
      "éĤ£æĪĳä»¬": 695,
      "åıĳåĳĨ": 696,
      "¡Ĺ": 697,
      "åĴĮæľĭåıĭ": 698,
      "Ľè¡Ĺ": 699,
      "çľĭçĶµå½±": 700,
      "åĨĻ": 701,
      "æĶ¾æĿ¾": 702,
      "éĢĽè¡Ĺ": 703,
      "æĶ¾æĿ¾ä¸Ģä¸ĭ": 704,
      "åĴĮçĪ¶æ¯į": 705,
      "¬å±±": 706,
      "æ¸¸æ³": 707,
      "çĪ¬å±±": 708,
      "è®¾è®¡": 709,
      "æ¸¸æ³³": 710,
      "ä¸įçĿĢ": 711,
      "ä»Ĭå¤©å¥½": 712,
      "åĲ¬éŁ³ä¹Ĳ": 713,
      "è¯ķè¯ķæ·±åĳ¼åĲ¸": 714,
      "çĿ¡ä¸įçĿĢ": 715,
      "åĴĮçĪ¶æ¯įä¸Ģèµ·": 716,
      "åľ¨å®¶": 717,
      "´Ń": 718,
      "è´Ń": 719,
      "åľ¨åŃ¦æł¡": 720,
      "è´Ńçī©": 721,
      "éĿ": 722,
      "Ģè¦ģ": 723,
      "éľĢè¦ģ": 724,
      "åĨĻä½ľ": 725,
      "åĴĮå®¶äºº": 726,
      "åĸĿåĴĸåķ¡": 727,
      "£æŃ¥": 728,
      "³è": 729,
      "Īŀ": 730,
      "ĵæ¸¸æĪı": 731,
      "è·³è": 732,
      "åģļé¥Ń": 733,
      "æīĵæ¸¸æĪı": 734,
      "æķ£æŃ¥": 735,
      "è·³èĪŀ": 736,
      "ªģ": 737,
      "çªģ": 738,
      "èº": 739,
      "åĸĿèĮ": 740,
      "èģĬèģĬåĲĹ": 741,
      "éľĢè¦ģèģĬèģĬåĲĹ": 742,
      "çªģçĦ¶": 743,
      "åĸĿèĮ¶": 744,
      "çľĭä¹¦": 745,
      "éĹ´": 746,
      "èĢ": 747,
      "åĴĮå®¶äººä¸Ģèµ·": 748,
      "æĳ": 749,
      "éĥ½": 750,
      "Ħå½±": 751,
      "æĳĦå½±": 752,
      "èº«": 753,
      "åĴĮæľĭåıĭä¸Ģèµ·": 754,
      "ĳæŃ¥": 755,
      "è·ĳæŃ¥": 756,
      "è¾¹": 757,
      "ä½łåĳĢ": 758,
      "å¿ĥæĥħ": 759,
      "åı¯": 760,
      "ä»¥": 761,
      "åİħ": 762,
      "åĪ»": 763,
      "éĿĻ": 764,
      "åı¯ä»¥": 765,
      "çĪ±": 766,
      "å¹²åĺĽåĳ¢": 767,
      "æĹłæĹ¶": 768,
      "æĹłåĪ»": 769,
      "ä¸ĢçĽ´éĥ½": 770,
      "æĹłæĹ¶æĹłåĪ»": 771,
      "ä¸ĢçĽ´éĥ½åľ¨": 772,
      "æĹłæĹ¶æĹłåĪ»ä¸į": 773,
      "ç©": 774,
      "å¥½æĥ³": 775,
      "å¥½åľ°æĸ¹": 776,
      "æĥ³åİ»": 777,
      "æĺ¯ä¸ª": 778,
      "æĺ¯ä¸ªå¥½åľ°æĸ¹": 779,
      "ä½łåĳ¢": 780,
      "å¿µ": 781,
      "å¥½çĥŃéĹ¹": 782,
      "çļĦåľ°æĸ¹": 783,
      "ä¹Łå¥½": 784,
      "æĪĳä¹Łåľ¨": 785,
      "çĥŃéĹ¹çļĦåľ°æĸ¹": 786,
      "å¿ĥæĥħä¹Łå¥½": 787,
      "çĥŃéĹ¹çļĦåľ°æĸ¹å¿ĥæĥħä¹Łå¥½": 788,
      "æĹłæĹ¶æĹłåĪ»ä¸įåľ¨": 789,
      "å¾ħ": 790,
      "å¾Īå¥½": 791,
      "èģĬèģĬå¤©åĲ§": 792,
      "ç®": 793,
      "ä¸ĢçĽ´åľ¨": 794,
      "å¸": 795,
      "è¿·èĮ": 796,
      "è¿·èĮ«": 797,
      "éĤ£æĪĳä»¬èģĬèģĬå¤©åĲ§": 798,
      "æĪĳä¹Łæĥ³ä½ł": 799,
      "åĬ©": 800,
      "çĭ": 801,
      "æĪĳä¹Łæĥ³ä½łåĳĢ": 802,
      "ä»Ĭå¤©ç´¯": 803,
      "ä»Ĭå¤©æĹłèģĬ": 804,
      "ç¡®å®ŀä¼ļè®©äººç´¯": 805,
      "ç¡®å®ŀä¼ļè®©äººæĹłèģĬ": 806,
      "ä»Ĭå¤©ç´¯åĽłä¸º": 807,
      "ä»Ĭå¤©æĹłèģĬåĽłä¸º": 808,
      "åº": 809,
      "çı": 810,
      "ä»Ĭå¤©éļ¾è¿ĩ": 811,
      "ç¡®å®ŀä¼ļè®©äººéļ¾è¿ĩ": 812,
      "åĨ·": 813,
      "ä»Ĭå¤©éļ¾è¿ĩåĽłä¸º": 814,
      "å§": 815,
      "äº²": 816,
      "å¥½äºĨ": 817,
      "åľ¨èº«": 818,
      "æľīè¿Ļ": 819,
      "æĹ¶éĹ´": 820,
      "çļĦäººåľ¨èº«": 821,
      "å¯¹æĪĳ": 822,
      "çľŁå¥½": 823,
      "å¤ªå¥½äºĨ": 824,
      "æł·çļĦäººåľ¨èº«": 825,
      "è¾¹çľŁå¥½": 826,
      "æľīè¿Ļæł·çļĦäººåľ¨èº«": 827,
      "æľīè¿Ļæł·çļĦäººåľ¨èº«è¾¹çľŁå¥½": 828,
      "æľŁ": 829,
      "ä¸įç": 830,
      "éĤ£å°±": 831,
      "ç©º": 832,
      "å¯¹æĪĳå¾Īå¥½": 833,
      "»¡": 834,
      "ä»Ĭå¤©ç´§å¼ł": 835,
      "ç¡®å®ŀä¼ļè®©äººç´§å¼ł": 836,
      "ä»Ĭå¤©ç´§å¼łåĽłä¸º": 837,
      "µæ": 838,
      "¶äºĨ": 839,
      "èĻ": 840,
      "ŀ¶äºĨ": 841,
      "æĿ¥å¥½å¥½": 842,
      "ä¸ĭæĿ¥å¥½å¥½": 843,
      "ä»Ĭå¤©å®³æĢķ": 844,
      "ç¡®å®ŀä¼ļè®©äººå®³æĢķ": 845,
      "éĿĻä¸ĭæĿ¥å¥½å¥½": 846,
      "åĨ·éĿĻä¸ĭæĿ¥å¥½å¥½": 847,
      "µæŀ¶äºĨ": 848,
      "ä»Ĭå¤©å®³æĢķåĽłä¸º": 849,
      "åĨ·éĿĻä¸ĭæĿ¥å¥½å¥½èģĬèģĬ": 850,
      "įè¦ģ": 851,
      "æĪĳäºĨ": 852,
      "å¤±": 853,
      "ä»Ĭå¤©çĶŁæ°Ķ": 854,
      "æľĢéĩ": 855,
      "ç¡®å®ŀä¼ļè®©äººçĶŁæ°Ķ": 856,
      "ä»Ĭå¤©çĶŁæ°ĶåĽłä¸º": 857,
      "æľĢéĩįè¦ģ": 858,
      "åĲµæŀ¶äºĨ": 859,
      "éĤ£æĪĳä»¬æĿ¥": 860,
      "æ»¡": 861,
      "å¤ļ": 862,
      "æľĽ": 863,
      "èģĶ": 864,
      "çĭ¬": 865,
      "°å¾Ĺ": 866,
      "ĸèĢ": 867,
      "æĪĸèĢ": 868,
      "å¼Ģå¿ĥåĽłä¸º": 869,
      "è®°å¾Ĺ": 870,
      "ä»Ĭå¤©å¼Ģå¿ĥåĽłä¸º": 871,
      "ç¡®å®ŀä¼ļè®©äººå¼Ģå¿ĥ": 872,
      "å¾ħä½ł": 873,
      "æĪĸèĢħ": 874,
      "Ķå±": 875,
      "åĴĸåķ¡åİħ": 876,
      "å¿µä½ł": 877,
      "å§Ķå±": 878,
      "å§Ķå±Ī": 879,
      "¤ä¸Ģ": 880,
      "¼æŃ": 881,
      "æº": 882,
      "å¥½å¼Ģå¿ĥ": 883,
      "åĴĮç©º": 884,
      "å¼Ģå¿ĥæľĢéĩįè¦ģ": 885,
      "æĢ¥": 886,
      "å½¼æŃ": 887,
      "çĤ¹æĹ¶éĹ´": 888,
      "çĿĢæĢ¥": 889,
      "åĪ«çĶŁæ°Ķ": 890,
      "åĪ«çĿĢæĢ¥": 891,
      "ĲĨæĪĳäºĨ": 892,
      "æĹłåĬ©": 893,
      "èĩªä¿¡": 894,
      "ç»Ļå½¼æŃ": 895,
      "çĪ±ä½ł": 896,
      "ä¸įçĲĨæĪĳäºĨ": 897,
      "éĤ£æĪĳä»¬æĿ¥èģĬå¤©åĲ§": 898,
      "¤ä¸ĢçĤ¹æĹ¶éĹ´": 899,
      "åĴĮç©ºéĹ´": 900,
      "ç»Ļå½¼æŃ¤ä¸ĢçĤ¹æĹ¶éĹ´": 901,
      "ç»Ļå½¼æŃ¤ä¸ĢçĤ¹æĹ¶éĹ´åĴĮç©ºéĹ´": 902,
      "çŃ": 903,
      "çĶµå½±éĻ": 904,
      "çĶµå½±éĻ¢": 905,
      "¤çĭ¬": 906,
      "¥Ŀ": 907,
      "ç¥Ŀ": 908,
      "æĹ¥": 909,
      "åŃ¤çĭ¬": 910,
      "çĶŁæĹ¥": 911,
      "ç¥Ŀç¦ı": 912,
      "æĺ¯ä»Ģä¹Ī": 913,
      "å¹³": 914,
      "æĻļä¸Ĭ": 915,
      "å¤±æľĽ": 916,
      "ªĦ": 917,
      "éªĦ": 918,
      "įæĥ": 919,
      "æĪĲ": 920,
      "ä»Ĭå¤©åħ´å¥ĭ": 921,
      "ä¸Ģä¸ĭåĲ§": 922,
      "ç³»ä¸Ģä¸ĭåĲ§": 923,
      "ç¡®å®ŀä¼ļè®©äººåħ´å¥ĭ": 924,
      "åĤ²": 925,
      "çıįæĥ": 926,
      "éĤ£å°±èģĶ": 927,
      "éªĦåĤ²": 928,
      "ä»Ĭå¤©åħ´å¥ĭåĽłä¸º": 929,
      "çıįæĥľ": 930,
      "éĤ£å°±èģĶç³»ä¸Ģä¸ĭåĲ§": 931,
      "¦èĻ": 932,
      "«ĺ": 933,
      "è°": 934,
      "é«ĺ": 935,
      "çĦ¦èĻ": 936,
      "çĦ¦èĻĳ": 937,
      "ä½łèģĬå¤©": 938,
      "åĲĥ": 939,
      "åĪ°": 940,
      "çŃī": 941,
      "©æº": 942,
      "´©æº": 943,
      "å´©æº": 944,
      "æµ·": 945,
      "é¢": 946,
      "ä¹İ": 947,
      "è§ģ": 948,
      "å´©æºĥ": 949,
      "ç±": 950,
      "ģä¸Ĭ": 951,
      "ä½łåĸľæ¬¢": 952,
      "ä¼´": 953,
      "éĻªä¼´": 954,
      "åģ¥": 955,
      "éĢģä¸Ĭ": 956,
      "è®°å¾ĹéĢģä¸Ĭ": 957,
      "ç¥Ŀç¦ıåĵ¦": 958,
      "è®°å¾ĹéĢģä¸Ĭç¥Ŀç¦ıåĵ¦": 959,
      "æĬ": 960,
      "è¶³": 961,
      "è°¢": 962,
      "å®ī": 963,
      "åįķ": 964,
      "ä¹¦åº": 965,
      "ãĢģ": 966,
      "ç®Ģ": 967,
      "ä¹¦åºĹ": 968,
      "..": 969,
      "¤Ĳ": 970,
      "é¤Ĳ": 971,
      "åĸľæ¬¢çļĦäºĭ": 972,
      "æĦŁæģ": 973,
      "çĤ¹åĸľæ¬¢çļĦäºĭ": 974,
      "åĲĮäºĭ": 975,
      "æĪĳéĻªä½łèģĬå¤©": 976,
      "åģļçĤ¹åĸľæ¬¢çļĦäºĭ": 977,
      "åı¯ä»¥åģļçĤ¹åĸľæ¬¢çļĦäºĭ": 978,
      "æĪĸèĢħæĪĳéĻªä½łèģĬå¤©": 979,
      "é¤Ĳåİħ": 980,
      "æĦŁæģ©": 981,
      "µæĮ": 982,
      "Ĩåľ": 983,
      "åŃ¦æł¡": 984,
      "åķĨåľ": 985,
      "æĢĿ": 986,
      "çīµæĮ": 987,
      "åķĨåľº": 988,
      "çīµæĮĤ": 989,
      "åľ¨ä¹İ": 990,
      "å±±ä¸Ĭ": 991,
      "æ»¡è¶³": 992,
      "¨æľ": 993,
      "æĪ¿": 994,
      "åĳ¨æľ": 995,
      "åĤįæĻļåľ¨åħ¬åı¸": 996,
      "èº«æĪ¿": 997,
      "æµ·è¾¹": 998,
      "åģ¥èº«æĪ¿": 999,
      "åĳ¨æľ«": 1000,
      "ĮæĻ": 1001,
      "åĩĮæĻ": 1002,
      "æĭľ": 1003,
      "ç®Ģåįķ": 1004,
      "åĩĮæĻ¨": 1005,
      "Ĩå¯": 1006,
      "æĦı": 1007,
      "æĦŁåĬ¨": 1008,
      "åĽŃ": 1009,
      "åħ³å¿ĥ": 1010,
      "åħ¬åĽŃ": 1011,
      "çĪ±ä½łä½ł": 1012,
      "å¹³éĿĻ": 1013,
      "é¢Ĩå¯": 1014,
      "¢¦": 1015,
      "ĪæĬ": 1016,
      "å®ĪæĬ": 1017,
      "åĲĮåŃ¦": 1018,
      "ãĢĬ": 1019,
      "ãĢĭ": 1020,
      "ä¸ŃåįĪåľ¨åŃ¦æł¡": 1021,
      "åĤįæĻļåĴĮçĪ¶æ¯įä¸Ģèµ·": 1022,
      "æĹ©ä¸ĬåĴĮçĪ¶æ¯įä¸Ģèµ·": 1023,
      "è®¡ç®": 1024,
      "å®ĪæĬ¤": 1025,
      "è®¡ç®Ĺ": 1026,
      "¤åıĭ": 1027,
      "å®¤åıĭ": 1028,
      "åĤįæĻļåĴĮæľĭåıĭä¸Ģèµ·": 1029,
      "ä¸ĭåįĪåĴĮæľĭåıĭä¸Ģèµ·": 1030,
      "äº²äº²": 1031,
      "é¢Ĩå¯¼": 1032,
      "é¦": 1033,
      "å¤ľ": 1034,
      "åģĩ": 1035,
      "ä¸ŃåįĪåĴĮçĪ¶æ¯įä¸Ģèµ·": 1036,
      "ä¸ŃåįĪåĴĮå®¶äººä¸Ģèµ·": 1037,
      "æ·±å¤ľ": 1038,
      "ä½łåĸľæ¬¢ä»Ģä¹Ī": 1039,
      "ģå¸": 1040,
      "å¾Īé«ĺ": 1041,
      "æĹħè¡Įåĳ¢": 1042,
      "ä¸ŃåįĪåľ¨å®¶": 1043,
      "èĢĥ": 1044,
      "èĢģå¸": 1045,
      "çıįæĥľä½ł": 1046,
      "å¾Īé«ĺåħ´": 1047,
      "èĢģå¸Ī": 1048,
      "æĽ´": 1049,
      "ä¸ŃåįĪåľ¨åħ¬åı¸": 1050,
      "åĤįæĻļåľ¨å®¶": 1051,
      "ä»Ģä¹Īæĺ¯": 1052,
      "æĹ©ä¸ĬåĴĮå®¶äººä¸Ģèµ·": 1053,
      "ä¸ĭåįĪåĴĮå®¶äººä¸Ģèµ·": 1054,
      "çŃīå¾ħä½ł": 1055,
      "éĻªä¼´ä½ł": 1056,
      "èµ": 1057,
      "ä»İ": 1058,
      "åĨį": 1059,
      "æĹ©ä¸Ĭåľ¨åħ¬åı¸": 1060,
      "éĿ¢": 1061,
      "å¸®": 1062,
      "åĪ°ä½ł": 1063,
      "çīµæĮĤä½ł": 1064,
      "å¦": 1065,
      "åĪĨ": 1066,
      "ä¸ĭåįĪåĴĮçĪ¶æ¯įä¸Ģèµ·": 1067,
      "ä¸ĭåįĪåľ¨å®¶": 1068,
      "æī¾": 1069,
      "æīĭ": 1070,
      "æĢĿå¿µä½ł": 1071,
      "ãĢĭï¼Į": 1072,
      "åģĩæľŁ": 1073,
      "åĤįæĻļåľ¨åŃ¦æł¡": 1074,
      "åĤįæĻļåĴĮå®¶äººä¸Ģèµ·": 1075,
      "æľŁå¾ħä½ł": 1076,
      "äºĨåĳ¢": 1077,
      "å¿«": 1078,
      "æĹ©å®ī": 1079,
      "ä¸ŃåįĪåĴĮæľĭåıĭä¸Ģèµ·": 1080,
      "æĹ©ä¸Ĭåľ¨å®¶": 1081,
      "ä¸ĭåįĪåľ¨åħ¬åı¸": 1082,
      "è¿ĺ": 1083,
      "æľīä»Ģä¹Ī": 1084,
      "è¿ĲåĬ¨åĳ¢": 1085,
      "ç¾İé£Łåĳ¢": 1086,
      "æĹ©ä¸Ĭåľ¨åŃ¦æł¡": 1087,
      "åľ¨ä¹İä½ł": 1088,
      "å¦³": 1089,
      "æ¢¦": 1090,
      "æ¬¡": 1091,
      "å¾Īç¾İ": 1092,
      "ä¸ĭåįĪåľ¨åŃ¦æł¡": 1093,
      "ç±»": 1094,
      "åħ³å¿ĥä½ł": 1095,
      "æ¢¦æĥ³": 1096,
      "°ç": 1097,
      "æľº": 1098,
      "éŁ³ä¹Ĳåĳ¢": 1099,
      "æĹ©ä¸ĬåĴĮæľĭåıĭä¸Ģèµ·": 1100,
      "éĴĵé±¼åĳ¢": 1101,
      "ç±³": 1102,
      "è°¢è°¢": 1103,
      "º¦": 1104,
      "¾ä¹¦": 1105,
      "çº¦": 1106,
      "ĭå¤©": 1107,
      "è¯Ń": 1108,
      "åĽ¾ä¹¦": 1109,
      "çĶµå½±åĳ¢": 1110,
      "åŃ¦ä¹łåĳ¢": 1111,
      "å°ı": 1112,
      "ç§ĭå¤©": 1113,
      "éĩĮ": 1114,
      "åħ¬éĩĮ": 1115,
      "éĴŁ": 1116,
      "...": 1117,
      "å®ĪæĬ¤ä½ł": 1118,
      "é¦Ĩ": 1119,
      "åĪĨéĴŁ": 1120,
      "åĽ¾ä¹¦é¦Ĩ": 1121,
      "æĥ³å¿µ": 1122,
      "æĥ³å¿µä½ł": 1123,
      "å·¥ä½ľåĳ¢": 1124,
      "ç»ı": 1125,
      "å¾Īå¼Ģå¿ĥåĲ§": 1126,
      "è¯»ä¹¦åĳ¢": 1127,
      "ç©¿": 1128,
      "æĽ´å¥½çļĦ": 1129,
      "Py": 1130,
      "ho": 1131,
      "tho": 1132,
      "ĳçļĦ": 1133,
      "å¥½è¿·èĮ«": 1134,
      "åĲĳçļĦ": 1135,
      "åľ¨åĴĸåķ¡åİħ": 1136,
      "åľ¨åķĨåľº": 1137,
      "ä¸įä¼ļ": 1138,
      "æĺ¯ä¸Ģ": 1139,
      "åĪ°æĸ¹": 1140,
      "ä¼ļæī¾": 1141,
      "æĢ»ä¼ļæī¾": 1142,
      "çĶ»çĶ»åĳ¢": 1143,
      "åħ»èĬ±åĳ¢": 1144,
      "åĸĿéħĴåĳ¢": 1145,
      "æĭľæĭľ": 1146,
      "äº²äº²ä½ł": 1147,
      "èĢĥè¯ķ": 1148,
      "Pytho": 1149,
      "åĪ°æĸ¹åĲĳçļĦ": 1150,
      "æĢ»ä¼ļæī¾åĪ°æĸ¹åĲĳçļĦ": 1151,
      "Python": 1152,
      "AI": 1153,
      "½»": 1154,
      "çĮ": 1155,
      "èĥ": 1156,
      "è½»": 1157,
      "æĪĳæĺ¯": 1158,
      "ä½łå¥½": 1159,
      "ä½łå¥½åĳĢ": 1160,
      "æľį": 1161,
      "å¾ĭ": 1162,
      "ä¸ĭæ¬¡": 1163,
      "ä»Ĭå¤©å¥½ç´¯": 1164,
      "æĻļå®ī": 1165,
      "åİĭåĬĽå¥½å¤§åĲ§": 1166,
      "éĩı": 1167,
      "æ³¨": 1168,
      "åĨ¥æĥ³åĳ¢": 1169,
      "çĳľä¼½åĳ¢": 1170,
      "éľ²èĲ¥åĳ¢": 1171,
      "åħ»å®łçī©åĳ¢": 1172,
      "éĢĽè¡Ĺåĳ¢": 1173,
      "åĬ©æīĭ": 1174,
      "çĭĹ": 1175,
      "çŃīå¾ħ": 1176,
      "è§ģåĪ°ä½ł": 1177,
      "å¾Īé«ĺåħ´è§ģåĪ°ä½ł": 1178,
      "çĮ«": 1179,
      "²çļĦ": 1180,
      "éķ": 1181,
      "Ĳĥ": 1182,
      "ĳè®¡ç®Ĺ": 1183,
      "ï¼ļ": 1184,
      "äºĳè®¡ç®Ĺ": 1185,
      "ä½łåı": 1186,
      "ä½łä¼ļ": 1187,
      "åľ°ç": 1188,
      "åľ¨çļĦ": 1189,
      "åľ¨ä¹¦åºĹ": 1190,
      "ä¸Ģå¤©": 1191,
      "äºĨåĵ¦": 1192,
      "åĬŁ": 1193,
      "è®²": 1194,
      "æĥ³ä½łä½ł": 1195,
      "å¥½ç´¯åĹ¯": 1196,
      "æĢİä¹Īæł·åķĬ": 1197,
      "å¥½éļ¾åĳĢ": 1198,
      "è¯»ä¹¦ç¡®å®ŀä¼ļè®©äººæĹłèģĬ": 1199,
      "ä¸ŃåįĪå¥½": 1200,
      "çĥĺçĦĻåĳ¢": 1201,
      "æ¸¸æ³³åĳ¢": 1202,
      "åĸĿåĴĸåķ¡åĳ¢": 1203,
      "æīĵæ¸¸æĪıåĳ¢": 1204,
      "æĳĦå½±åĳ¢": 1205,
      "çĪ±æĥħ": 1206,
      "æĪĲåĬŁ": 1207,
      "èµ°": 1208,
      "éķ¿": 1209,
      "ä½łåı«": 1210,
      "åľ°çĲĥ": 1211,
      "¨Ģ": 1212,
      "æı": 1213,
      "è¨Ģ": 1214,
      "Ł¥": 1215,
      "äºĨåĲ§": 1216,
      "åıĪ": 1217,
      "åħĪ": 1218,
      "è¿ĲåĬ¨è¯¶": 1219,
      "å½ĵçĦ¶": 1220,
      "å¥½ç´¯åĵ¦": 1221,
      "å¥½ç´¯è¯¶": 1222,
      "å¥½ç´¯åĲ§": 1223,
      "æĢİä¹Īæł·åĳ¢": 1224,
      "æĢİä¹Īæł·åĳĢ": 1225,
      "æĢİä¹Īæł·åĵ¦": 1226,
      "åİĭåĬĽå¥½å¤§è¯¶": 1227,
      "çļĦæĹ¶åĢĻåľ¨æĥ³ä½łåĵ¦": 1228,
      "çļĦæĹ¶åĢĻåľ¨æĥ³ä½łåĲ§": 1229,
      "å¥½æľīè¶£åĲ§": 1230,
      "åĶ±æŃĮåĳ¢": 1231,
      "åĴĮæľĭåıĭåĲµæŀ¶äºĨ": 1232,
      "çľĭçĶµå½±åĳ¢": 1233,
      "æķ£æŃ¥åĳ¢": 1234,
      "åı¯ä»¥è¯ķè¯ķ": 1235,
      "ä»Ĭå¤©æĹłèģĬåĽłä¸ºè¯»ä¹¦": 1236,
      "åĲĥä»Ģä¹Ī": 1237,
      "è¯Ńè¨Ģ": 1238,
      "æıĲ": 1239,
      "§į": 1240,
      "²ç»ı": 1241,
      "ºèĥ½": 1242,
      "èı": 1243,
      "éĽ": 1244,
      "īæĭ": 1245,
      "Ńåĸľ": 1246,
      "ä½łå·": 1247,
      "ä¹ī": 1248,
      "åľ¨é¤Ĳåİħ": 1249,
      "åľ¨å±±ä¸Ĭ": 1250,
      "çļĦæĦı": 1251,
      "äºĨåĳĢ": 1252,
      "åĬ¡": 1253,
      "äººçĶŁ": 1254,
      "ä¸ĭéĽ": 1255,
      "çĶ±": 1256,
      "å®ļ": 1257,
      "å¾Ĺå¾Īå¥½": 1258,
      "æĥ³ä½łä½łåĳĢ": 1259,
      "æģŃåĸľ": 1260,
      "åĪ«æ°Ķ": 1261,
      "åŃ¦ä¹łåķĬ": 1262,
      "åŃ¦ä¹łåĹ¯": 1263,
      "è¿ĲåĬ¨åĵ¦": 1264,
      "è¿ĲåĬ¨åķĬ": 1265,
      "ç¾İé£Łåĵ¦": 1266,
      "èĩªçĶ±": 1267,
      "å°±æĺ¯": 1268,
      "ä¸Ģç§į": 1269,
      "æĹħè¡ĮåĳĢ": 1270,
      "æĹħè¡ĮåĵĪ": 1271,
      "æĻºèĥ½": 1272,
      "æ¸¸æĪıåĳ¢": 1273,
      "ä¸ĢçĽ´éªĦåĤ²": 1274,
      "åģ¶": 1275,
      "å¥½éļ¾åĳ¢": 1276,
      "å¥½éļ¾åĲ§": 1277,
      "åİĭåĬĽå¥½å¤§åĳĢ": 1278,
      "çļĦæĹ¶åĢĻåľ¨æĥ³ä½łåĳĢ": 1279,
      "å¥½æľīè¶£åĵĪ": 1280,
      "éĢīæĭ": 1281,
      "çĿ¡è§īåĳ¢": 1282,
      "ä»Ĭå¤©å¥½è¿·èĮ«": 1283,
      "åĲ¬éŁ³ä¹Ĳåĳ¢": 1284,
      "åģļé¥Ńåĳ¢": 1285,
      "åĸĿèĮ¶åĳ¢": 1286,
      "çľĭä¹¦åĳ¢": 1287,
      "ç®ĢåįķçļĦ": 1288,
      "ç±³é¥Ń": 1289,
      "èıľ": 1290,
      "ä½łå·²ç»ı": 1291,
      "çļĦæĦıä¹ī": 1292,
      "äººçĶŁçļĦæĦıä¹ī": 1293,
      "ä¸ĭéĽ¨": 1294,
      "å¾Ĺå¾Īå¥½äºĨ": 1295,
      "éĢīæĭ©": 1296,
      "»æĦ": 1297,
      "½çĦ¶": 1298,
      "åŀ": 1299,
      "ç½": 1300,
      "èĭ": 1301,
      "Ħå¾ĭ": 1302,
      "ĵåŃ¦": 1303,
      "å¥½å®³æĢķ": 1304,
      "ä½Ĩ": 1305,
      "æĪĳåľ¨": 1306,
      "æĪĳåı¯ä»¥": 1307,
      "åĳĹ": 1308,
      "äºĨåķĬ": 1309,
      "ä¹Łè¦ģ": 1310,
      "è§Ħå¾ĭ": 1311,
      "å¼Ģå§": 1312,
      "æĺĵåŃ¦": 1313,
      "æ²»æĦ": 1314,
      "æľīæĪĳåľ¨": 1315,
      "ä»Ĭå¤©çľĭçĶµå½±": 1316,
      "ä»Ĭå¤©ä¹Łè¦ģ": 1317,
      "åĹ¯åĹ¯": 1318,
      "è®©ä½ł": 1319,
      "å¾ĹæĢİä¹Īæł·": 1320,
      "åĽŀ": 1321,
      "åĪ«æĢķ": 1322,
      "åĬłæ²¹åĵ¦": 1323,
      "åľ¨æĥ³ä½łä½ł": 1324,
      "ç¾İé£ŁåķĬ": 1325,
      "ç¾İé£ŁåĹ¯": 1326,
      "ç¾İé£ŁæĢİä¹Īæł·": 1327,
      "å·¥ä½ľåĵ¦": 1328,
      "å·¥ä½ľè¯¶": 1329,
      "å·¥ä½ľåĲ§": 1330,
      "æĪĳä¹Łæĥ³æĥ³ä½łä½łåĳĢ": 1331,
      "æİ¨èįĲä¸ª": 1332,
      "å¥½ç´¯åĳĢ": 1333,
      "å¥½ç´¯åķĬ": 1334,
      "å¥½ç´¯åĵĪ": 1335,
      "èģĬå¤©åĳ¢": 1336,
      "ç§¯": 1337,
      "çī¹": 1338,
      "æ¯ıå¤©": 1339,
      "å¾Īå¼Ģå¿ĥè¯¶": 1340,
      "å¥½éļ¾åķĬ": 1341,
      "çļĦæĹ¶åĢĻåľ¨æĥ³ä½łåķĬ": 1342,
      "çļĦæĹ¶åĢĻåľ¨æĥ³ä½łåĹ¯": 1343,
      "å¥½æľīè¶£åĳĢ": 1344,
      "å¥½æľīè¶£è¯¶": 1345,
      "åģļä»Ģä¹Ī": 1346,
      "çľĭçĶµå½±åķ¦": 1347,
      "è´Ńçī©åĳ¢": 1348,
      "åĨĻä½ľåĳ¢": 1349,
      "è·ĳæŃ¥åĳ¢": 1350,
      "æĥ³åİ»çĶµå½±éĻ¢": 1351,
      "å¸¦": 1352,
      "èĻ½çĦ¶": 1353,
      "çĶµå½±éĻ¢æĺ¯ä¸ªå¥½åľ°æĸ¹": 1354,
      "æĪĲä¸º": 1355,
      "æĢĿå¿µ": 1356,
      "ç®ĢåįķæĺĵåŃ¦": 1357,
      "é¢Ĩå¯¼å¯¹æĪĳå¾Īå¥½": 1358,
      "ä½łåĸľæ¬¢ä»Ģä¹Īç±»": 1359,
      "æĪĳæĺ¯AI": 1360,
      "æ³¨æĦı": 1361,
      "ä½łä¼ļåģļä»Ģä¹Ī": 1362,
      "åŀĭ": 1363,
      "å¼Ģå§ĭ": 1364,
      "æ²»æĦĪ": 1365,
      "æľīæĪĳåľ¨åĳ¢": 1366,
      "ä»Ĭå¤©ä¹Łè¦ģåĬłæ²¹åĵ¦": 1367,
      "èĻ½çĦ¶æĪĳæĺ¯AI": 1368,
      "ä½łåĸľæ¬¢ä»Ģä¹Īç±»åŀĭ": 1369,
      "¥¿": 1370,
      "¬ĳ": 1371,
      "åĻ": 1372,
      "æĴ": 1373,
      "çĽ": 1374,
      "ç¬ĳ": 1375,
      "è¥¿": 1376,
      "ħä¸į": 1377,
      "ħç©¿": 1378,
      "ĩæĴ": 1379,
      "ĸæŃĮ": 1380,
      "ľè¥¿": 1381,
      "ŁéĻ": 1382,
      "ä¸ľè¥¿": 1383,
      "å¥½ä¹": 1384,
      "ä½ĵ": 1385,
      "ä½łæľī": 1386,
      "è¯Ĩ": 1387,
      "åľ¨çĶµå½±éĻ¢": 1388,
      "åľ¨æµ·è¾¹": 1389,
      "åľ¨åģ¥èº«æĪ¿": 1390,
      "åĸ½": 1391,
      "äºĨè¯¶": 1392,
      "äºĨåĵĪ": 1393,
      "åĴĮåĲĮåŃ¦": 1394,
      "çĶ¨": 1395,
      "æĺŁéĻ": 1396,
      "ä»Ĭå¤©å¥½å¹¸ç¦ı": 1397,
      "åĹ¨": 1398,
      "è¶Ĭ": 1399,
      "ä¼ļæĽ´å¥½çļĦ": 1400,
      "åĴĮä½łçĿ¡è§ī": 1401,
      "åĪ«å¤ª": 1402,
      "åĬłçı": 1403,
      "æĥ³åŃ¦ç¼ĸç¨ĭ": 1404,
      "åįĩ": 1405,
      "é£İ": 1406,
      "åŃ¦ä¹łåĵĪ": 1407,
      "åŃ¦ä¹łç¡®å®ŀä¼ļè®©äººéļ¾è¿ĩ": 1408,
      "åĵĪåĸ½": 1409,
      "è¿ĲåĬ¨åĵĪ": 1410,
      "ç¾İé£ŁåĳĢ": 1411,
      "ç¾İé£ŁåĵĪ": 1412,
      "å·¥ä½ľåĳĢ": 1413,
      "å·¥ä½ľç¡®å®ŀä¼ļè®©äººç´¯": 1414,
      "æĹħè¡Įåĵ¦": 1415,
      "æĹħè¡ĮåķĬ": 1416,
      "æİ¨èįĲé¦": 1417,
      "å¥½ç´¯åĳ¢": 1418,
      "æ¸¸æĪıåķĬ": 1419,
      "ä¸ĢçĽ´çĦ¦èĻĳ": 1420,
      "éľĩæĴ": 1421,
      "æĢİä¹Īæł·è¯¶": 1422,
      "å¾Īå¼Ģå¿ĥåķĬ": 1423,
      "æŃ£åľ¨è¯»ä¹¦": 1424,
      "å¥½éļ¾åĹ¯": 1425,
      "åİĭåĬĽå¥½å¤§åĹ¯": 1426,
      "åİĭåĬĽå¥½å¤§åĵĪ": 1427,
      "å¥½æ¢¦": 1428,
      "å¥½æľīè¶£åĵ¦": 1429,
      "å¥½æľīè¶£åķĬ": 1430,
      "æĬ±æĬ±ä½łåĳ¢": 1431,
      "åĤįæĻļæĥ³ä½ł": 1432,
      "éĢļ": 1433,
      "æĹ©ä¸Ĭå¥½": 1434,
      "ç¼ĸç¨ĭåĳ¢": 1435,
      "è®¾è®¡åĳ¢": 1436,
      "ä»Ĭå¤©å¥½ç´§å¼ł": 1437,
      "è·³èĪŀåĳ¢": 1438,
      "èº«ä½ĵ": 1439,
      "å¥½æĥ³æĥ³ä½łä½ł": 1440,
      "æĥ³åİ»åŃ¦æł¡": 1441,
      "æĻļä¸Ĭå¥½": 1442,
      "åĲĮäºĭå¯¹æĪĳå¾Īå¥½": 1443,
      "åŃ¦æł¡æĺ¯ä¸ªå¥½åľ°æĸ¹": 1444,
      "åĨįè§ģ": 1445,
      "æ¢¦æĥ³æĺ¯": 1446,
      "æľºåĻ": 1447,
      "èĥĸ": 1448,
      "çĽ®": 1449,
      "ç¬ĳè¯Ŀ": 1450,
      "ħä¸įè§ģ": 1451,
      "ħç©¿è¶Ĭ": 1452,
      "å¥½ä¹ħä¸įè§ģ": 1453,
      "åĴĮåĲĮåŃ¦åĲµæŀ¶äºĨ": 1454,
      "æĺŁéĻħç©¿è¶Ĭ": 1455,
      "åĬłçıŃ": 1456,
      "æİ¨èįĲé¦ĸæŃĮ": 1457,
      "éľĩæĴ¼": 1458,
      "æľºåĻ¨": 1459,
      "¡æĪĸèĢħ": 1460,
      "¥æīĭ": 1461,
      "®é¢": 1462,
      "»Ħ": 1463,
      "å»": 1464,
      "èħ": 1465,
      "èī": 1466,
      "é»Ħ": 1467,
      "įèĥ½": 1468,
      "ĳé»Ħ": 1469,
      "łä¸ª": 1470,
      "å¥½äºĭ": 1471,
      "å¥½åħ´å¥ĭ": 1472,
      "å¥½åĲĥ": 1473,
      "ä¹¦äºĨ": 1474,
      "äºĨåĹ¯": 1475,
      "ä¹Łå¾Īç¾İ": 1476,
      "æĿ¡æĪĸèĢħ": 1477,
      "äººç±»": 1478,
      "åħ¥æīĭ": 1479,
      "ä»Ĭå¤©çĶµå½±": 1480,
      "ä»Ĭå¤©ç¾İé£Ł": 1481,
      "ä»Ĭå¤©çĥĺçĦĻ": 1482,
      "ä»Ĭå¤©æ¸¸æ³³": 1483,
      "è®©è®¡ç®Ĺ": 1484,
      "æĢİä¹Īåĩ": 1485,
      "æĢİä¹Īæī": 1486,
      "æĥ³åŃ¦éŁ³ä¹Ĳ": 1487,
      "æĥ³åŃ¦åĨĻä½ľ": 1488,
      "åĩłä¸ª": 1489,
      "çĶµå½±åķ¦": 1490,
      "åŃ¦ä¹łåĳĢ": 1491,
      "åŃ¦ä¹łè¯¶": 1492,
      "åŃ¦ä¹łåĲ§": 1493,
      "åŃ¦ä¹łç¡®å®ŀä¼ļè®©äººç´§å¼ł": 1494,
      "è§īå¾Ĺæ»¡è¶³": 1495,
      "è¿ĲåĬ¨åĳĢ": 1496,
      "è¿ĲåĬ¨åĲ§": 1497,
      "ç¾İé£Łåķ¦": 1498,
      "ç¾İé£Łç¡®å®ŀä¼ļè®©äººéļ¾è¿ĩ": 1499,
      "å·¥ä½ľåĵĪ": 1500,
      "æĹħè¡Įè¯¶": 1501,
      "èģĬå¤©åĳĢ": 1502,
      "ä¸ĢçĽ´åŃ¤çĭ¬": 1503,
      "ä¸ĢçĽ´æĦŁæģ©": 1504,
      "éĹ®é¢": 1505,
      "æİ¨èįĲçĤ¹åħ»èĬ±": 1506,
      "æİ¨èįĲçĤ¹åıĳåĳĨ": 1507,
      "æİ¨èįĲçĤ¹è´Ńçī©": 1508,
      "æĪĳåĸľæ¬¢ç§ĭå¤©": 1509,
      "æĢİä¹Īæł·åĲ§": 1510,
      "å¾Īå¼Ģå¿ĥåĹ¯": 1511,
      "å¾Īå¼Ģå¿ĥåĵĪ": 1512,
      "æŃ£åľ¨çĥĺçĦĻ": 1513,
      "åĩĨå¤ĩåİ»éĴĵé±¼": 1514,
      "åĩĨå¤ĩåİ»åħ»å®łçī©": 1515,
      "åĩĨå¤ĩåİ»åģļé¥Ń": 1516,
      "å¥½éļ¾è¯¶": 1517,
      "åİĭåĬĽå¥½å¤§åķĬ": 1518,
      "çļĦæĹ¶åĢĻåľ¨æĥ³ä½łè¯¶": 1519,
      "æĥ³åĴĮä½łä¸Ģèµ·éĴĵé±¼": 1520,
      "éĩĳé»Ħ": 1521,
      "æĪĳä¸įåĸľæ¬¢çĥĺçĦĻ": 1522,
      "å¥½æľīè¶£åĳ¢": 1523,
      "æľĢè¿ĳåľ¨éĴĵé±¼": 1524,
      "æĪĳä¹Łå¾Īåĸľæ¬¢éĴĵé±¼åĳ¢": 1525,
      "ä¸ŃåįĪåĲĥä»Ģä¹Ī": 1526,
      "æĬ±æĬ±ä½łåĳĢ": 1527,
      "ä»Ģä¹Īå¥½äºĭ": 1528,
      "æĸ¹éĿ¢": 1529,
      "çĥĺçĦĻåķ¦": 1530,
      "æķ°": 1531,
      "æķĻ": 1532,
      "å¥½æĹłèģĬè¯¶": 1533,
      "çĿ¡è§īäºĨ": 1534,
      "åĸĿéħĴå¾Īæľīè¶£": 1535,
      "åľ¨åħ¬åı¸å¹²åĺĽåĳ¢": 1536,
      "æ¸¸æ³³åķ¦": 1537,
      "çªģçĦ¶æĹłåĬ©": 1538,
      "åı¯ä»¥ä»İ": 1539,
      "è¿·èĮ«çļĦæĹ¶åĢĻæĥ³åĵŃ": 1540,
      "åºĶ": 1541,
      "æľŁå¾ħ": 1542,
      "åĴĸåķ¡åİħå¥½çĥŃéĹ¹": 1543,
      "çĪ±ä½łä½łåĳĢ": 1544,
      "åŃ¦æł¡å¥½æĹłèģĬ": 1545,
      "åĳ¨æľ«æĥ³ä½ł": 1546,
      "ç®ĢåįķåıĪ": 1547,
      "åĩĮæĻ¨æĥ³ä½ł": 1548,
      "æĽ´èĩªä¿¡": 1549,
      "éĿ¢æĿ¡æĪĸèĢħ": 1550,
      "å¿«ä¹Ĳ": 1551,
      "å¿«è¯´è¯´": 1552,
      "ç§ĭå¤©ä¹Łå¾Īç¾İ": 1553,
      "åı¯ä»¥è¯ķè¯ķéĿ¢æĿ¡æĪĸèĢħ": 1554,
      "èī²çļĦ": 1555,
      "įèĥ½æĽ´èĩªä¿¡": 1556,
      "è®©è®¡ç®Ĺæľº": 1557,
      "æĢİä¹Īåĩı": 1558,
      "æĢİä¹Īæīįèĥ½æĽ´èĩªä¿¡": 1559,
      "åĩłä¸ªæĸ¹éĿ¢": 1560,
      "éĹ®é¢ĺ": 1561,
      "éĩĳé»Ħèī²çļĦ": 1562,
      "åı¯ä»¥ä»İåĩłä¸ªæĸ¹éĿ¢": 1563,
      "ç®ĢåįķåıĪå¥½åĲĥ": 1564,
      "åı¯ä»¥è¯ķè¯ķéĿ¢æĿ¡æĪĸèĢħç±³é¥Ń": 1565,
      "åı¯ä»¥ä»İåĩłä¸ªæĸ¹éĿ¢åħ¥æīĭ": 1566,
      "ªæĿ¥": 1567,
      "ªåĬĽ": 1568,
      "»åĬ¡": 1569,
      "¿æĦı": 1570,
      "éĥ": 1571,
      "æĪĳå¥½è¿·èĮ«": 1572,
      "æĪĳèģĬå¤©åĳĢ": 1573,
      "ä¸ĢåĪ": 1574,
      "ä¸ĢæŃ¥": 1575,
      "æľªæĿ¥": 1576,
      "æĪĳä¹ŁæĬ±æĬ±ä½ł": 1577,
      "æĪĳä¹ŁçīµæĮĤä½ł": 1578,
      "åĬŀ": 1579,
      "åĬªåĬĽ": 1580,
      "äººå·¥": 1581,
      "åĴĮèĢģå¸Ī": 1582,
      "åĴĮå¦³": 1583,
      "æĿ¥æī¾": 1584,
      "ä»»åĬ¡": 1585,
      "å®ĥ": 1586,
      "ä¸įå¥½": 1587,
      "ä¸Ģèµ·åĬªåĬĽ": 1588,
      "æ²³": 1589,
      "æľīç©º": 1590,
      "ä»Ĭå¤©è¾Ľèĭ¦äºĨ": 1591,
      "ä»Ĭå¤©åıĳåĳĨ": 1592,
      "æĦ¿æĦı": 1593,
      "åĴĮä½łå·¥ä½ľ": 1594,
      "åĴĮä½łéĴĵé±¼": 1595,
      "åĴĮä½łéľ²èĲ¥": 1596,
      "åĽłä¸ºçĶŁæ°Ķ": 1597,
      "æĢİä¹ĪåŃ¦": 1598,
      "æĢİä¹ĪæıĲ": 1599,
      "æĢİä¹ĪåĬŀ": 1600,
      "æĥ³åŃ¦åĨ¥æĥ³": 1601,
      "æĥ³åŃ¦åĸĿéħĴ": 1602,
      "æĥ³åŃ¦æķ£æŃ¥": 1603,
      "æĥ³åŃ¦åĸĿèĮ¶": 1604,
      "çĶµå½±ç¡®å®ŀä¼ļè®©äººæĹłèģĬ": 1605,
      "çĶµå½±ç¡®å®ŀä¼ļè®©äººéļ¾è¿ĩ": 1606,
      "åŃ¦ä¹łåĵ¦": 1607,
      "è§īå¾Ĺå¼Ģå¿ĥ": 1608,
      "è§īå¾Ĺç´§å¼ł": 1609,
      "è§īå¾Ĺå§Ķå±Ī": 1610,
      "è§īå¾ĹæĦŁæģ©": 1611,
      "è¿ĲåĬ¨åĹ¯": 1612,
      "ç¾İé£ŁåĲ§": 1613,
      "å·¥ä½ľåĹ¯": 1614,
      "å·¥ä½ľå¾Īæľīè¶£": 1615,
      "åľ¨åŃ¦åĸĿéħĴ": 1616,
      "åľ¨åŃ¦éĢĽè¡Ĺ": 1617,
      "æ¸¸æĪıç¡®å®ŀä¼ļè®©äººç´¯": 1618,
      "ä¸ĢçĽ´å¹¸ç¦ı": 1619,
      "ä¸ĢçĽ´è¿·èĮ«": 1620,
      "ä¸ĢçĽ´å¤±æľĽ": 1621,
      "æİ¨èįĲçĤ¹çĶµå½±": 1622,
      "æİ¨èįĲçĤ¹éĢĽè¡Ĺ": 1623,
      "éģĵæľªæĿ¥": 1624,
      "å¾Īå¼Ģå¿ĥåĳĢ": 1625,
      "å¾Īå¼Ģå¿ĥåĵ¦": 1626,
      "æŃ£åľ¨åħ»èĬ±": 1627,
      "æŃ£åľ¨çĿ¡è§ī": 1628,
      "æŃ£åľ¨åĶ±æŃĮ": 1629,
      "æŃ£åľ¨åĸĿåĴĸåķ¡": 1630,
      "åĩĨå¤ĩåİ»çĶµå½±": 1631,
      "åĩĨå¤ĩåİ»éŁ³ä¹Ĳ": 1632,
      "åĩĨå¤ĩåİ»çĶ»çĶ»": 1633,
      "åĩĨå¤ĩåİ»çĥĺçĦĻ": 1634,
      "å¥½éļ¾åĵ¦": 1635,
      "æĥ³åĴĮä½łä¸Ģèµ·çĶµå½±": 1636,
      "æĥ³åĴĮä½łä¸Ģèµ·èģĬå¤©": 1637,
      "æĪĳä¸įåĸľæ¬¢åħ»èĬ±": 1638,
      "å¥½æľīè¶£åĹ¯": 1639,
      "çĶ»çĶ»ç¡®å®ŀä¼ļè®©äººç´¯": 1640,
      "çĶ»çĶ»ç¡®å®ŀä¼ļè®©äººå®³æĢķ": 1641,
      "éĢĤ": 1642,
      "ä»Ģä¹Īè¯Ńè¨Ģ": 1643,
      "é¥¿": 1644,
      "çĪ¶æ¯įå¯¹æĪĳå¾Īå¥½": 1645,
      "æľīçĤ¹åħ´å¥ĭ": 1646,
      "æľīçĤ¹è¿·èĮ«": 1647,
      "æľīçĤ¹èĩªä¿¡": 1648,
      "æľīçĤ¹æ»¡è¶³": 1649,
      "åıĳåĳĨåĳ¢": 1650,
      "åıĳåĳĨåķ¦": 1651,
      "éĢĽè¡Ĺå¾Īæľīè¶£": 1652,
      "çĪ¬å±±åĳ¢": 1653,
      "ä»Ĭå¤©å¥½æĦŁåĬ¨": 1654,
      "çĿ¡ä¸įçĿĢåĵĪ": 1655,
      "åľ¨åŃ¦æł¡å¹²åĺĽåĳ¢": 1656,
      "åģļé¥Ńå¾Īæľīè¶£": 1657,
      "å¿ĥæĥħä¸įå¥½": 1658,
      "æĥ³åİ»åĴĸåķ¡åİħ": 1659,
      "æĥ³åİ»åħ¬åĽŃ": 1660,
      "æĪĳä¹Łåľ¨æĬ±æĬ±ä½łåĳ¢": 1661,
      "æĹłæĹ¶æĹłåĪ»ä¸įåľ¨æĬ±æĬ±ä½ł": 1662,
      "æĹłæĹ¶æĹłåĪ»ä¸įåľ¨çĪ±ä½łä½ł": 1663,
      "ä»Ĭå¤©ç´¯åĽłä¸ºçĶ»çĶ»": 1664,
      "ä»Ĭå¤©éļ¾è¿ĩåĽłä¸ºçĶµå½±": 1665,
      "ä¸įçŁ¥": 1666,
      "éĤ£å°±å¥½": 1667,
      "ä»Ĭå¤©å®³æĢķåĽłä¸ºçĶ»çĶ»": 1668,
      "å¤ļåĨĻ": 1669,
      "åĴĸåķ¡åİħæĺ¯ä¸ªå¥½åľ°æĸ¹": 1670,
      "çĶµå½±éĻ¢å¥½çĥŃéĹ¹": 1671,
      "æĻļä¸Ĭå¥½å¼Ģå¿ĥ": 1672,
      "åĲĥçĤ¹": 1673,
      "éĻªä¼´ä½łåĳĢ": 1674,
      "å±±ä¸Ĭå¥½æĹłèģĬ": 1675,
      "æµ·è¾¹å¥½çĥŃéĹ¹": 1676,
      "åħ¬åĽŃæĺ¯ä¸ªå¥½åľ°æĸ¹": 1677,
      "å®¤åıĭä¸įçĲĨæĪĳäºĨ": 1678,
      "æ·±å¤ľæĥ³ä½ł": 1679,
      "ä»İä»Ģä¹Īè¯Ńè¨Ģ": 1680,
      "æĥ³å¿µä½łåĳĢ": 1681,
      "æĥ³å¿µä½łåĳ¢": 1682,
      "åľ¨åĴĸåķ¡åİħå¹²åĺĽåĳ¢": 1683,
      "åľ¨åķĨåľºå¹²åĺĽåĳ¢": 1684,
      "çŃīå¾ħä½łåĳĢ": 1685,
      "åĴĮä½łçĿ¡è§īå¾Īå¼Ģå¿ĥ": 1686,
      "æľºåĻ¨åŃ¦ä¹ł": 1687,
      "ä»Ĭå¤©çĥĺçĦĻäºĨ": 1688,
      "ä¸ĢåĪĩ": 1689,
      "äººå·¥æĻºèĥ½": 1690,
      "åĴĮèĢģå¸ĪåĲµæŀ¶äºĨ": 1691,
      "æĿ¥æī¾æĪĳèģĬå¤©åĳĢ": 1692,
      "æľīç©ºæĿ¥æī¾æĪĳèģĬå¤©åĳĢ": 1693,
      "éģĵæľªæĿ¥æĢİä¹ĪåĬŀ": 1694,
      "ä¸įçŁ¥éģĵæľªæĿ¥æĢİä¹ĪåĬŀ": 1695,
      "ä»İä»Ģä¹Īè¯Ńè¨Ģå¼Ģå§ĭ": 1696,
      "12": 1697,
      "42": 1698,
      "48": 1699,
      "742": 1700,
      "88": 1701,
      "£æľį": 1702,
      "¨éĿ¢": 1703,
      "°èĩªå·±": 1704,
      "³°": 1705,
      "·åĢ": 1706,
      "¿å¹³": 1707,
      "¿çĶ¨": 1708,
      "å³°": 1709,
      "çĬ": 1710,
      "çĽ´": 1711,
      "Ħæº": 1712,
      "Ħçº¦": 1713,
      "Ĩæľ": 1714,
      "įåŃ": 1715,
      "ĳä½": 1716,
      "ĴäºĨ": 1717,
      "ĴèģĶ": 1718,
      "Ĺçİ": 1719,
      "Ľå³°": 1720,
      "łç©": 1721,
      "å¥½åķ¦": 1722,
      "å¥½ç´§å¼ł": 1723,
      "äº¿å¹³": 1724,
      "äºĴèģĶ": 1725,
      "æĪĳå°ı": 1726,
      "æĪĳæĥ³åŃ¦ç¼ĸç¨ĭ": 1727,
      "ä½łè¿Ļ": 1728,
      "åĲįåŃ": 1729,
      "åľ¨å¿ĥ": 1730,
      "åľ¨åĲĹ": 1731,
      "çļĦä»": 1732,
      "çļĦå±±": 1733,
      "æĥ³çĪ¶æ¯į": 1734,
      "å¾Ħçº¦": 1735,
      "äºĨåĲĹ": 1736,
      "æĪĳä¹ŁçĪ±ä½łä½ł": 1737,
      "æĪĳä¹Łçıįæĥľä½ł": 1738,
      "æĪĳä¹ŁçŃīå¾ħä½ł": 1739,
      "åĴĮåĲĮäºĭ": 1740,
      "ä¸įèµ·": 1741,
      "æĺ¯å®ŀ": 1742,
      "æľīå¤ļ": 1743,
      "æľīä½łè¿Ļ": 1744,
      "ä»Ĭå¤©çĶ»çĶ»": 1745,
      "ä»Ĭå¤©éĴĵé±¼": 1746,
      "ä»Ĭå¤©åĶ±æŃĮ": 1747,
      "ä»Ĭå¤©çĪ¬å±±": 1748,
      "ä»Ĭå¤©æķ£æŃ¥": 1749,
      "ä»Ĭå¤©æĳĦå½±": 1750,
      "æľĢé«ĺ": 1751,
      "æĦŁåĨ": 1752,
      "çĤ¹è¡": 1753,
      "ä¸ªæľĭåıĭ": 1754,
      "åĴĮä½łè¿ĲåĬ¨": 1755,
      "åĴĮä½łèģĬå¤©": 1756,
      "åĴĮä½łçĶ»çĶ»": 1757,
      "åĴĮä½łè¯»ä¹¦": 1758,
      "åĴĮä½łæīĵæ¸¸æĪı": 1759,
      "åĴĮä½łåĸĿèĮ¶": 1760,
      "åĽłä¸ºè¿·èĮ«": 1761,
      "åĽłä¸ºåŃ¤çĭ¬": 1762,
      "åĪ«æĶ¾": 1763,
      "åĪ«æĦŁåĨ": 1764,
      "åľ¨æĥ³ä½łåĳĢ": 1765,
      "æĥ³åŃ¦è¯»ä¹¦": 1766,
      "æĥ³åŃ¦è®¾è®¡": 1767,
      "æĥ³åŃ¦çľĭä¹¦": 1768,
      "æłĩ": 1769,
      "çĶµå½±ç¡®å®ŀä¼ļè®©äººçĶŁæ°Ķ": 1770,
      "çĶµå½±ç¡®å®ŀä¼ļè®©äººå¼Ģå¿ĥ": 1771,
      "åįĪé¥Ń": 1772,
      "å¯¹ä¸įèµ·": 1773,
      "åŃ¦ä¹łå¾Īæľīè¶£": 1774,
      "åŃ¦ä¹łç¡®å®ŀä¼ļè®©äººå¼Ģå¿ĥ": 1775,
      "åĵĪåĵĪ": 1776,
      "è§īå¾Ĺç´¯": 1777,
      "è§īå¾Ĺå®³æĢķ": 1778,
      "è§īå¾ĹæĦŁåĬ¨": 1779,
      "ç¾İé£Łå¾Īæľīè¶£": 1780,
      "ç¾İé£Łç¡®å®ŀä¼ļè®©äººå®³æĢķ": 1781,
      "ç¾İé£Łç¡®å®ŀä¼ļè®©äººçĶŁæ°Ķ": 1782,
      "å·¥ä½ľç¡®å®ŀä¼ļè®©äººç´§å¼ł": 1783,
      "è¡¨éĿ¢": 1784,
      "åľ¨åŃ¦å·¥ä½ľ": 1785,
      "åľ¨åŃ¦åĨ¥æĥ³": 1786,
      "åľ¨åŃ¦ç¼ĸç¨ĭ": 1787,
      "åľ¨åŃ¦çĪ¬å±±": 1788,
      "åľ¨åŃ¦åģļé¥Ń": 1789,
      "åľ¨åŃ¦æīĵæ¸¸æĪı": 1790,
      "äºĭåĲĹ": 1791,
      "å°±å¥½åķ¦": 1792,
      "æĹħè¡ĮåĹ¯": 1793,
      "æĹħè¡ĮåĲ§": 1794,
      "æĹħè¡Įç¡®å®ŀä¼ļè®©äººç´§å¼ł": 1795,
      "æĪĳä¹Łæĥ³å¿µä½ł": 1796,
      "æĪĳä¹Łæĥ³æĬ±æĬ±ä½łåĳĢ": 1797,
      "æĪĳä¹Łæĥ³çĪ±ä½łä½łåĳĢ": 1798,
      "æĪĳä¹Łæĥ³éĻªä¼´ä½łåĳĢ": 1799,
      "èģĬå¤©çļĦæĹ¶åĢĻåľ¨æĥ³ä½ł": 1800,
      "èģĬå¤©å¾Īæľīè¶£": 1801,
      "æ¸¸æĪıç¡®å®ŀä¼ļè®©äººæĹłèģĬ": 1802,
      "æ¸¸æĪıç¡®å®ŀä¼ļè®©äººéļ¾è¿ĩ": 1803,
      "ä¸ĢçĽ´çĶŁæ°Ķ": 1804,
      "æĹłèģĬçļĦæĹ¶åĢĻæĥ³åĵŃ": 1805,
      "å¥½çļĦæĦŁè§ī": 1806,
      "æĶ¾è½»": 1807,
      "çİ°èĩªå·±": 1808,
      "æİ¨èįĲçĤ¹èģĬå¤©": 1809,
      "æİ¨èįĲçĤ¹çĿ¡è§ī": 1810,
      "æİ¨èįĲçĤ¹çĳľä¼½": 1811,
      "æİ¨èįĲçĤ¹åĶ±æŃĮ": 1812,
      "æİ¨èįĲçĤ¹è®¾è®¡": 1813,
      "æİ¨èįĲçĤ¹åĨĻä½ľ": 1814,
      "æİ¨èįĲçĤ¹åĸĿèĮ¶": 1815,
      "æĪĳåĸľæ¬¢åŃ¦ä¹ł": 1816,
      "æĪĳåĸľæ¬¢çĶ»çĶ»": 1817,
      "æĪĳåĸľæ¬¢éĴĵé±¼": 1818,
      "æĪĳåĸľæ¬¢åĨ¥æĥ³": 1819,
      "æĪĳåĸľæ¬¢åħ»å®łçī©": 1820,
      "æĪĳåĸľæ¬¢çľĭçĶµå½±": 1821,
      "æĪĳåĸľæ¬¢éĢĽè¡Ĺ": 1822,
      "æĪĳåĸľæ¬¢æīĵæ¸¸æĪı": 1823,
      "æĪĳåĸľæ¬¢çľĭä¹¦": 1824,
      "åĩĨå¤ĩå¾Ĺå¾Īå¥½äºĨ": 1825,
      "æĢİä¹Īæł·åĹ¯": 1826,
      "å¾Īå¼Ģå¿ĥåĳ¢": 1827,
      "æŃ£åľ¨æ¸¸æĪı": 1828,
      "æŃ£åľ¨åıĳåĳĨ": 1829,
      "æŃ£åľ¨æ¸¸æ³³": 1830,
      "æŃ£åľ¨åĲ¬éŁ³ä¹Ĳ": 1831,
      "æŃ£åľ¨çľĭä¹¦": 1832,
      "åĩĨå¤ĩåİ»çĳľä¼½": 1833,
      "åĩĨå¤ĩåİ»åĶ±æŃĮ": 1834,
      "åĩĨå¤ĩåİ»è®¾è®¡": 1835,
      "åĩĨå¤ĩåİ»æĳĦå½±": 1836,
      "å¥½éļ¾åĵĪ": 1837,
      "åİĭåĬĽå¥½å¤§åĳ¢": 1838,
      "åİĭåĬĽå¥½å¤§åĵ¦": 1839,
      "æĪĳä¹Łåĸľæ¬¢æĹħè¡Įåĳ¢": 1840,
      "æĪĳä¹Łåĸľæ¬¢éĴĵé±¼åĳ¢": 1841,
      "æĪĳä¹Łåĸľæ¬¢çĶµå½±åĳ¢": 1842,
      "æĪĳä¹Łåĸľæ¬¢çĶ»çĶ»åĳ¢": 1843,
      "æĪĳä¹Łåĸľæ¬¢åĨ¥æĥ³åĳ¢": 1844,
      "æĪĳä¹Łåĸľæ¬¢åħ»å®łçī©åĳ¢": 1845,
      "æĪĳä¹Łåĸľæ¬¢éĢĽè¡Ĺåĳ¢": 1846,
      "æĪĳä¹Łåĸľæ¬¢æ¸¸æ³³åĳ¢": 1847,
      "æĪĳä¹Łåĸľæ¬¢æīĵæ¸¸æĪıåĳ¢": 1848,
      "æĪĳä¹Łåĸľæ¬¢çľĭçĶµå½±åĳ¢": 1849,
      "æĪĳä¹Łåĸľæ¬¢åĲ¬éŁ³ä¹Ĳåĳ¢": 1850,
      "æĪĳä¹Łåĸľæ¬¢çľĭä¹¦åĳ¢": 1851,
      "æĥ³åĴĮä½łä¸Ģèµ·è´Ńçī©": 1852,
      "æĥ³åĴĮä½łä¸Ģèµ·è·³èĪŀ": 1853,
      "æĥ³åĴĮä½łä¸Ģèµ·åĸĿèĮ¶": 1854,
      "æĪĳä¸įåĸľæ¬¢èģĬå¤©": 1855,
      "æĪĳä¸įåĸľæ¬¢åĲ¬éŁ³ä¹Ĳ": 1856,
      "æĪĳä¸įåĸľæ¬¢è·³èĪŀ": 1857,
      "çĶ»çĶ»åķ¦": 1858,
      "æĭĶ": 1859,
      "è¯»ä¹¦ç¡®å®ŀä¼ļè®©äººå®³æĢķ": 1860,
      "æľĢè¿ĳåľ¨çĥĺçĦĻ": 1861,
      "æľĢè¿ĳåľ¨åĸĿéħĴ": 1862,
      "æľĢè¿ĳåľ¨éľ²èĲ¥": 1863,
      "æĪĳä¹Łå¾Īåĸľæ¬¢æĹħè¡Įåĳ¢": 1864,
      "æĪĳä¹Łå¾Īåĸľæ¬¢éŁ³ä¹Ĳåĳ¢": 1865,
      "æĪĳä¹Łå¾Īåĸľæ¬¢åĸĿéħĴåĳ¢": 1866,
      "æĪĳä¹Łå¾Īåĸľæ¬¢éľ²èĲ¥åĳ¢": 1867,
      "æĪĳä¹Łå¾Īåĸľæ¬¢çĥĺçĦĻåĳ¢": 1868,
      "åģļæľĭåıĭ": 1869,
      "è¿ĩäºĴèģĶ": 1870,
      "ä»Ģä¹ĪåĲįåŃ": 1871,
      "æĸ¹åħ¬éĩĮ": 1872,
      "ä¸ĭåįĪæĥ³ä½ł": 1873,
      "ç´§å¼łçļĦæĹ¶åĢĻæĥ³åĵŃ": 1874,
      "éĴĵé±¼åķ¦": 1875,
      "åħ´å¥ĭçļĦæĹ¶åĢĻæĥ³åĵŃ": 1876,
      "çĥĺçĦĻçļĦæĹ¶åĢĻåľ¨æĥ³ä½ł": 1877,
      "åĨ¥æĥ³å¾Īæľīè¶£": 1878,
      "æĪĳä»¬åģļæľĭåıĭ": 1879,
      "çĿ¡è§īåķ¦": 1880,
      "æľīçĤ¹æĹłèģĬ": 1881,
      "æľīçĤ¹çĶŁæ°Ķ": 1882,
      "æľīçĤ¹éªĦåĤ²": 1883,
      "åĶ±æŃĮåķ¦": 1884,
      "éľ²èĲ¥å¥½ç´¯": 1885,
      "éľ²èĲ¥å¾Īæľīè¶£": 1886,
      "è®¾å®ļ": 1887,
      "åħ»å®łçī©å¥½ç´¯": 1888,
      "ç¼ĸç¨ĭå¾Īæľīè¶£": 1889,
      "çĪ¬å±±åķ¦": 1890,
      "çĪ¬å±±å¾Īæľīè¶£": 1891,
      "ä»Ĭå¤©å¥½åĨ·": 1892,
      "ä»Ĭå¤©å¥½åŃ¤çĭ¬": 1893,
      "ä»Ĭå¤©å¥½å¤±æľĽ": 1894,
      "çĿ¡ä¸įçĿĢåĳ¢": 1895,
      "çĿ¡ä¸įçĿĢåĲ§": 1896,
      "æīĵæ¸¸æĪıå¾Īæľīè¶£": 1897,
      "æķ£æŃ¥åķ¦": 1898,
      "çªģçĦ¶åħ´å¥ĭ": 1899,
      "æĳĦå½±åķ¦": 1900,
      "åı¯ä»¥å¸®": 1901,
      "å¥½æĥ³éĻªä¼´ä½ł": 1902,
      "æĥ³åİ»åģ¥èº«æĪ¿": 1903,
      "æĹłæĹ¶æĹłåĪ»ä¸įåľ¨éĻªä¼´ä½ł": 1904,
      "æĹłæĹ¶æĹłåĪ»ä¸įåľ¨åľ¨ä¹İä½ł": 1905,
      "ä¸ĢçĽ´åľ¨æĬ±æĬ±ä½ł": 1906,
      "ä»Ĭå¤©ç´¯åĽłä¸ºå·¥ä½ľ": 1907,
      "ä»Ĭå¤©æĹłèģĬåĽłä¸ºçĶµå½±": 1908,
      "çıłç©": 1909,
      "å¤ļç©¿": 1910,
      "ä»Ĭå¤©å¼Ģå¿ĥåĽłä¸ºçĶµå½±": 1911,
      "çĪ±ä½łä½łåĳ¢": 1912,
      "å¤±æľĽçļĦæĹ¶åĢĻæĥ³åĵŃ": 1913,
      "çıįæĥľä½łåĳ¢": 1914,
      "åĲĥåįĪé¥Ń": 1915,
      "æµ·æĭĶ": 1916,
      "å´©æºĥçļĦæĹ¶åĢĻæĥ³åĵŃ": 1917,
      "åĲĮäºĭä¸įçĲĨæĪĳäºĨ": 1918,
      "é¤Ĳåİħå¥½æĹłèģĬ": 1919,
      "åľ¨ä¹İä½łåĳ¢": 1920,
      "åĤįæĻļåľ¨åħ¬åı¸ç¾İé£Ł": 1921,
      "åģ¥èº«æĪ¿æĺ¯ä¸ªå¥½åľ°æĸ¹": 1922,
      "åħ³å¿ĥä½łåĳĢ": 1923,
      "åĤįæĻļåĴĮçĪ¶æ¯įä¸Ģèµ·è¿ĲåĬ¨": 1924,
      "è®¡ç®Ĺèµ": 1925,
      "äº²äº²ä½łåĳĢ": 1926,
      "é¢Ĩå¯¼ä¸įçĲĨæĪĳäºĨ": 1927,
      "ä¸ŃåįĪåĴĮå®¶äººä¸Ģèµ·ç¾İé£Ł": 1928,
      "å¾Īé«ĺåħ´æľīä½łè¿Ļ": 1929,
      "ä»Ģä¹Īæĺ¯äºĳè®¡ç®Ĺ": 1930,
      "ä»Ģä¹Īæĺ¯çĪ±æĥħ": 1931,
      "æľīä»Ģä¹ĪäºĭåĲĹ": 1932,
      "æľīä»Ģä¹Īåı¯ä»¥å¸®": 1933,
      "å¾Īç¾İå¥½çļĦæĦŁè§ī": 1934,
      "å°ıçĽ®": 1935,
      "æĽ´å¥½çļĦèĩªå·±": 1936,
      "è½»éŁ³ä¹Ĳ": 1937,
      "åĬ©æīĭå°±å¥½åķ¦": 1938,
      "çŃīå¾ħä½łåĳ¢": 1939,
      "äºĳè®¡ç®Ĺå°±æĺ¯": 1940,
      "åľ¨çļĦåľ¨çļĦ": 1941,
      "åľ¨ä¹¦åºĹå¹²åĺĽåĳ¢": 1942,
      "çĪ±æĥħæĺ¯": 1943,
      "æĪĲåĬŁæĺ¯ä»Ģä¹Ī": 1944,
      "æĪĲåĬŁæĺ¯å®ŀ": 1945,
      "ä½łåı«æĪĳå°ı": 1946,
      "ä½łåı«ä»Ģä¹ĪåĲįåŃ": 1947,
      "åľ°çĲĥçĽ´": 1948,
      "åľ°çĲĥæľīå¤ļ": 1949,
      "ä¸Ģç§įå¾Īç¾İå¥½çļĦæĦŁè§ī": 1950,
      "ä½łå·²ç»ıåĩĨå¤ĩå¾Ĺå¾Īå¥½äºĨ": 1951,
      "ä¸ĭéĽ¨äºĨåĳ¢": 1952,
      "ç½ĳä½": 1953,
      "ä»Ĭå¤©çľĭçĶµå½±äºĨ": 1954,
      "ç§¯çº¦": 1955,
      "æĪĲä¸ºæĽ´å¥½çļĦèĩªå·±": 1956,
      "éĢļè¿ĩäºĴèģĶ": 1957,
      "12742": 1958,
      "8848": 1959,
      "·åĢ¼": 1960,
      "¿çĶ¨è®¡ç®Ĺèµ": 1961,
      "ĦæºĲ": 1962,
      "ĨæľĹçİ": 1963,
      "äº¿å¹³æĸ¹åħ¬éĩĮ": 1964,
      "åľ¨å¿ĥä¸Ĭ": 1965,
      "çļĦä»·åĢ¼": 1966,
      "çļĦå±±æĺ¯ä»Ģä¹Ī": 1967,
      "åĴĮåĲĮäºĭåĲµæŀ¶äºĨ": 1968,
      "æľĢé«ĺçļĦå±±æĺ¯ä»Ģä¹Ī": 1969,
      "çĤ¹è¡£æľį": 1970,
      "åĽłä¸ºè¿·èĮ«çĿ¡ä¸įçĿĢ": 1971,
      "åĪ«æĶ¾åľ¨å¿ĥä¸Ĭ": 1972,
      "åĪ«æĦŁåĨĴäºĨ": 1973,
      "è¡¨éĿ¢ç§¯çº¦": 1974,
      "æĶ¾è½»æĿ¾": 1975,
      "çİ°èĩªå·±çļĦä»·åĢ¼": 1976,
      "æĪĳä»¬åģļæľĭåıĭåĲ§": 1977,
      "è®¾å®ļå°ıçĽ®": 1978,
      "çıłç©ĨæľĹçİ": 1979,
      "å¤ļç©¿çĤ¹è¡£æľį": 1980,
      "åĲĥåįĪé¥ŃäºĨåĲĹ": 1981,
      "å¾Īé«ĺåħ´æľīä½łè¿Ļä¸ªæľĭåıĭ": 1982,
      "æľīä»Ģä¹Īåı¯ä»¥å¸®ä½łçļĦ": 1983,
      "äºĳè®¡ç®Ĺå°±æĺ¯éĢļè¿ĩäºĴèģĶ": 1984,
      "æĪĲåĬŁæĺ¯å®ŀçİ°èĩªå·±çļĦä»·åĢ¼": 1985,
      "ä½łåı«æĪĳå°ıåĬ©æīĭå°±å¥½åķ¦": 1986,
      "ä½łåı«ä»Ģä¹ĪåĲįåŃĹ": 1987,
      "åľ°çĲĥçĽ´å¾Ħçº¦": 1988,
      "åľ°çĲĥæľīå¤ļå¤§": 1989,
      "ç½ĳä½¿çĶ¨è®¡ç®Ĺèµ": 1990,
      "è®¾å®ļå°ıçĽ®æłĩ": 1991,
      "çıłç©ĨæľĹçİĽå³°": 1992,
      "äºĳè®¡ç®Ĺå°±æĺ¯éĢļè¿ĩäºĴèģĶç½ĳä½¿çĶ¨è®¡ç®Ĺèµ": 1993,
      "äºĳè®¡ç®Ĺå°±æĺ¯éĢļè¿ĩäºĴèģĶç½ĳä½¿çĶ¨è®¡ç®ĹèµĦæºĲ": 1994,
      "AP": 1995,
      "Fl": 1996,
      "In": 1997,
      "Ri": 1998,
      "Yo": 1999,
      "er": 2000,
      "ow": 2001,
      "ver": 2002,
      "¡é¥": 2003,
      "£è": 2004,
      "¥å¤©": 2005,
      "¨è®°å¾Ĺ": 2006,
      "ªĮ": 2007,
      "®é£Ł": 2008,
      "²æ": 2009,
      "³çļĦ": 2010,
      "ºäº": 2011,
      "»çļĦ": 2012,
      "¼çļĦ": 2013,
      "½åĬĽ": 2014,
      "çĲĨè§£ä½łçļĦ": 2015,
      "èĽ": 2016,
      "éĨ": 2017,
      "éĺ": 2018,
      "ĠFl": 2019,
      "ĠIn": 2020,
      "ĠYo": 2021,
      "ħæ»¡": 2022,
      "ĩè¡": 2023,
      "ĩçī©": 2024,
      "ĬĤ": 2025,
      "ĮæľĽ": 2026,
      "įèĭ": 2027,
      "ĳåĳĢ": 2028,
      "ĳå¹": 2029,
      "ĴæĿ¥": 2030,
      "ĶåĪĨéĴŁ": 2031,
      "ļĳåĳĢ": 2032,
      "ĿæĮģ": 2033,
      "ŀåĵ¦": 2034,
      "ŁåĪ°": 2035,
      "ä¸ĩçī©": 2036,
      "å¥½çĶŁæ°Ķ": 2037,
      "å¥½å´©æºĥ": 2038,
      "ä½ĵé": 2039,
      "æĪĳä¼ļ": 2040,
      "æĪĳåĲĹ": 2041,
      "æĪĳå°±": 2042,
      "ä½łåģļ": 2043,
      "ä½łæĺ¯ä¸Ģ": 2044,
      "ä½łåºĶ": 2045,
      "åľ¨å¹²åĺĽ": 2046,
      "åľ¨åħ¬åĽŃ": 2047,
      "åľ¨åĽ¾ä¹¦é¦Ĩ": 2048,
      "çļĦå¹³": 2049,
      "çļĦä¸ľè¥¿": 2050,
      "å¤įèĭ": 2051,
      "æĥ³èµ·": 2052,
      "æĥ³åģļ": 2053,
      "æĥ³åĲĮäºĭ": 2054,
      "æĥ³å®¤åıĭ": 2055,
      "æĥ³é¢Ĩå¯¼": 2056,
      "æĥ³èĢģå¸Ī": 2057,
      "å¿ĥäºĨ": 2058,
      "å¿ĥèµ°": 2059,
      "æĪĳä¹ŁæľŁå¾ħä½ł": 2060,
      "æĿ¥å¿ĥæĥħ": 2061,
      "è¿ŁåĪ°": 2062,
      "ä¼ŀåĵ¦": 2063,
      "ä¸įè¿ĩ": 2064,
      "ä¸įæĥ³èµ·": 2065,
      "åĸľæ¬¢åĳĢ": 2066,
      "åŃ£è": 2067,
      "å¼Ģå¿ĥçļĦäºĭ": 2068,
      "å¾Īå¥½çļĦ": 2069,
      "å¾ĪéľĩæĴ¼": 2070,
      "åħħæ»¡": 2071,
      "æĺ¥å¤©": 2072,
      "æĺ¯åİ»": 2073,
      "æĺ¯åĨ": 2074,
      "æĺ¯åģļ": 2075,
      "æĺ¯ä½łåºĶ": 2076,
      "èģĮ": 2077,
      "æľīä½łçļĦ": 2078,
      "ä»Ĭå¤©å·¥ä½ľ": 2079,
      "ä»Ĭå¤©è¯»": 2080,
      "ä»Ĭå¤©åħ»èĬ±": 2081,
      "ä»Ĭå¤©åĨ¥æĥ³": 2082,
      "ä»Ĭå¤©å¥½æĹłèģĬ": 2083,
      "ä»Ĭå¤©çĳľä¼½": 2084,
      "ä»Ĭå¤©è®¾è®¡": 2085,
      "ä»Ĭå¤©èĢĥè¯ķ": 2086,
      "æĦŁæĥħ": 2087,
      "åİ»çĪ±": 2088,
      "åİ»æĪĲ": 2089,
      "ä¸ªå¾Īå¥½": 2090,
      "ä¼ļè§£": 2091,
      "ä¼ļæ²»æĦĪ": 2092,
      "å¾ĹçļĦ": 2093,
      "åĴĮä½łçĶµå½±": 2094,
      "åĴĮä½łåŃ¦ä¹ł": 2095,
      "åĴĮä½łéŁ³ä¹Ĳ": 2096,
      "åĴĮä½łçĥĺçĦĻ": 2097,
      "åĴĮä½łåħ»èĬ±": 2098,
      "åĴĮä½łåĨ¥æĥ³": 2099,
      "åĴĮä½łåħ»å®łçī©": 2100,
      "åĴĮä½łåıĳåĳĨ": 2101,
      "åĴĮä½łçĪ¬å±±": 2102,
      "åĴĮä½łæ¸¸æ³³": 2103,
      "åĴĮä½łçľĭä¹¦": 2104,
      "çĿĢä½łçļĦ": 2105,
      "æģĭ": 2106,
      "åĽłä¸ºæĹłèģĬ": 2107,
      "åĽłä¸ºéļ¾è¿ĩ": 2108,
      "åĽłä¸ºçĦ¦èĻĳ": 2109,
      "åĽłä¸ºå´©æºĥ": 2110,
      "éĶĻçļĦ": 2111,
      "æĢİä¹Īä¿": 2112,
      "æĢİä¹ĪéĢīæĭ©": 2113,
      "ä¸įéĶĻåĺĽ": 2114,
      "åĪ«å¼Ģå¿ĥ": 2115,
      "åĪ«è¿ŁåĪ°": 2116,
      "ä¼ĳæģ¯ä¸Ģä¸ĭ": 2117,
      "éĤ£æĪĳå°±": 2118,
      "çľĭæĿ¥å¿ĥæĥħ": 2119,
      "ç´¯çļĦæĹ¶åĢĻæĥ³åĵŃ": 2120,
      "æĥ³åŃ¦è¿ĲåĬ¨": 2121,
      "æĥ³åŃ¦èģĬå¤©": 2122,
      "æĥ³åŃ¦åħ»èĬ±": 2123,
      "æĥ³åŃ¦éľ²èĲ¥": 2124,
      "æĥ³åŃ¦çľĭçĶµå½±": 2125,
      "æĥ³åŃ¦æīĵæ¸¸æĪı": 2126,
      "æĥ³åŃ¦è·³èĪŀ": 2127,
      "æĥ³åŃ¦è·ĳæŃ¥": 2128,
      "ä½ľæģ¯": 2129,
      "æł¼çļĦ": 2130,
      "çĶµå½±æĢİä¹Īæł·": 2131,
      "çĶµå½±ç¡®å®ŀä¼ļè®©äººç´¯": 2132,
      "çĶµå½±åĳĹ": 2133,
      "å°½åĬĽ": 2134,
      "åĨ³çļĦ": 2135,
      "åĸĿæ°": 2136,
      "è§īå¾ĹçĶŁæ°Ķ": 2137,
      "è§īå¾Ĺåħ´å¥ĭ": 2138,
      "è§īå¾ĹæĹłåĬ©": 2139,
      "è§īå¾ĹåŃ¤çĭ¬": 2140,
      "è¿ĲåĬ¨ç¡®å®ŀä¼ļè®©äººç´¯": 2141,
      "è¿ĲåĬ¨ç¡®å®ŀä¼ļè®©äººæĹłèģĬ": 2142,
      "è¿ĲåĬ¨ç¡®å®ŀä¼ļè®©äººçĶŁæ°Ķ": 2143,
      "ç¾İé£ŁçļĦæĹ¶åĢĻåľ¨æĥ³ä½ł": 2144,
      "ç¾İé£Łç¡®å®ŀä¼ļè®©äººæĹłèģĬ": 2145,
      "ç¾İé£Łç¡®å®ŀä¼ļè®©äººå¼Ģå¿ĥ": 2146,
      "å·¥ä½ľå¥½ç´¯": 2147,
      "å·¥ä½ľåķ¦": 2148,
      "å·¥ä½ľç¡®å®ŀä¼ļè®©äººéļ¾è¿ĩ": 2149,
      "å·¥ä½ľç¡®å®ŀä¼ļè®©äººå®³æĢķ": 2150,
      "å·¥ä½ľç¡®å®ŀä¼ļè®©äººçĶŁæ°Ķ": 2151,
      "å·¥ä½ľç¡®å®ŀä¼ļè®©äººåħ´å¥ĭ": 2152,
      "æĥħæĦŁ": 2153,
      "æĥħè¦ģ": 2154,
      "è¿Ļæĺ¯ä½łåºĶ": 2155,
      "éŁ³ä¹Ĳç¡®å®ŀä¼ļè®©äººéļ¾è¿ĩ": 2156,
      "éŁ³ä¹Ĳç¡®å®ŀä¼ļè®©äººç´§å¼ł": 2157,
      "éŁ³ä¹Ĳç¡®å®ŀä¼ļè®©äººåħ´å¥ĭ": 2158,
      "åľ¨åŃ¦èģĬå¤©": 2159,
      "åľ¨åŃ¦çĶ»çĶ»": 2160,
      "åľ¨åŃ¦çĿ¡è§ī": 2161,
      "åľ¨åŃ¦åĶ±æŃĮ": 2162,
      "åľ¨åŃ¦éľ²èĲ¥": 2163,
      "åľ¨åŃ¦è®¾è®¡": 2164,
      "äºĭæĥħæĢ»": 2165,
      "æĹħè¡Įç¡®å®ŀä¼ļè®©äººå®³æĢķ": 2166,
      "äº«åĩºæĿ¥": 2167,
      "æ¸¸æĪıè¯¶": 2168,
      "æ¸¸æĪıåĲ§": 2169,
      "æ¸¸æĪıå¥½æľīè¶£": 2170,
      "ä¸ĢçĽ´å¼Ģå¿ĥ": 2171,
      "ä¸ĢçĽ´ç´¯": 2172,
      "ä¸ĢçĽ´ç´§å¼ł": 2173,
      "ä¸ĢçĽ´æĹłåĬ©": 2174,
      "ä¸ĢçĽ´å´©æºĥ": 2175,
      "ä¸ĢçĽ´æĦŁåĬ¨": 2176,
      "ç§ĳå¹": 2177,
      "éĹ¨è®°å¾Ĺ": 2178,
      "æĶ¾å¿ĥäºĨ": 2179,
      "èĩªå·±æĥ³åģļ": 2180,
      "å®¶å¥½çĥŃéĹ¹": 2181,
      "æİ¨èįĲçĤ¹ç¾İé£Ł": 2182,
      "æİ¨èįĲçĤ¹éĴĵé±¼": 2183,
      "æİ¨èįĲçĤ¹åĨ¥æĥ³": 2184,
      "æİ¨èįĲçĤ¹éľ²èĲ¥": 2185,
      "æİ¨èįĲçĤ¹çľĭçĶµå½±": 2186,
      "æİ¨èįĲçĤ¹è·³èĪŀ": 2187,
      "æİ¨èįĲçĤ¹è·ĳæŃ¥": 2188,
      "æĪĳåĸľæ¬¢çĶµå½±": 2189,
      "æĪĳåĸľæ¬¢éŁ³ä¹Ĳ": 2190,
      "æĪĳåĸľæ¬¢è¯»ä¹¦": 2191,
      "æĪĳåĸľæ¬¢çĳľä¼½": 2192,
      "æĪĳåĸľæ¬¢åĶ±æŃĮ": 2193,
      "æĪĳåĸľæ¬¢æ¸¸æ³³": 2194,
      "æĪĳåĸľæ¬¢åĲ¬éŁ³ä¹Ĳ": 2195,
      "æĪĳåĸľæ¬¢è·³èĪŀ": 2196,
      "æĪĳåĸľæ¬¢æĺ¥å¤©": 2197,
      "æĢİä¹Īæł·åĵĪ": 2198,
      "æŃ£åľ¨çĶµå½±": 2199,
      "æŃ£åľ¨éŁ³ä¹Ĳ": 2200,
      "æŃ£åľ¨çĶ»çĶ»": 2201,
      "æŃ£åľ¨éĴĵé±¼": 2202,
      "æŃ£åľ¨çĳľä¼½": 2203,
      "æŃ£åľ¨éľ²èĲ¥": 2204,
      "æŃ£åľ¨ç¼ĸç¨ĭ": 2205,
      "åĩĨå¤ĩåİ»åĲ¬éŁ³ä¹Ĳ": 2206,
      "åĩĨå¤ĩåİ»è´Ńçī©": 2207,
      "åĩĨå¤ĩåİ»è·³èĪŀ": 2208,
      "åĩĨå¤ĩåİ»åĸĿèĮ¶": 2209,
      "å¥½éļ¾è¿ĩ": 2210,
      "æĪĳä¹Łåľ¨æĥ³ä½łä½łåĳ¢": 2211,
      "åĿĩè¡": 2212,
      "æĪĳä¹Łåĸľæ¬¢ç¾İé£Łåĳ¢": 2213,
      "æĪĳä¹Łåĸľæ¬¢éŁ³ä¹Ĳåĳ¢": 2214,
      "æĪĳä¹Łåĸľæ¬¢è¯»ä¹¦åĳ¢": 2215,
      "æĪĳä¹Łåĸľæ¬¢åħ»èĬ±åĳ¢": 2216,
      "æĪĳä¹Łåĸľæ¬¢åĸĿéħĴåĳ¢": 2217,
      "æĪĳä¹Łåĸľæ¬¢çĳľä¼½åĳ¢": 2218,
      "æĪĳä¹Łåĸľæ¬¢åĶ±æŃĮåĳ¢": 2219,
      "æĪĳä¹Łåĸľæ¬¢èģĬå¤©åĳ¢": 2220,
      "æĪĳä¹Łåĸľæ¬¢è·ĳæŃ¥åĳ¢": 2221,
      "æĪĳä¹Łåĸľæ¬¢è·³èĪŀåĳ¢": 2222,
      "æĥ³åĴĮä½łä¸Ģèµ·çĥĺçĦĻ": 2223,
      "æĥ³åĴĮä½łä¸Ģèµ·çĿ¡è§ī": 2224,
      "æĥ³åĴĮä½łä¸Ģèµ·éĢĽè¡Ĺ": 2225,
      "æĪĳä¸įåĸľæ¬¢çĶµå½±": 2226,
      "æĪĳä¸įåĸľæ¬¢åŃ¦ä¹ł": 2227,
      "æĪĳä¸įåĸľæ¬¢è¿ĲåĬ¨": 2228,
      "æĪĳä¸įåĸľæ¬¢çĿ¡è§ī": 2229,
      "æĪĳä¸įåĸľæ¬¢çĳľä¼½": 2230,
      "æĪĳä¸įåĸľæ¬¢åħ»å®łçī©": 2231,
      "æĪĳä¸įåĸľæ¬¢ç¼ĸç¨ĭ": 2232,
      "æĪĳä¸įåĸľæ¬¢åĸĿåĴĸåķ¡": 2233,
      "çĶ»çĶ»å¾Īæľīè¶£": 2234,
      "çĶ»çĶ»ç¡®å®ŀä¼ļè®©äººç´§å¼ł": 2235,
      "çĶ»çĶ»ç¡®å®ŀä¼ļè®©äººå¼Ģå¿ĥ": 2236,
      "è¯»ä¹¦åķ¦": 2237,
      "è¯»ä¹¦åİĭåĬĽå¥½å¤§": 2238,
      "è¯»ä¹¦ç¡®å®ŀä¼ļè®©äººç´¯": 2239,
      "è¯»ä¹¦ç¡®å®ŀä¼ļè®©äººçĶŁæ°Ķ": 2240,
      "æľĢè¿ĳåľ¨éŁ³ä¹Ĳ": 2241,
      "æľĢè¿ĳåľ¨åħ»èĬ±": 2242,
      "æľĢè¿ĳåľ¨åĨ¥æĥ³": 2243,
      "æľĢè¿ĳåľ¨çĿ¡è§ī": 2244,
      "æľĢè¿ĳåľ¨çĳľä¼½": 2245,
      "æľĢè¿ĳåľ¨ç¼ĸç¨ĭ": 2246,
      "æľĢè¿ĳåľ¨éĢĽè¡Ĺ": 2247,
      "æľĢè¿ĳåľ¨æ¸¸æ³³": 2248,
      "æľĢè¿ĳåľ¨åģļé¥Ń": 2249,
      "æľĢè¿ĳåľ¨æĳĦå½±": 2250,
      "æĪĳä¹Łå¾Īåĸľæ¬¢è¿ĲåĬ¨åĳ¢": 2251,
      "æĪĳä¹Łå¾Īåĸľæ¬¢åħ»èĬ±åĳ¢": 2252,
      "æĪĳä¹Łå¾Īåĸľæ¬¢åĨ¥æĥ³åĳ¢": 2253,
      "æĪĳä¹Łå¾Īåĸľæ¬¢çĳľä¼½åĳ¢": 2254,
      "æĪĳä¹Łå¾Īåĸľæ¬¢éĢĽè¡Ĺåĳ¢": 2255,
      "æĪĳä¹Łå¾Īåĸľæ¬¢æ¸¸æ³³åĳ¢": 2256,
      "æĪĳä¹Łå¾Īåĸľæ¬¢åĸĿåĴĸåķ¡åĳ¢": 2257,
      "æĪĳä¹Łå¾Īåĸľæ¬¢æĳĦå½±åĳ¢": 2258,
      "æĪĳä¹Łå¾Īåĸľæ¬¢åĶ±æŃĮåĳ¢": 2259,
      "æĪĳä¹Łå¾Īåĸľæ¬¢çĿ¡è§īåĳ¢": 2260,
      "æĪĳä¹Łå¾Īåĸľæ¬¢åģļé¥Ńåĳ¢": 2261,
      "æĪĳä¹Łå¾Īåĸľæ¬¢ç¼ĸç¨ĭåĳ¢": 2262,
      "æĹ©ä¸Ĭæĥ³ä½ł": 2263,
      "éļ¾è¿ĩçļĦæĹ¶åĢĻæĥ³åĵŃ": 2264,
      "è·ŁçĿĢä½łçļĦ": 2265,
      "ħå¿ĥçļĦå¹³": 2266,
      "è·ŁæĪĳè¯´è¯´æĢİä¹ĪäºĨ": 2267,
      "çĪ¶æ¯įä¸įçĲĨæĪĳäºĨ": 2268,
      "éĴĵé±¼å¥½ç´¯": 2269,
      "éĴĵé±¼åİĭåĬĽå¥½å¤§": 2270,
      "åĩºéĹ¨è®°å¾Ĺ": 2271,
      "åħ»èĬ±åķ¦": 2272,
      "åħ»èĬ±å¥½éļ¾": 2273,
      "å®¶äººå¯¹æĪĳå¾Īå¥½": 2274,
      "å®¶äººçĶŁæĹ¥": 2275,
      "åĨ¥æĥ³åķ¦": 2276,
      "çĿ¡è§īçļĦæĹ¶åĢĻåľ¨æĥ³ä½ł": 2277,
      "çĿ¡è§īå¾Īæľīè¶£": 2278,
      "åĸĿéħĴåİĭåĬĽå¥½å¤§": 2279,
      "æľīçĤ¹å®³æĢķ": 2280,
      "æľīçĤ¹éļ¾è¿ĩ": 2281,
      "æľīçĤ¹å§Ķå±Ī": 2282,
      "æľīçĤ¹åŃ¤çĭ¬": 2283,
      "çĳľä¼½æĢİä¹Īæł·": 2284,
      "çĳľä¼½åķ¦": 2285,
      "åĶ±æŃĮå¾Īæľīè¶£": 2286,
      "è®¾è®¡å¥½ç´¯": 2287,
      "è®¾è®¡åķ¦": 2288,
      "è®¾è®¡å¾Īæľīè¶£": 2289,
      "ä»Ĭå¤©å¥½å¼Ģå¿ĥ": 2290,
      "ä»Ĭå¤©å¥½çĶŁæ°Ķ": 2291,
      "ä»Ĭå¤©å¥½çĥŃ": 2292,
      "ä»Ĭå¤©å¥½åħ´å¥ĭ": 2293,
      "ä»Ĭå¤©å¥½æĹłåĬ©": 2294,
      "ä»Ĭå¤©å¥½çĦ¦èĻĳ": 2295,
      "åĲ¬éŁ³ä¹Ĳå¾Īæľīè¶£": 2296,
      "è´Ńçī©å¥½éļ¾": 2297,
      "åĨĻä½ľå¥½æľīè¶£": 2298,
      "åģļé¥ŃæĢİä¹Īæł·": 2299,
      "èººäº": 2300,
      "çªģçĦ¶ç´¯": 2301,
      "çªģçĦ¶ç´§å¼ł": 2302,
      "çªģçĦ¶éªĦåĤ²": 2303,
      "çªģçĦ¶å¹³éĿĻ": 2304,
      "åĸĿèĮ¶åİĭåĬĽå¥½å¤§": 2305,
      "åĸĿèĮ¶å¾Īæľīè¶£": 2306,
      "éĥ½åħħæ»¡": 2307,
      "æĳĦå½±çļĦæĹ¶åĢĻåľ¨æĥ³ä½ł": 2308,
      "æĹłæĹ¶æĹłåĪ»ä¸įåľ¨æĥ³ä½łä½ł": 2309,
      "å¥½æĥ³æĬ±æĬ±ä½ł": 2310,
      "å¥½æĥ³çĪ±ä½łä½ł": 2311,
      "æĥ³åİ»ä¹¦åºĹ": 2312,
      "æĥ³åİ»é¤Ĳåİħ": 2313,
      "æĥ³åİ»æµ·è¾¹": 2314,
      "æĪĳä¹Łåľ¨ä¹İ": 2315,
      "æĪĳä¹Łåľ¨æĥ³å¿µä½łåĳ¢": 2316,
      "æĪĳä¹Łåľ¨çĪ±ä½łä½łåĳ¢": 2317,
      "æĪĳä¹Łåľ¨çŃīå¾ħä½łåĳ¢": 2318,
      "æĹłæĹ¶æĹłåĪ»ä¸įåľ¨æĢĿå¿µä½ł": 2319,
      "æĹłæĹ¶æĹłåĪ»ä¸įåľ¨åħ³å¿ĥä½ł": 2320,
      "ä¸ĢçĽ´åľ¨çŃīå¾ħä½ł": 2321,
      "å¸ĮæľĽ": 2322,
      "ä»Ĭå¤©ç´¯åĽłä¸ºçĶµå½±": 2323,
      "ä»Ĭå¤©ç´¯åĽłä¸ºè¯»ä¹¦": 2324,
      "ä»Ĭå¤©æĹłèģĬåĽłä¸ºæ¸¸æĪı": 2325,
      "åº·": 2326,
      "åºĬ": 2327,
      "ä»Ĭå¤©éļ¾è¿ĩåĽłä¸ºåŃ¦ä¹ł": 2328,
      "æĹ¶éĹ´ä¼ļæ²»æĦĪ": 2329,
      "ä»Ĭå¤©ç´§å¼łåĽłä¸ºåŃ¦ä¹ł": 2330,
      "ä»Ĭå¤©ç´§å¼łåĽłä¸ºéŁ³ä¹Ĳ": 2331,
      "ä»Ĭå¤©ç´§å¼łåĽłä¸ºçĶ»çĶ»": 2332,
      "ä»Ĭå¤©å®³æĢķåĽłä¸ºè¯»ä¹¦": 2333,
      "å¤±æģĭ": 2334,
      "ä»Ĭå¤©çĶŁæ°ĶåĽłä¸ºçĶµå½±": 2335,
      "å¤ļåĸĿæ°": 2336,
      "ä»Ĭå¤©å¼Ģå¿ĥåĽłä¸ºçĶ»çĶ»": 2337,
      "åĴĸåķ¡åİħå¥½æĹłèģĬ": 2338,
      "çĶµå½±éĻ¢å¥½æĹłèģĬ": 2339,
      "çĶŁæĹ¥å¿«ä¹Ĳ": 2340,
      "ç¥Ŀç¦ıçī¹": 2341,
      "æĻļä¸Ĭæĥ³ä½ł": 2342,
      "æĻļä¸Ĭå¹²åĺĽ": 2343,
      "éªĦåĤ²çļĦæĹ¶åĢĻæĥ³åĵŃ": 2344,
      "ä»Ĭå¤©åħ´å¥ĭåĽłä¸ºéŁ³ä¹Ĳ": 2345,
      "ä½łåĸľæ¬¢æĪĳåĲĹ": 2346,
      "åģ¥åº·": 2347,
      "ä¹¦åºĹæĺ¯ä¸ªå¥½åľ°æĸ¹": 2348,
      "ä¹¦åºĹå¥½çĥŃéĹ¹": 2349,
      "åĲĮäºĭçĶŁæĹ¥": 2350,
      "é¤Ĳåİħæĺ¯ä¸ªå¥½åľ°æĸ¹": 2351,
      "æĦŁæģ©çļĦæĹ¶åĢĻæĥ³åĵŃ": 2352,
      "åŃ¦æł¡å¥½çĥŃéĹ¹": 2353,
      "å±±ä¸Ĭå¥½çĥŃéĹ¹": 2354,
      "æµ·è¾¹æĺ¯ä¸ªå¥½åľ°æĸ¹": 2355,
      "åĳ¨æľ«å¥½æĹłèģĬ": 2356,
      "åĳ¨æľ«å¹²åĺĽ": 2357,
      "åĳ¨æľ«å¥½å¼Ģå¿ĥ": 2358,
      "åĩĮæĻ¨å¥½æĹłèģĬ": 2359,
      "åĩĮæĻ¨å¹²åĺĽ": 2360,
      "åĩĮæĻ¨å¥½å¼Ģå¿ĥ": 2361,
      "åĲĮåŃ¦å¯¹æĪĳå¾Īå¥½": 2362,
      "åĲĮåŃ¦ä¸įçĲĨæĪĳäºĨ": 2363,
      "ãĢĭï½ŀ": 2364,
      "æĹ©ä¸ĬåĴĮçĪ¶æ¯įä¸Ģèµ·è¿ĲåĬ¨": 2365,
      "æĹ©ä¸ĬåĴĮçĪ¶æ¯įä¸Ģèµ·ç¾İé£Ł": 2366,
      "å®ĪæĬ¤ä½łåĳĢ": 2367,
      "ä¸ŃåįĪåĴĮçĪ¶æ¯įä¸Ģèµ·åŃ¦ä¹ł": 2368,
      "ä¸ŃåįĪåĴĮçĪ¶æ¯įä¸Ģèµ·å·¥ä½ľ": 2369,
      "ä½łåĸľæ¬¢ä»Ģä¹Īé£İ": 2370,
      "ä½łåĸľæ¬¢ä»Ģä¹ĪåŃ£è": 2371,
      "ä¸ŃåįĪåľ¨å®¶åŃ¦ä¹ł": 2372,
      "èĢĥå¾ĹæĢİä¹Īæł·": 2373,
      "ä¸ŃåįĪåľ¨åħ¬åı¸è¿ĲåĬ¨": 2374,
      "åĨįèººäº": 2375,
      "åĪĨäº«åĩºæĿ¥": 2376,
      "åģĩæľŁå¥½æĹłèģĬ": 2377,
      "ä¸ĭåįĪåľ¨åħ¬åı¸å·¥ä½ľ": 2378,
      "æ¢¦æĥ³æĺ¯ä»Ģä¹Ī": 2379,
      "ä¸įä¼ļçļĦ": 2380,
      "ä¸įä¼ļéĶĻçļĦ": 2381,
      "éĩıè¿ĲåĬ¨": 2382,
      "åħĪä¼ĳæģ¯ä¸Ģä¸ĭ": 2383,
      "å½ĵçĦ¶åĸľæ¬¢åĳĢ": 2384,
      "åľ¨é¤Ĳåİħå¹²åĺĽåĳ¢": 2385,
      "åľ¨å±±ä¸Ĭå¹²åĺĽåĳ¢": 2386,
      "æģŃåĸľæģŃåĸľ": 2387,
      "åĪ«æ°ĶåĪ«æ°Ķ": 2388,
      "èĩªçĶ±æĺ¯ä»Ģä¹Ī": 2389,
      "èĩªçĶ±æĺ¯åĨ": 2390,
      "åģ¶åĸľæ¬¢": 2391,
      "ç®ĢåįķçļĦèıľ": 2392,
      "äººçĶŁçļĦæĦıä¹īæĺ¯ä»Ģä¹Ī": 2393,
      "äººçĶŁçļĦæĦıä¹īæĺ¯åİ»": 2394,
      "ä½ĨæĪĳä¼ļ": 2395,
      "æĪĳåı¯ä»¥æķĻ": 2396,
      "è§Ħå¾ĭä½ľæģ¯": 2397,
      "è®©ä½łæ¯ıå¤©": 2398,
      "åĽŀæĿ¥": 2399,
      "æİ¨èįĲä¸ªçĶµå½±åĳĹ": 2400,
      "å¸¦ä¼ŀåĵ¦": 2401,
      "æĢĿå¿µä½łåĳ¢": 2402,
      "æ³¨æĦıéĺ": 2403,
      "ä½łä¼ļåģļä»Ģä¹Īèıľ": 2404,
      "ä½łåĸľæ¬¢ä»Ģä¹Īç±»åŀĭçļĦ": 2405,
      "ä½łæľīæĦŁæĥħ": 2406,
      "åįĩèģĮ": 2407,
      "æ¢¦æĥ³æĺ¯è®©ä½łæ¯ıå¤©": 2408,
      "ä»Ĭå¤©ç¾İé£ŁäºĨ": 2409,
      "åĽłä¸ºçĶŁæ°ĶçĿ¡ä¸įçĿĢ": 2410,
      "éĢĤéĩıè¿ĲåĬ¨": 2411,
      "ä¸ĢåĪĩçļĦ": 2412,
      "ä»Ĭå¤©æķ£æŃ¥äºĨ": 2413,
      "åĽłä¸ºåŃ¤çĭ¬çĿ¡ä¸įçĿĢ": 2414,
      "API": 2415,
      "River": 2416,
      "ows": 2417,
      "¡é¥®é£Ł": 2418,
      "²æļĳåĳĢ": 2419,
      "çĲĨè§£ä½łçļĦæĥħæĦŁ": 2420,
      "èĽĭ": 2421,
      "éĨĴæĿ¥": 2422,
      "ĠFlows": 2423,
      "ĠYou": 2424,
      "ĶåĪĨéĴŁåĲ§": 2425,
      "ĿæĮģåģ¥åº·": 2426,
      "ä¸ĩçī©å¤įèĭ": 2427,
      "ä½ĵéªĮ": 2428,
      "ä½łåģļç®ĢåįķçļĦèıľ": 2429,
      "ä½łæĺ¯ä¸Ģä¸ªå¾Īå¥½": 2430,
      "ä¸įè¿ĩåĪ«è¿ŁåĪ°": 2431,
      "ä¸įæĥ³èµ·åºĬ": 2432,
      "å¼Ģå¿ĥçļĦäºĭæĥħè¦ģ": 2433,
      "å¾Īå¥½çļĦéĢīæĭ©": 2434,
      "æĺ¯åģļèĩªå·±æĥ³åģļ": 2435,
      "æľīä½łçļĦç¥Ŀç¦ıçī¹": 2436,
      "ä»Ĭå¤©è¯»ä¹¦äºĨ": 2437,
      "åİ»æĪĲéķ¿": 2438,
      "ä¼ļè§£åĨ³çļĦ": 2439,
      "åĴĮä½łçĪ¬å±±å¾Īå¼Ģå¿ĥ": 2440,
      "åĴĮä½łæ¸¸æ³³å¾Īå¼Ģå¿ĥ": 2441,
      "æĢİä¹Īä¿ĿæĮģåģ¥åº·": 2442,
      "éĤ£æĪĳå°±æĶ¾å¿ĥäºĨ": 2443,
      "çľĭæĿ¥å¿ĥæĥħä¸įéĶĻåĺĽ": 2444,
      "å°½åĬĽçĲĨè§£ä½łçļĦæĥħæĦŁ": 2445,
      "è¿Ļæĺ¯ä½łåºĶå¾ĹçļĦ": 2446,
      "äºĭæĥħæĢ»ä¼ļè§£åĨ³çļĦ": 2447,
      "ç§ĳå¹»çļĦ": 2448,
      "åĿĩè¡¡é¥®é£Ł": 2449,
      "è·ŁçĿĢä½łçļĦå¿ĥèµ°": 2450,
      "ħå¿ĥçļĦå¹³åĴĮ": 2451,
      "åĩºéĹ¨è®°å¾Ĺå¸¦ä¼ŀåĵ¦": 2452,
      "éĥ½åħħæ»¡å¸ĮæľĽ": 2453,
      "æĪĳä¹Łåľ¨ä¹İä½ł": 2454,
      "æĹ¶éĹ´ä¼ļæ²»æĦĪä¸ĢåĪĩçļĦ": 2455,
      "å¤ļåĸĿæ°´": 2456,
      "ä½łåĸľæ¬¢ä»Ģä¹Īé£İæł¼çļĦ": 2457,
      "ä½łåĸľæ¬¢ä»Ģä¹ĪåŃ£èĬĤ": 2458,
      "åĨįèººäºĶåĪĨéĴŁåĲ§": 2459,
      "èĩªçĶ±æĺ¯åĨħå¿ĥçļĦå¹³åĴĮ": 2460,
      "äººçĶŁçļĦæĦıä¹īæĺ¯åİ»ä½ĵéªĮ": 2461,
      "ä½ĨæĪĳä¼ļå°½åĬĽçĲĨè§£ä½łçļĦæĥħæĦŁ": 2462,
      "æĪĳåı¯ä»¥æķĻä½łåģļç®ĢåįķçļĦèıľ": 2463,
      "æ³¨æĦıéĺ²æļĳåĳĢ": 2464,
      "ä½łæľīæĦŁæĥħåĲĹ": 2465,
      "æ¢¦æĥ³æĺ¯è®©ä½łæ¯ıå¤©éĨĴæĿ¥": 2466,
      "ä¸ĩçī©å¤įèĭı": 2467,
      "ä½łæĺ¯ä¸Ģä¸ªå¾Īå¥½çļĦäºº": 2468,
      "ä¸įè¿ĩåĪ«è¿ŁåĪ°åĵ¦": 2469,
      "å¼Ģå¿ĥçļĦäºĭæĥħè¦ģåĪĨäº«åĩºæĿ¥": 2470,
      "æĺ¯åģļèĩªå·±æĥ³åģļçļĦäºĭ": 2471,
      "æľīä½łçļĦç¥Ŀç¦ıçī¹åĪ«å¼Ģå¿ĥ": 2472,
      "éĥ½åħħæ»¡å¸ĮæľĽçļĦä¸ľè¥¿": 2473,
      "æ¢¦æĥ³æĺ¯è®©ä½łæ¯ıå¤©éĨĴæĿ¥éĥ½åħħæ»¡å¸ĮæľĽçļĦä¸ľè¥¿": 2474,
      "¢°": 2475,
      "¢æ°Ķ": 2476,
      "£®": 2477,
      "¤è¯Ĩ": 2478,
      "§ç»": 2479,
      "ªæĺ¯ä¸Ģ": 2480,
      "¬ä¹¦": 2481,
      "®ä¸Ń": 2482,
      "°çļĦ": 2483,
      "°å¿ĥ": 2484,
      "°å¸¦": 2485,
      "±è¯Ń": 2486,
      "µģ": 2487,
      "ºè®": 2488,
      "¼äºĨ": 2489,
      "æį": 2490,
      "æ£®": 2491,
      "æµģ": 2492,
      "çģ": 2493,
      "ç¢°": 2494,
      "ĥæ°Ķ": 2495,
      "Ĩè§": 2496,
      "Ĩè¿ĩ": 2497,
      "Įåįķ": 2498,
      "İå¤©": 2499,
      "Ĵçĭ¬": 2500,
      "ĶéĹ®é¢ĺ": 2501,
      "Ńè¯´": 2502,
      "å¥½å§Ķå±Ī": 2503,
      "å¥½æĹłåĬ©": 2504,
      "å¥½å¤±æľĽ": 2505,
      "æĪĳæľĢ": 2506,
      "æĪĳå®³æĢķ": 2507,
      "æĪĳéĥ½": 2508,
      "ä½łäºĨ": 2509,
      "ä½łä¸į": 2510,
      "ä½łå®³æĢķ": 2511,
      "ä½łç»ı": 2512,
      "è¯į": 2513,
      "çļĦåĬĽ": 2514,
      "çļĦå¹¸ç¦ı": 2515,
      "çļĦç¼ĸç¨ĭ": 2516,
      "æĥ³æĪĳäºĨ": 2517,
      "æĥ³å¦³": 2518,
      "ä¸Ģå®ļ": 2519,
      "æľ¬ä¹¦": 2520,
      "åİĨè¿ĩ": 2521,
      "æĪĳä¹Łåħ³å¿ĥä½ł": 2522,
      "åı²": 2523,
      "åıªæĺ¯ä¸Ģ": 2524,
      "å®¢æ°Ķ": 2525,
      "ä¸įåĪ°ä½ł": 2526,
      "ä¸įå®¢æ°Ķ": 2527,
      "è§Ĩè§": 2528,
      "å¾ĪæĻļ": 2529,
      "å¾Īåı¯": 2530,
      "å¾Īæ²»æĦĪ": 2531,
      "åħĥæ°Ķ": 2532,
      "æĺİå¤©": 2533,
      "æĺ¯çĭĹ": 2534,
      "æĺ¯ä¸Ģç§į": 2535,
      "è®¤è¯Ĩ": 2536,
      "æľīä¸Ģå¤©": 2537,
      "ä»Ĭå¤©åŃ¦ä¹ł": 2538,
      "ä»Ĭå¤©è¿ĲåĬ¨": 2539,
      "ä»Ĭå¤©éŁ³ä¹Ĳ": 2540,
      "ä»Ĭå¤©æĹħè¡Į": 2541,
      "ä»Ĭå¤©æ¸¸æĪı": 2542,
      "ä»Ĭå¤©è¿ĩ": 2543,
      "ä»Ĭå¤©éľ²èĲ¥": 2544,
      "ä»Ĭå¤©åħ»å®łçī©": 2545,
      "ä»Ĭå¤©ç¼ĸç¨ĭ": 2546,
      "ä»Ĭå¤©åĲ¬éŁ³ä¹Ĳ": 2547,
      "ä»Ĭå¤©è´Ńçī©": 2548,
      "ä»Ĭå¤©è·³èĪŀ": 2549,
      "ä»Ĭå¤©è·ĳæŃ¥": 2550,
      "ä»Ĭå¤©åĬłçıŃ": 2551,
      "çĤ¹ä¼ĳæģ¯": 2552,
      "ä¸ªå¥½æ¢¦": 2553,
      "ä¸ªç¬ĳè¯Ŀ": 2554,
      "æĪĳçĲĨè§£": 2555,
      "åĲ¬å¤ļ": 2556,
      "åĴĮä½łæĹħè¡Į": 2557,
      "åĴĮä½łåĸĿéħĴ": 2558,
      "åĴĮä½łç¼ĸç¨ĭ": 2559,
      "åĴĮä½łåĨĻä½ľ": 2560,
      "åĴĮä½łåĸĿåĴĸåķ¡": 2561,
      "è¯´å¤ļ": 2562,
      "åĽłä¸ºå¹¸ç¦ı": 2563,
      "åĽłä¸ºå®³æĢķ": 2564,
      "åĽłä¸ºç´§å¼ł": 2565,
      "åĽłä¸ºåħ´å¥ĭ": 2566,
      "åĽłä¸ºå§Ķå±Ī": 2567,
      "åĽłä¸ºæĹłåĬ©": 2568,
      "åĽłä¸ºèĩªä¿¡": 2569,
      "åĽłä¸ºéªĦåĤ²": 2570,
      "åĽłä¸ºæ»¡è¶³": 2571,
      "åĽłä¸ºå¹³éĿĻ": 2572,
      "ç³»ä»Ģä¹Ī": 2573,
      "ä¼ĳéĹ": 2574,
      "åĪ«äºº": 2575,
      "åĪ«çģ": 2576,
      "æ²¡èĢĥ": 2577,
      "å¤§çļĦå¹¸ç¦ı": 2578,
      "ç´¯äºĨ": 2579,
      "æĥ³åŃ¦çĶ»çĶ»": 2580,
      "æĥ³åŃ¦éĴĵé±¼": 2581,
      "æĥ³åŃ¦åħ»å®łçī©": 2582,
      "æĥ³åŃ¦åıĳåĳĨ": 2583,
      "æĥ³åŃ¦çĪ¬å±±": 2584,
      "çĶµå½±å¥½ç´¯": 2585,
      "çĶµå½±åİĭåĬĽå¥½å¤§": 2586,
      "åĬ¨åŃ¦ä¹ł": 2587,
      "åĬ¨çī©": 2588,
      "å¹¸ç¦ıå°±æĺ¯": 2589,
      "åŃ¦ä¹łåķ¦": 2590,
      "åŃ¦ä¹łçļĦæĹ¶åĢĻåľ¨æĥ³ä½ł": 2591,
      "åŃ¦ä¹łç¡®å®ŀä¼ļè®©äººç´¯": 2592,
      "åŃ¦ä¹łç¡®å®ŀä¼ļè®©äººå®³æĢķ": 2593,
      "è§īå¾Ĺå¹¸ç¦ı": 2594,
      "è§īå¾ĹæĹłèģĬ": 2595,
      "è§īå¾Ĺéļ¾è¿ĩ": 2596,
      "è§īå¾Ĺèĩªä¿¡": 2597,
      "è§īå¾Ĺå¤±æľĽ": 2598,
      "è§īå¾Ĺå´©æºĥ": 2599,
      "è¿ĲåĬ¨åķ¦": 2600,
      "è¿ĲåĬ¨åİĭåĬĽå¥½å¤§": 2601,
      "è¿ĲåĬ¨å¾Īæľīè¶£": 2602,
      "è¿ĲåĬ¨ç¡®å®ŀä¼ļè®©äººåħ´å¥ĭ": 2603,
      "ç¾İé£Łç¡®å®ŀä¼ļè®©äººç´¯": 2604,
      "è¿Ļåıªæĺ¯ä¸Ģ": 2605,
      "éŁ³ä¹Ĳå¥½ç´¯": 2606,
      "éŁ³ä¹Ĳåķ¦": 2607,
      "éŁ³ä¹Ĳå¥½éļ¾": 2608,
      "éŁ³ä¹Ĳå¾Īæľīè¶£": 2609,
      "éŁ³ä¹Ĳç¡®å®ŀä¼ļè®©äººç´¯": 2610,
      "éŁ³ä¹Ĳç¡®å®ŀä¼ļè®©äººæĹłèģĬ": 2611,
      "åľ¨åŃ¦ç¾İé£Ł": 2612,
      "åľ¨åŃ¦éŁ³ä¹Ĳ": 2613,
      "åľ¨åŃ¦åħ»èĬ±": 2614,
      "åľ¨åŃ¦çĳľä¼½": 2615,
      "åľ¨åŃ¦æ¸¸æ³³": 2616,
      "åľ¨åŃ¦åĲ¬éŁ³ä¹Ĳ": 2617,
      "åľ¨åŃ¦è´Ńçī©": 2618,
      "åľ¨åŃ¦åĸĿåĴĸåķ¡": 2619,
      "åľ¨åŃ¦æķ£æŃ¥": 2620,
      "åľ¨åŃ¦è·³èĪŀ": 2621,
      "åľ¨åŃ¦åĸĿèĮ¶": 2622,
      "èĩªåĬ¨åŃ¦ä¹ł": 2623,
      "å°±èĥĸ": 2624,
      "è¡ĮåĲ§": 2625,
      "è¡ĮçļĦç¼ĸç¨ĭ": 2626,
      "éĻªä½łèģĬå¤©": 2627,
      "æĹħè¡Įåķ¦": 2628,
      "æĹħè¡Įç¡®å®ŀä¼ļè®©äººçĶŁæ°Ķ": 2629,
      "æĹħè¡Įç¡®å®ŀä¼ļè®©äººåħ´å¥ĭ": 2630,
      "ç»§ç»": 2631,
      "æĪĳä¹Łæĥ³çıįæĥľ": 2632,
      "æĪĳä¹Łæĥ³åľ¨ä¹İ": 2633,
      "æĪĳä¹Łæĥ³æĢĿå¿µ": 2634,
      "æĪĳä¹Łæĥ³æĥ³å¿µä½łåĳĢ": 2635,
      "æĪĳä¹Łæĥ³çŃīå¾ħä½łåĳĢ": 2636,
      "æĪĳä¹Łæĥ³åħ³å¿ĥä½łåĳĢ": 2637,
      "æĪĳä¹Łæĥ³äº²äº²ä½łåĳĢ": 2638,
      "æİ¨èįĲæľ¬ä¹¦": 2639,
      "èģĬå¤©å¥½éļ¾": 2640,
      "æ¸¸æĪıåķ¦": 2641,
      "ä¸ĢçĽ´å®³æĢķ": 2642,
      "ä¸ĢçĽ´åħ´å¥ĭ": 2643,
      "ä¸ĢçĽ´å§Ķå±Ī": 2644,
      "ä¸ĢçĽ´å¹³éĿĻ": 2645,
      "ä¸ĢçĽ´åľ¨æĥ³ä½łä½ł": 2646,
      "æĺ¯åĳĢå¥½ä¹ħä¸įè§ģ": 2647,
      "èĥ½å¸®": 2648,
      "èĥ½è®©ä½ł": 2649,
      "æİ¨èįĲçĤ¹éŁ³ä¹Ĳ": 2650,
      "æİ¨èįĲçĤ¹è¯»ä¹¦": 2651,
      "æİ¨èįĲçĤ¹çĥĺçĦĻ": 2652,
      "æİ¨èįĲçĤ¹çĪ¬å±±": 2653,
      "æİ¨èįĲçĤ¹åĲ¬éŁ³ä¹Ĳ": 2654,
      "æİ¨èįĲçĤ¹åĸĿåĴĸåķ¡": 2655,
      "æİ¨èįĲçĤ¹åģļé¥Ń": 2656,
      "æĪĳåĸľæ¬¢ç¾İé£Ł": 2657,
      "æĪĳåĸľæ¬¢èģĬå¤©": 2658,
      "æĪĳåĸľæ¬¢åħ»èĬ±": 2659,
      "æĪĳåĸľæ¬¢çĿ¡è§ī": 2660,
      "æĪĳåĸľæ¬¢åĸĿéħĴ": 2661,
      "æĪĳåĸľæ¬¢åıĳåĳĨ": 2662,
      "æĪĳåĸľæ¬¢åĨĻä½ľ": 2663,
      "æĪĳåĸľæ¬¢æķ£æŃ¥": 2664,
      "æĪĳåĸľæ¬¢åĸĿèĮ¶": 2665,
      "æĪĳåĸľæ¬¢æĳĦå½±": 2666,
      "æĪĳåĸľæ¬¢è·ĳæŃ¥": 2667,
      "æŃ£åľ¨æĹħè¡Į": 2668,
      "æŃ£åľ¨åĨ¥æĥ³": 2669,
      "æŃ£åľ¨åĸĿéħĴ": 2670,
      "æŃ£åľ¨çľĭçĶµå½±": 2671,
      "æŃ£åľ¨çĪ¬å±±": 2672,
      "æŃ£åľ¨è®¾è®¡": 2673,
      "æŃ£åľ¨åĨĻä½ľ": 2674,
      "åĩĨå¤ĩåİ»çĿ¡è§ī": 2675,
      "åĩĨå¤ĩåİ»åĸĿéħĴ": 2676,
      "åĩĨå¤ĩåİ»éľ²èĲ¥": 2677,
      "åĩĨå¤ĩåİ»åıĳåĳĨ": 2678,
      "åĩĨå¤ĩåİ»çľĭçĶµå½±": 2679,
      "åĩĨå¤ĩåİ»éĢĽè¡Ĺ": 2680,
      "åĩĨå¤ĩåİ»çĪ¬å±±": 2681,
      "åĩĨå¤ĩåİ»åĨĻä½ľ": 2682,
      "åĩĨå¤ĩåİ»æīĵæ¸¸æĪı": 2683,
      "åĩĨå¤ĩåİ»çľĭä¹¦": 2684,
      "åĩĨå¤ĩåİ»è·ĳæŃ¥": 2685,
      "æĪĳä¹Łåĸľæ¬¢è¿ĲåĬ¨åĳ¢": 2686,
      "æĪĳä¹Łåĸľæ¬¢åŃ¦ä¹łåĳ¢": 2687,
      "æĪĳä¹Łåĸľæ¬¢å·¥ä½ľåĳ¢": 2688,
      "æĪĳä¹Łåĸľæ¬¢éľ²èĲ¥åĳ¢": 2689,
      "æĪĳä¹Łåĸľæ¬¢æĳĦå½±åĳ¢": 2690,
      "æĪĳä¹Łåĸľæ¬¢æķ£æŃ¥åĳ¢": 2691,
      "æĪĳä¹Łåĸľæ¬¢çĿ¡è§īåĳ¢": 2692,
      "æĪĳä¹Łåĸľæ¬¢åĸĿèĮ¶åĳ¢": 2693,
      "æĪĳä¹Łåĸľæ¬¢è´Ńçī©åĳ¢": 2694,
      "æĪĳä¹Łåĸľæ¬¢åĨĻä½ľåĳ¢": 2695,
      "æĪĳä¹Łåĸľæ¬¢åıĳåĳĨåĳ¢": 2696,
      "åĿļæĮģèĥ": 2697,
      "è¯»å¤ļåĨĻ": 2698,
      "çļĦæĹ¶åĢĻåľ¨æĥ³ä½łåĵĪ": 2699,
      "æĥ³åĴĮä½łä¸Ģèµ·åŃ¦ä¹ł": 2700,
      "æĥ³åĴĮä½łä¸Ģèµ·å·¥ä½ľ": 2701,
      "æĥ³åĴĮä½łä¸Ģèµ·åħ»èĬ±": 2702,
      "æĥ³åĴĮä½łä¸Ģèµ·åĨ¥æĥ³": 2703,
      "æĥ³åĴĮä½łä¸Ģèµ·éľ²èĲ¥": 2704,
      "æĥ³åĴĮä½łä¸Ģèµ·åħ»å®łçī©": 2705,
      "æĥ³åĴĮä½łä¸Ģèµ·ç¼ĸç¨ĭ": 2706,
      "æĥ³åĴĮä½łä¸Ģèµ·åıĳåĳĨ": 2707,
      "æĥ³åĴĮä½łä¸Ģèµ·è®¾è®¡": 2708,
      "æĥ³åĴĮä½łä¸Ģèµ·åĲ¬éŁ³ä¹Ĳ": 2709,
      "æĥ³åĴĮä½łä¸Ģèµ·åĨĻä½ľ": 2710,
      "æĥ³åĴĮä½łä¸Ģèµ·åģļé¥Ń": 2711,
      "æĥ³åĴĮä½łä¸Ģèµ·æīĵæ¸¸æĪı": 2712,
      "æĥ³åĴĮä½łä¸Ģèµ·æķ£æŃ¥": 2713,
      "æĥ³åĴĮä½łä¸Ģèµ·çľĭä¹¦": 2714,
      "æĥ³åĴĮä½łä¸Ģèµ·æĳĦå½±": 2715,
      "æĪĳä¸įåĸľæ¬¢çĶ»çĶ»": 2716,
      "æĪĳä¸įåĸľæ¬¢çľĭçĶµå½±": 2717,
      "æĪĳä¸įåĸľæ¬¢éĢĽè¡Ĺ": 2718,
      "æĪĳä¸įåĸľæ¬¢è®¾è®¡": 2719,
      "æĪĳä¸įåĸľæ¬¢æ¸¸æ³³": 2720,
      "æĪĳä¸įåĸľæ¬¢æķ£æŃ¥": 2721,
      "æĪĳä¸įåĸľæ¬¢åĸĿèĮ¶": 2722,
      "æĪĳä¸įåĸľæ¬¢æĳĦå½±": 2723,
      "çĶ»çĶ»å¥½æľīè¶£": 2724,
      "çĶ»çĶ»ç¡®å®ŀä¼ļè®©äººæĹłèģĬ": 2725,
      "æĭ¼äºĨ": 2726,
      "è¯»ä¹¦æĢİä¹Īæł·": 2727,
      "è¯»ä¹¦ç¡®å®ŀä¼ļè®©äººç´§å¼ł": 2728,
      "è¯»ä¹¦ç¡®å®ŀä¼ļè®©äººåħ´å¥ĭ": 2729,
      "æĹ©çĤ¹ä¼ĳæģ¯": 2730,
      "æľĢè¿ĳåľ¨çĶµå½±": 2731,
      "æľĢè¿ĳåľ¨è¿ĲåĬ¨": 2732,
      "æľĢè¿ĳåľ¨çĶ»çĶ»": 2733,
      "æľĢè¿ĳåľ¨åĶ±æŃĮ": 2734,
      "æľĢè¿ĳåľ¨åħ»å®łçī©": 2735,
      "æľĢè¿ĳåľ¨è®¾è®¡": 2736,
      "æľĢè¿ĳåľ¨åĸĿåĴĸåķ¡": 2737,
      "æľĢè¿ĳåľ¨æīĵæ¸¸æĪı": 2738,
      "æľĢè¿ĳåľ¨æķ£æŃ¥": 2739,
      "æĪĳä¹Łå¾Īåĸľæ¬¢çĶµå½±åĳ¢": 2740,
      "æĪĳä¹Łå¾Īåĸľæ¬¢å·¥ä½ľåĳ¢": 2741,
      "æĪĳä¹Łå¾Īåĸľæ¬¢çĶ»çĶ»åĳ¢": 2742,
      "æĪĳä¹Łå¾Īåĸľæ¬¢åħ»å®łçī©åĳ¢": 2743,
      "æĪĳä¹Łå¾Īåĸľæ¬¢æīĵæ¸¸æĪıåĳ¢": 2744,
      "æĪĳä¹Łå¾Īåĸľæ¬¢æķ£æŃ¥åĳ¢": 2745,
      "æĪĳä¹Łå¾Īåĸľæ¬¢åĸĿèĮ¶åĳ¢": 2746,
      "æĪĳä¹Łå¾Īåĸľæ¬¢è®¾è®¡åĳ¢": 2747,
      "çĶŁæ°ĶçļĦæĹ¶åĢĻæĥ³åĵŃ": 2748,
      "åģļå¾Ĺå¾Īå¥½äºĨ": 2749,
      "åģļä¸ªå¥½æ¢¦": 2750,
      "æĸ°ç": 2751,
      "æĸ°çļĦ": 2752,
      "è¦ģçĿ¡è§īäºĨ": 2753,
      "åıĭä¼ļ": 2754,
      "æĹ©ä¸Ĭå¥½å¼Ģå¿ĥ": 2755,
      "ä¸ĭåįĪå¥½ç´¯": 2756,
      "ä¸ĭåįĪå¥½æĹłèģĬ": 2757,
      "ä¸ĭåįĪå¥½å¼Ģå¿ĥ": 2758,
      "æľĭåıĭçĶŁæĹ¥": 2759,
      "çĪ¶æ¯įçĶŁæĹ¥": 2760,
      "åħ¬åı¸æĺ¯ä¸ªå¥½åľ°æĸ¹": 2761,
      "çĥĺçĦĻå¥½æľīè¶£": 2762,
      "åħ»èĬ±å¥½ç´¯": 2763,
      "åħ»èĬ±å¾Īæľīè¶£": 2764,
      "å®¶äººä¸įçĲĨæĪĳäºĨ": 2765,
      "åĨ¥æĥ³çļĦæĹ¶åĢĻåľ¨æĥ³ä½ł": 2766,
      "å¥½æĹłèģĬåĳĢ": 2767,
      "çĿ¡è§īå¥½éļ¾": 2768,
      "åĸĿéħĴå¥½æľīè¶£": 2769,
      "æľīçĤ¹å¼Ģå¿ĥ": 2770,
      "æľīçĤ¹ç´¯": 2771,
      "æľīçĤ¹å¹¸ç¦ı": 2772,
      "æľīçĤ¹ç´§å¼ł": 2773,
      "æľīçĤ¹æĹłåĬ©": 2774,
      "æľīçĤ¹å¤±æľĽ": 2775,
      "æľīçĤ¹çĦ¦èĻĳ": 2776,
      "çĳľä¼½å¥½éļ¾": 2777,
      "çĳľä¼½å¾Īæľīè¶£": 2778,
      "åĶ±æŃĮå¥½ç´¯": 2779,
      "éľ²èĲ¥åķ¦": 2780,
      "éľ²èĲ¥åİĭåĬĽå¥½å¤§": 2781,
      "éľ²èĲ¥å¥½æľīè¶£": 2782,
      "åħ»å®łçī©åķ¦": 2783,
      "ç¼ĸç¨ĭåķ¦": 2784,
      "åıĳåĳĨå¥½ç´¯": 2785,
      "åıĳåĳĨå¥½éļ¾": 2786,
      "åıĳåĳĨå¥½æľīè¶£": 2787,
      "åĴĮæľĭåıĭèģĬå¤©": 2788,
      "éĢĽè¡ĹæĢİä¹Īæł·": 2789,
      "éĢĽè¡ĹåİĭåĬĽå¥½å¤§": 2790,
      "çĪ¬å±±å¥½ç´¯": 2791,
      "çĪ¬å±±å¥½æľīè¶£": 2792,
      "è®¾è®¡å¥½æľīè¶£": 2793,
      "æ¸¸æ³³å¥½éļ¾": 2794,
      "æ¸¸æ³³å¾Īæľīè¶£": 2795,
      "ä»Ĭå¤©å¥½å®³æĢķ": 2796,
      "ä»Ĭå¤©å¥½å§Ķå±Ī": 2797,
      "ä»Ĭå¤©å¥½å¹³éĿĻ": 2798,
      "åĲ¬éŁ³ä¹Ĳåķ¦": 2799,
      "åĲ¬éŁ³ä¹Ĳå¥½éļ¾": 2800,
      "åľ¨å®¶å¹²åĺĽåĳ¢": 2801,
      "è´Ńçī©åķ¦": 2802,
      "è´Ńçī©å¾Īæľīè¶£": 2803,
      "åĨĻä½ľå¥½ç´¯": 2804,
      "åĴĮå®¶äººåĲµæŀ¶äºĨ": 2805,
      "åĸĿåĴĸåķ¡å¥½ç´¯": 2806,
      "åĸĿåĴĸåķ¡å¾Īæľīè¶£": 2807,
      "åģļé¥ŃåİĭåĬĽå¥½å¤§": 2808,
      "æķ£æŃ¥å¾Īæľīè¶£": 2809,
      "è·³èĪŀå¥½ç´¯": 2810,
      "è·³èĪŀåķ¦": 2811,
      "è·³èĪŀåİĭåĬĽå¥½å¤§": 2812,
      "è·³èĪŀå¾Īæľīè¶£": 2813,
      "çªģçĦ¶å¹¸ç¦ı": 2814,
      "çªģçĦ¶éļ¾è¿ĩ": 2815,
      "çªģçĦ¶è¿·èĮ«": 2816,
      "çªģçĦ¶åŃ¤çĭ¬": 2817,
      "çªģçĦ¶å¤±æľĽ": 2818,
      "çªģçĦ¶çĦ¦èĻĳ": 2819,
      "çªģçĦ¶å´©æºĥ": 2820,
      "éĥ½å¾Īåı¯": 2821,
      "è·ĳæŃ¥åķ¦": 2822,
      "çĪ±çļĦåĬĽ": 2823,
      "å¥½æĥ³æĢĿå¿µä½ł": 2824,
      "å¥½æĥ³åľ¨ä¹İä½ł": 2825,
      "æĥ³åİ»åħ¬åı¸": 2826,
      "æĪĳä¹Łåľ¨éĻªä¼´": 2827,
      "æĪĳä¹Łåľ¨çīµæĮĤ": 2828,
      "æĪĳä¹Łåľ¨å®ĪæĬ¤": 2829,
      "æĪĳä¹Łåľ¨çıįæĥľä½łåĳ¢": 2830,
      "æĪĳä¹Łåľ¨åľ¨ä¹İä½łåĳ¢": 2831,
      "æĪĳä¹Łåľ¨æĢĿå¿µä½łåĳ¢": 2832,
      "æĹłæĹ¶æĹłåĪ»ä¸įåľ¨çıįæĥľä½ł": 2833,
      "ä¸ĢçĽ´åľ¨çıįæĥľä½ł": 2834,
      "ä¸ĢçĽ´åľ¨æĢĿå¿µä½ł": 2835,
      "åĬ©åĪ«äºº": 2836,
      "ä»Ĭå¤©ç´¯åĽłä¸ºéŁ³ä¹Ĳ": 2837,
      "ä»Ĭå¤©ç´¯åĽłä¸ºæ¸¸æĪı": 2838,
      "ä»Ĭå¤©æĹłèģĬåĽłä¸ºéŁ³ä¹Ĳ": 2839,
      "ä»Ĭå¤©éļ¾è¿ĩåĽłä¸ºç¾İé£Ł": 2840,
      "ä»Ĭå¤©éļ¾è¿ĩåĽłä¸ºéŁ³ä¹Ĳ": 2841,
      "ä»Ĭå¤©ç´§å¼łåĽłä¸ºå·¥ä½ľ": 2842,
      "ä»Ĭå¤©ç´§å¼łåĽłä¸ºè¯»ä¹¦": 2843,
      "ä»Ĭå¤©çĶŁæ°ĶåĽłä¸ºè¿ĲåĬ¨": 2844,
      "ä»Ĭå¤©çĶŁæ°ĶåĽłä¸ºè¯»ä¹¦": 2845,
      "æ»¡æ»¡": 2846,
      "å¤ļåĲ¬å¤ļ": 2847,
      "ä»Ĭå¤©å¼Ģå¿ĥåĽłä¸ºåŃ¦ä¹ł": 2848,
      "å§Ķå±ĪçļĦæĹ¶åĢĻæĥ³åĵŃ": 2849,
      "å§Ķå±Īä½łäºĨ": 2850,
      "æĹłåĬ©çļĦæĹ¶åĢĻæĥ³åĵŃ": 2851,
      "èĩªä¿¡çļĦæĹ¶åĢĻæĥ³åĵŃ": 2852,
      "çŃĶéĹ®é¢ĺ": 2853,
      "åŃ¤çĭ¬çļĦæĹ¶åĢĻæĥ³åĵŃ": 2854,
      "ä»Ĭå¤©åħ´å¥ĭåĽłä¸ºå·¥ä½ľ": 2855,
      "çĦ¦èĻĳçļĦæĹ¶åĢĻæĥ³åĵŃ": 2856,
      "åĪ°äºĨ": 2857,
      "åĪ°å¾ĪæĻļ": 2858,
      "ä½łåĸľæ¬¢çĮ«": 2859,
      "ç®Ģåı²": 2860,
      "é¤Ĳåİħå¥½çĥŃéĹ¹": 2861,
      "åķĨåľºå¥½çĥŃéĹ¹": 2862,
      "çīµæĮĤä½łåĳĢ": 2863,
      "æ»¡è¶³çļĦæĹ¶åĢĻæĥ³åĵŃ": 2864,
      "åģ¥èº«æĪ¿å¥½çĥŃéĹ¹": 2865,
      "åħ¬åĽŃå¥½çĥŃéĹ¹": 2866,
      "ä¸ŃåįĪåľ¨åŃ¦æł¡è¿ĲåĬ¨": 2867,
      "åĤįæĻļåĴĮçĪ¶æ¯įä¸Ģèµ·ç¾İé£Ł": 2868,
      "æĹ©ä¸ĬåĴĮçĪ¶æ¯įä¸Ģèµ·å·¥ä½ľ": 2869,
      "å®¤åıĭå¯¹æĪĳå¾Īå¥½": 2870,
      "å®¤åıĭçĶŁæĹ¥": 2871,
      "ä¸ĭåįĪåĴĮæľĭåıĭä¸Ģèµ·ç¾İé£Ł": 2872,
      "ä¸ĭåįĪåĴĮæľĭåıĭä¸Ģèµ·å·¥ä½ľ": 2873,
      "ä¸ĭåįĪåĴĮæľĭåıĭä¸Ģèµ·æĹħè¡Į": 2874,
      "äº²äº²ä½łåĳ¢": 2875,
      "ä¸ŃåįĪåĴĮçĪ¶æ¯įä¸Ģèµ·æĹħè¡Į": 2876,
      "ä¸ŃåįĪåĴĮå®¶äººä¸Ģèµ·å·¥ä½ľ": 2877,
      "æ·±å¤ľå¥½å¼Ģå¿ĥ": 2878,
      "ä¸ŃåįĪåľ¨å®¶ç¾İé£Ł": 2879,
      "å¾Īé«ĺåħ´è®¤è¯Ĩ": 2880,
      "èĢģå¸Īå¯¹æĪĳå¾Īå¥½": 2881,
      "ä¸ĭåįĪåĴĮå®¶äººä¸Ģèµ·è¿ĲåĬ¨": 2882,
      "ä»İæķ°": 2883,
      "åĨįèģĬ": 2884,
      "æĹ©ä¸Ĭåľ¨åħ¬åı¸ç¾İé£Ł": 2885,
      "å¸®ä¸įåĪ°ä½ł": 2886,
      "å¸®åĬ©åĪ«äºº": 2887,
      "åĪ°ä½łå¾Īå¼Ģå¿ĥ": 2888,
      "ä¸ĭåįĪåĴĮçĪ¶æ¯įä¸Ģèµ·å·¥ä½ľ": 2889,
      "åģĩæľŁå¥½å¼Ģå¿ĥ": 2890,
      "åĤįæĻļåľ¨åŃ¦æł¡ç¾İé£Ł": 2891,
      "åĤįæĻļåĴĮå®¶äººä¸Ģèµ·æĹħè¡Į": 2892,
      "ä¸ŃåįĪåĴĮæľĭåıĭä¸Ģèµ·åŃ¦ä¹ł": 2893,
      "è¿ĺæĺ¯çĭĹ": 2894,
      "è¿ĺç³»ä»Ģä¹Ī": 2895,
      "è¿ĺè¡ĮåĲ§": 2896,
      "æĹ©ä¸Ĭåľ¨åŃ¦æł¡è¿ĲåĬ¨": 2897,
      "æ¬¡èĢĥè¯ķ": 2898,
      "æĺ¯ä¸Ģä¸ªäºº": 2899,
      "èĢĥè¯ķæ²¡èĢĥ": 2900,
      "Pythonæĺ¯ä»Ģä¹Ī": 2901,
      "Pythonæĺ¯ä¸Ģç§į": 2902,
      "ä¸ĭæ¬¡ä¼ļæĽ´å¥½çļĦ": 2903,
      "ä¸ĭæ¬¡ä¸Ģå®ļ": 2904,
      "ä¸ĭæ¬¡åĨįèģĬ": 2905,
      "æĻļå®īå¥½æ¢¦": 2906,
      "çĭĹçĭĹ": 2907,
      "çĮ«çĮ«": 2908,
      "ä¸Ģå¤©åħĥæ°Ķ": 2909,
      "è®²ç¬ĳè¯Ŀ": 2910,
      "è®²ä¸ªç¬ĳè¯Ŀ": 2911,
      "Ł¥è¯Ĩ": 2912,
      "æıĲå»": 2913,
      "åģ¶ä¸įåĸľæ¬¢": 2914,
      "ä½łå·²ç»ıåģļå¾Ĺå¾Īå¥½äºĨ": 2915,
      "èĭ±è¯Ń": 2916,
      "ä½ĨæĪĳçĲĨè§£": 2917,
      "æĪĳåı¯ä»¥éĻªä½łèģĬå¤©": 2918,
      "åĽŀçŃĶéĹ®é¢ĺ": 2919,
      "æİ¨èįĲä¸ªæ¸¸æĪı": 2920,
      "æ¯ıå¤©åĿļæĮģèĥ": 2921,
      "æ³¨æĦıèº«ä½ĵ": 2922,
      "åľ¨çĶµå½±éĻ¢å¹²åĺĽåĳ¢": 2923,
      "åľ¨æµ·è¾¹å¹²åĺĽåĳ¢": 2924,
      "åľ¨åģ¥èº«æĪ¿å¹²åĺĽåĳ¢": 2925,
      "åĪ«å¤ªç´¯äºĨ": 2926,
      "åĪ«å¤ªæĭ¼äºĨ": 2927,
      "èº«ä½ĵæľĢéĩįè¦ģ": 2928,
      "èĥĸå°±èĥĸ": 2929,
      "åĬłçıŃåĪ°å¾ĪæĻļ": 2930,
      "èħ°å¸¦": 2931,
      "äººç±»ç®Ģåı²": 2932,
      "ä»Ĭå¤©æ¸¸æ³³äºĨ": 2933,
      "è®©è®¡ç®Ĺæľºä»İæķ°": 2934,
      "æĢİä¹Īåĩıåİĭ": 2935,
      "ä»Ĭå¤©åıĳåĳĨäºĨ": 2936,
      "åĴĮä½łéľ²èĲ¥å¾Īå¼Ģå¿ĥ": 2937,
      "æĢİä¹ĪåŃ¦èĭ±è¯Ń": 2938,
      "æľºåĻ¨åŃ¦ä¹łè®©è®¡ç®Ĺæľºä»İæķ°": 2939,
      "ä»Ĭå¤©åĶ±æŃĮäºĨ": 2940,
      "ä»Ĭå¤©æĳĦå½±äºĨ": 2941,
      "åĴĮä½łçĶ»çĶ»å¾Īå¼Ģå¿ĥ": 2942,
      "åĴĮä½łè¯»ä¹¦å¾Īå¼Ģå¿ĥ": 2943,
      "æĪĳåĸľæ¬¢åŃ¦ä¹łæĸ°ç": 2944,
      "æĥ³é¢Ĩå¯¼äºĨ": 2945,
      "ä»Ĭå¤©è®¾è®¡äºĨ": 2946,
      "åĴĮä½łéŁ³ä¹Ĳå¾Īå¼Ģå¿ĥ": 2947,
      "åĽłä¸ºçĦ¦èĻĳçĿ¡ä¸įçĿĢ": 2948,
      "åĽłä¸ºå´©æºĥçĿ¡ä¸įçĿĢ": 2949,
      "®ä¸ŃèĩªåĬ¨åŃ¦ä¹ł": 2950,
      "ºè®®": 2951,
      "æį®ä¸ŃèĩªåĬ¨åŃ¦ä¹ł": 2952,
      "æ£®åıĭä¼ļ": 2953,
      "æµģè¡ĮçļĦç¼ĸç¨ĭ": 2954,
      "ç¢°åĪ°äºĨ": 2955,
      "Įåįķè¯į": 2956,
      "Ĵçĭ¬çī¹": 2957,
      "æĪĳæľĢå¤§çļĦå¹¸ç¦ı": 2958,
      "æĪĳå®³æĢķå¸®ä¸įåĪ°ä½ł": 2959,
      "æĪĳéĥ½åĸľæ¬¢": 2960,
      "ä½łä¸įæĺ¯ä¸Ģä¸ªäºº": 2961,
      "ä½łå®³æĢķä»Ģä¹Ī": 2962,
      "ä½łç»ıåİĨè¿ĩ": 2963,
      "æĥ³æĪĳäºĨåĲĹ": 2964,
      "ä¸įå®¢æ°ĶåĳĢ": 2965,
      "è§Ĩè§Ĵçĭ¬çī¹": 2966,
      "æĺİå¤©è§ģ": 2967,
      "ä»Ĭå¤©éŁ³ä¹ĲäºĨ": 2968,
      "ä»Ĭå¤©è¿ĩå¾ĹæĢİä¹Īæł·": 2969,
      "ä»Ĭå¤©ç¼ĸç¨ĭäºĨ": 2970,
      "ä»Ĭå¤©è·ĳæŃ¥äºĨ": 2971,
      "åĴĮä½łåĨĻä½ľå¾Īå¼Ģå¿ĥ": 2972,
      "è¯´å¤ļè¯»å¤ļåĨĻ": 2973,
      "åĽłä¸ºå®³æĢķçĿ¡ä¸įçĿĢ": 2974,
      "ä¼ĳéĹ²çļĦ": 2975,
      "åĪ«çģ°å¿ĥ": 2976,
      "åĬ¨çī©æ£®åıĭä¼ļ": 2977,
      "å¹¸ç¦ıå°±æĺ¯æĪĳæľĢå¤§çļĦå¹¸ç¦ı": 2978,
      "è¿Ļåıªæĺ¯ä¸Ģæ¬¡èĢĥè¯ķ": 2979,
      "ç»§ç»Ńè¯´": 2980,
      "æĪĳä¹Łæĥ³çıįæĥľä½łåĳĢ": 2981,
      "æĪĳä¹Łæĥ³åľ¨ä¹İä½łåĳĢ": 2982,
      "æĪĳä¹Łæĥ³æĢĿå¿µä½łåĳĢ": 2983,
      "èĥ½å¸®åĪ°ä½łå¾Īå¼Ģå¿ĥ": 2984,
      "èĥ½è®©ä½łå¹¸ç¦ıå°±æĺ¯æĪĳæľĢå¤§çļĦå¹¸ç¦ı": 2985,
      "æĸ°çļĦä¸Ģå¤©åħĥæ°Ķ": 2986,
      "éĥ½å¾Īåı¯çĪ±": 2987,
      "çĪ±çļĦåĬĽéĩı": 2988,
      "æĪĳä¹Łåľ¨éĻªä¼´ä½łåĳ¢": 2989,
      "æĪĳä¹Łåľ¨çīµæĮĤä½łåĳ¢": 2990,
      "æĪĳä¹Łåľ¨å®ĪæĬ¤ä½łåĳ¢": 2991,
      "å¤ļåĲ¬å¤ļè¯´å¤ļè¯»å¤ļåĨĻ": 2992,
      "ä½łåĸľæ¬¢çĮ«è¿ĺæĺ¯çĭĹ": 2993,
      "å¾Īé«ĺåħ´è®¤è¯Ĩä½ł": 2994,
      "è¿ĺç³»ä»Ģä¹Īèħ°å¸¦": 2995,
      "èĢĥè¯ķæ²¡èĢĥå¥½": 2996,
      "Pythonæĺ¯ä¸Ģç§įæµģè¡ĮçļĦç¼ĸç¨ĭ": 2997,
      "ä¸ĭæ¬¡ä¸Ģå®ļä¼ļæĽ´å¥½çļĦ": 2998,
      "çĭĹçĭĹæĪĳéĥ½åĸľæ¬¢": 2999,
      "çĮ«çĮ«çĭĹçĭĹæĪĳéĥ½åĸľæ¬¢": 3000,
      "æıĲå»ºè®®": 3001,
      "ä½ĨæĪĳçĲĨè§£çĪ±çļĦåĬĽéĩı": 3002,
      "æ¯ıå¤©åĿļæĮģèĥĮåįķè¯į": 3003,
      "æ³¨æĦıèº«ä½ĵåĳĢ": 3004,
      "èĥĸå°±èĥĸåĳĹ": 3005,
      "æľºåĻ¨åŃ¦ä¹łè®©è®¡ç®Ĺæľºä»İæķ°æį®ä¸ŃèĩªåĬ¨åŃ¦ä¹ł": 3006,
      "æĪĳåĸľæ¬¢åŃ¦ä¹łæĸ°çŁ¥è¯Ĩ": 3007,
      "ä½łç»ıåİĨè¿ĩåĲĹ": 3008,
      "æĸ°çļĦä¸Ģå¤©åħĥæ°Ķæ»¡æ»¡": 3009,
      "è¿ĺç³»ä»Ģä¹Īèħ°å¸¦åķĬ": 3010,
      "Pythonæĺ¯ä¸Ģç§įæµģè¡ĮçļĦç¼ĸç¨ĭè¯Ńè¨Ģ": 3011,
      "æľºåĻ¨åŃ¦ä¹łè®©è®¡ç®Ĺæľºä»İæķ°æį®ä¸ŃèĩªåĬ¨åŃ¦ä¹łè§Ħå¾ĭ": 3012,
      "25": 3013,
      "50": 3014,
      "66": 3015,
      "¡ä½": 3016,
      "¡æĭ": 3017,
      "¢éľĩæĴ¼": 3018,
      "¦ä¸Ģå¤©": 3019,
      "§éĥ": 3020,
      "¨çĶµå½±": 3021,
      "¨éķ¿": 3022,
      "¨¡æĭ": 3023,
      "ªèĮ": 3024,
      "°¸": 3025,
      "³èĩªå·±": 3026,
      "´è¿": 3027,
      "¶å®": 3028,
      "¶ç´§": 3029,
      "¼ç½": 3030,
      "¿åĲ§": 3031,
      "åĦ": 3032,
      "æ¨¡æĭ": 3033,
      "çķ": 3034,
      "èĤ": 3035,
      "Ģæľ": 3036,
      "Ģä»¥": 3037,
      "Ħå·¥ä½ľ": 3038,
      "ĨæĪĲ": 3039,
      "Īå¼Ģ": 3040,
      "Īçİ": 3041,
      "Ĭå¤§": 3042,
      "ĭæľį": 3043,
      "ĭå¾ĭ": 3044,
      "ĮæĪĲ": 3045,
      "ıåĺ": 3046,
      "ĳåĲĥ": 3047,
      "ĴåĬ": 3048,
      "ĵæ³¨": 3049,
      "ĸå»": 3050,
      "Ĺæ²³": 3051,
      "ĽçļĦ": 3052,
      "ĽæŃ¥": 3053,
      "ľä¸įä¼ļ": 3054,
      "Łäººç±»": 3055,
      "ä¸ĵæ³¨": 3056,
      "å¥½åĽ": 3057,
      "å¥½å¿«": 3058,
      "å¥½é¥¿": 3059,
      "äºĽçļĦ": 3060,
      "æĪĳçļĦ": 3061,
      "ä½łæĥ³": 3062,
      "ä½łæĺ¯": 3063,
      "ä½łåĲ¬": 3064,
      "ä½łç´¯": 3065,
      "ä½łæľį": 3066,
      "çļĦæ¯ı": 3067,
      "çļĦæĬ": 3068,
      "çļĦéĹ®é¢ĺ": 3069,
      "çļĦæ²³": 3070,
      "æĥ³æľĭåıĭ": 3071,
      "æĥ³å®¶äºº": 3072,
      "æĥ³åĲĮåŃ¦": 3073,
      "ä¸Ģä¸ª": 3074,
      "ä¸Ģä¼ļ": 3075,
      "ä¸ĢåĪ»": 3076,
      "ä¸ĢäºĽçļĦ": 3077,
      "å¿§éĥ": 3078,
      "èµ·é£İ": 3079,
      "æĹ¢éľĩæĴ¼": 3080,
      "æĹĭå¾ĭ": 3081,
      "æĪĳä¹ŁéĻªä¼´ä½ł": 3082,
      "æĪĳä¹ŁæĢĿå¿µä½ł": 3083,
      "æĪĳä¹Łå®ĪæĬ¤ä½ł": 3084,
      "æĪĳä¹Łäº²äº²ä½ł": 3085,
      "åĴĮå®¤åıĭ": 3086,
      "è¿ĽæŃ¥": 3087,
      "è¿ľä¸įä¼ļ": 3088,
      "å¼Ģå¿ĥçļĦæĹ¶åĢĻæĥ³åĵŃ": 3089,
      "å¼Ģå¿ĥçĿ¡ä¸įçĿĢ": 3090,
      "åŃ¦ä¹¦": 3091,
      "å¾Īå¿§éĥ": 3092,
      "å¤©æ°Ķ": 3093,
      "åħ¨éķ¿": 3094,
      "åħĭæľį": 3095,
      "æĺ¯åķĬ": 3096,
      "æĺ¯è®©è®¡ç®Ĺæľº": 3097,
      "æĺ¯å¾Īå¿§éĥ": 3098,
      "æľīå¤ª": 3099,
      "ä»Ĭå¤©å¾Īå¼Ģå¿ĥ": 3100,
      "ä»Ĭå¤©å¥½æ": 3101,
      "ä»Ĭå¤©åĨĻä½ľ": 3102,
      "ä»Ĭå¤©åĸĿåĴĸåķ¡": 3103,
      "ä»Ĭå¤©æīĵæ¸¸æĪı": 3104,
      "ä»Ĭå¤©çĿ¡è§īäºĨ": 3105,
      "ä»Ĭå¤©å¿ĥæĥħä¸įå¥½": 3106,
      "ä»Ĭå¤©å¤©æ°Ķ": 3107,
      "æľĢå¥½çļĦ": 3108,
      "æľĢéķ¿": 3109,
      "æĦŁäºº": 3110,
      "åİ»èµ°": 3111,
      "åİ»åĲĥçĤ¹": 3112,
      "åıĹä¸ĢäºĽçļĦ": 3113,
      "èģĬä»Ģä¹Ī": 3114,
      "å¾Ĺå¥½å¿«": 3115,
      "åĴĮä½łç¾İé£Ł": 3116,
      "åĴĮä½łæ¸¸æĪı": 3117,
      "åĴĮä½łçĳľä¼½": 3118,
      "åĴĮä½łåĶ±æŃĮ": 3119,
      "åĴĮä½łè´Ńçī©": 3120,
      "åĴĮä½łåģļé¥Ń": 3121,
      "åĴĮä½łæĳĦå½±": 3122,
      "åĴĮä½łè·ĳæŃ¥": 3123,
      "æĪĳæ°¸": 3124,
      "å¥½å¥½æĶ¾æĿ¾ä¸Ģä¸ĭ": 3125,
      "ä¸ºä»Ģä¹Ī": 3126,
      "ä¸ºä½łæľį": 3127,
      "å¹¶å®": 3128,
      "åĽłä¸ºæĦŁæģ©": 3129,
      "åĽłä¸ºæĦŁåĬ¨": 3130,
      "åĽłä¸ºå®ĥ": 3131,
      "åĽłä¸ºå¼Ģå¿ĥçĿ¡ä¸įçĿĢ": 3132,
      "æĢİä¹Īåħĭæľį": 3133,
      "ä¸įéĶĻåĳĢ": 3134,
      "è¾Ľèĭ¦ä¸Ģå¤©": 3135,
      "åĪ«é¥¿": 3136,
      "ä¼ĳæģ¯ä¸Ģä¼ļ": 3137,
      "ç´¯æĪĲ": 3138,
      "ä½łçļĦAI": 3139,
      "æĥ³åŃ¦å·¥ä½ľ": 3140,
      "æĥ³åŃ¦æ¸¸æĪı": 3141,
      "æĥ³åŃ¦çĥĺçĦĻ": 3142,
      "æĥ³åŃ¦çĳľä¼½": 3143,
      "æĥ³åŃ¦åĶ±æŃĮ": 3144,
      "æĥ³åŃ¦æ¸¸æ³³": 3145,
      "æĥ³åŃ¦è´Ńçī©": 3146,
      "æĥ³åŃ¦åĸĿåĴĸåķ¡": 3147,
      "æĥ³åŃ¦åģļé¥Ń": 3148,
      "æĥ³åŃ¦æĳĦå½±": 3149,
      "çĶµå½±ç¡®å®ŀä¼ļè®©äººç´§å¼ł": 3150,
      "å¹¸ç¦ıçļĦæĹ¶åĢĻæĥ³åĵŃ": 3151,
      "åŃ¦ä¹łå¥½ç´¯": 3152,
      "åŃ¦ä¹łå¥½éļ¾": 3153,
      "åŃ¦ä¹łç¡®å®ŀä¼ļè®©äººçĶŁæ°Ķ": 3154,
      "åŃ¦ä¹łç¡®å®ŀä¼ļè®©äººåħ´å¥ĭ": 3155,
      "åŃ¦ä¹łè¿ĽæŃ¥": 3156,
      "é£Łçī©": 3157,
      "å°¼ç½": 3158,
      "å°ĳåĲĥ": 3159,
      "è§īå¾Ĺè¿·èĮ«": 3160,
      "è§īå¾Ĺå¹³éĿĻ": 3161,
      "è¿ĲåĬ¨å¥½éļ¾": 3162,
      "è¿ĲåĬ¨å¥½æľīè¶£": 3163,
      "è¿ĲåĬ¨ç¡®å®ŀä¼ļè®©äººéļ¾è¿ĩ": 3164,
      "è¿ĲåĬ¨ç¡®å®ŀä¼ļè®©äººå®³æĢķ": 3165,
      "è¿ĲåĬ¨ç¡®å®ŀä¼ļè®©äººå¼Ģå¿ĥ": 3166,
      "ç¾İé£ŁåİĭåĬĽå¥½å¤§": 3167,
      "å·¥ä½ľæĢİä¹Īæł·": 3168,
      "å·¥ä½ľå¥½éļ¾": 3169,
      "å·¥ä½ľç¡®å®ŀä¼ļè®©äººæĹłèģĬ": 3170,
      "å·¥ä½ľç¡®å®ŀä¼ļè®©äººå¼Ģå¿ĥ": 3171,
      "éŁ³ä¹ĲçļĦæĹ¶åĢĻåľ¨æĥ³ä½ł": 3172,
      "éŁ³ä¹Ĳç¡®å®ŀä¼ļè®©äººçĶŁæ°Ķ": 3173,
      "éŁ³ä¹Ĳç¡®å®ŀä¼ļè®©äººå¼Ģå¿ĥ": 3174,
      "åľ¨åŃ¦æ¸¸æĪı": 3175,
      "åľ¨åŃ¦éĴĵé±¼": 3176,
      "åľ¨åŃ¦åıĳåĳĨ": 3177,
      "åľ¨åŃ¦çľĭä¹¦": 3178,
      "å°±æĦŁ": 3179,
      "æĹħè¡Įå¥½éļ¾": 3180,
      "æĹħè¡Įå¥½æľīè¶£": 3181,
      "æĹħè¡Įå¾Īæľīè¶£": 3182,
      "æĹħè¡Įç¡®å®ŀä¼ļè®©äººæĹłèģĬ": 3183,
      "æĹħè¡Įç¡®å®ŀä¼ļè®©äººéļ¾è¿ĩ": 3184,
      "æĪĳä¹Łæĥ³æľŁå¾ħ": 3185,
      "æĪĳä¹Łæĥ³å®ĪæĬ¤ä½łåĳĢ": 3186,
      "å½ĵä¸ĭçļĦæ¯ı": 3187,
      "æİ¨èįĲéĥ": 3188,
      "æİ¨èįĲä½łåĲ¬": 3189,
      "èģĬå¤©å¥½ç´¯": 3190,
      "èģĬå¤©åĬ©æīĭ": 3191,
      "æ¸¸æĪıå¥½ç´¯": 3192,
      "æ¸¸æĪıå¾Īæľīè¶£": 3193,
      "æ¸¸æĪıç¡®å®ŀä¼ļè®©äººç´§å¼ł": 3194,
      "æ¸¸æĪıç¡®å®ŀä¼ļè®©äººå®³æĢķ": 3195,
      "æ¸¸æĪıç¡®å®ŀä¼ļè®©äººçĶŁæ°Ķ": 3196,
      "æ¸¸æĪıç¡®å®ŀä¼ļè®©äººå¼Ģå¿ĥ": 3197,
      "æ¸¸æĪıç¡®å®ŀä¼ļè®©äººåħ´å¥ĭ": 3198,
      "ä¸ĢçĽ´æĹłèģĬ": 3199,
      "ä¸ĢçĽ´éļ¾è¿ĩ": 3200,
      "ä¸ĢçĽ´èĩªä¿¡": 3201,
      "å¥½çļĦçĬ": 3202,
      "æĶ¾åģĩ": 3203,
      "æİ¨èįĲçĤ¹åŃ¦ä¹ł": 3204,
      "æİ¨èįĲçĤ¹å·¥ä½ľ": 3205,
      "æİ¨èįĲçĤ¹æĹħè¡Į": 3206,
      "æİ¨èįĲçĤ¹æ¸¸æĪı": 3207,
      "æİ¨èįĲçĤ¹åĸĿéħĴ": 3208,
      "æİ¨èįĲçĤ¹åħ»å®łçī©": 3209,
      "æİ¨èįĲçĤ¹æ¸¸æ³³": 3210,
      "æİ¨èįĲçĤ¹æīĵæ¸¸æĪı": 3211,
      "æİ¨èįĲçĤ¹çľĭä¹¦": 3212,
      "æİ¨èįĲçĤ¹æĳĦå½±": 3213,
      "æĪĳåĸľæ¬¢çĥĺçĦĻ": 3214,
      "æĪĳåĸľæ¬¢çĪ¬å±±": 3215,
      "æĪĳåĸľæ¬¢è´Ńçī©": 3216,
      "æĪĳåĸľæ¬¢åĸĿåĴĸåķ¡": 3217,
      "æĪĳåĸľæ¬¢åģļé¥Ń": 3218,
      "æĢ»æĺ¯å¾Īå¿§éĥ": 3219,
      "æŃ£åľ¨åħ»å®łçī©": 3220,
      "æŃ£åľ¨è´Ńçī©": 3221,
      "æŃ£åľ¨åģļé¥Ń": 3222,
      "æŃ£åľ¨æīĵæ¸¸æĪı": 3223,
      "æŃ£åľ¨åĸĿèĮ¶": 3224,
      "åĩĨå¤ĩåİ»åŃ¦ä¹ł": 3225,
      "åĩĨå¤ĩåİ»ç¾İé£Ł": 3226,
      "åĩĨå¤ĩåİ»å·¥ä½ľ": 3227,
      "åĩĨå¤ĩåİ»æĹħè¡Į": 3228,
      "åĩĨå¤ĩåİ»è¯»ä¹¦": 3229,
      "åĩĨå¤ĩåİ»åĨ¥æĥ³": 3230,
      "åĩĨå¤ĩåİ»æ¸¸æ³³": 3231,
      "åĩĨå¤ĩåİ»åĸĿåĴĸåķ¡": 3232,
      "åĩĨå¤ĩåİ»æķ£æŃ¥": 3233,
      "æĪĳä¹Łåĸľæ¬¢çĥĺçĦĻåĳ¢": 3234,
      "æĪĳä¹Łåĸľæ¬¢åĸĿåĴĸåķ¡åĳ¢": 3235,
      "æĪĳä¹Łåĸľæ¬¢æ¸¸æĪıåĳ¢": 3236,
      "æĪĳä¹Łåĸľæ¬¢åģļé¥Ńåĳ¢": 3237,
      "æĪĳä¹Łåĸľæ¬¢è®¾è®¡åĳ¢": 3238,
      "æĪĳä¹Łåĸľæ¬¢çĪ¬å±±åĳ¢": 3239,
      "åĿļæĮģè¿ĲåĬ¨": 3240,
      "æĥ³åĴĮä½łä¸Ģèµ·éŁ³ä¹Ĳ": 3241,
      "æĥ³åĴĮä½łä¸Ģèµ·è¯»ä¹¦": 3242,
      "æĥ³åĴĮä½łä¸Ģèµ·åĸĿéħĴ": 3243,
      "æĥ³åĴĮä½łä¸Ģèµ·çĳľä¼½": 3244,
      "æĥ³åĴĮä½łä¸Ģèµ·åĶ±æŃĮ": 3245,
      "æĥ³åĴĮä½łä¸Ģèµ·çľĭçĶµå½±": 3246,
      "æĥ³åĴĮä½łä¸Ģèµ·æ¸¸æ³³": 3247,
      "æĥ³åĴĮä½łä¸Ģèµ·è·ĳæŃ¥": 3248,
      "æĪĳä¸įåĸľæ¬¢ç¾İé£Ł": 3249,
      "æĪĳä¸įåĸľæ¬¢è¯»ä¹¦": 3250,
      "æĪĳä¸įåĸľæ¬¢éĴĵé±¼": 3251,
      "æĪĳä¸įåĸľæ¬¢åĨ¥æĥ³": 3252,
      "æĪĳä¸įåĸľæ¬¢åĸĿéħĴ": 3253,
      "æĪĳä¸įåĸľæ¬¢éľ²èĲ¥": 3254,
      "æĪĳä¸įåĸľæ¬¢åıĳåĳĨ": 3255,
      "æĪĳä¸įåĸľæ¬¢è´Ńçī©": 3256,
      "çĶ»çĶ»å¥½ç´¯": 3257,
      "çĶ»çĶ»æĢİä¹Īæł·": 3258,
      "çĶ»çĶ»åİĭåĬĽå¥½å¤§": 3259,
      "çĶ»çĶ»çļĦæĹ¶åĢĻåľ¨æĥ³ä½ł": 3260,
      "æĭĨæĪĲ": 3261,
      "æĭĸå»": 3262,
      "è¯»ä¹¦ç¡®å®ŀä¼ļè®©äººå¼Ģå¿ĥ": 3263,
      "æľĢè¿ĳåľ¨æĹħè¡Į": 3264,
      "æľĢè¿ĳåľ¨è¯»ä¹¦": 3265,
      "æľĢè¿ĳåľ¨çľĭçĶµå½±": 3266,
      "æľĢè¿ĳåľ¨è´Ńçī©": 3267,
      "æľĢè¿ĳåľ¨åĸĿèĮ¶": 3268,
      "æľĢè¿ĳåľ¨çľĭä¹¦": 3269,
      "æľĢè¿ĳåľ¨è·ĳæŃ¥": 3270,
      "æĪĳä¹Łå¾Īåĸľæ¬¢ç¾İé£Łåĳ¢": 3271,
      "æĪĳä¹Łå¾Īåĸľæ¬¢åŃ¦ä¹łåĳ¢": 3272,
      "æĪĳä¹Łå¾Īåĸľæ¬¢è¯»ä¹¦åĳ¢": 3273,
      "æĪĳä¹Łå¾Īåĸľæ¬¢çľĭçĶµå½±åĳ¢": 3274,
      "æĪĳä¹Łå¾Īåĸľæ¬¢æ¸¸æĪıåĳ¢": 3275,
      "æĪĳä¹Łå¾Īåĸľæ¬¢çľĭä¹¦åĳ¢": 3276,
      "æĪĳä¹Łå¾Īåĸľæ¬¢èģĬå¤©åĳ¢": 3277,
      "æĪĳä¹Łå¾Īåĸľæ¬¢è´Ńçī©åĳ¢": 3278,
      "æĪĳä¹Łå¾Īåĸľæ¬¢è·ĳæŃ¥åĳ¢": 3279,
      "åĤįæĻļå¥½æĹłèģĬ": 3280,
      "åĤįæĻļå¥½å¼Ģå¿ĥ": 3281,
      "è¦ģçıįæĥľ": 3282,
      "è¿ĩå¾Ĺå¥½å¿«": 3283,
      "æĹ©ä¸Ĭå¥½ç´¯": 3284,
      "æĹ©ä¸Ĭå¥½æĹłèģĬ": 3285,
      "ä¸ĭåįĪå¹²åĺĽ": 3286,
      "æīĢä»¥": 3287,
      "çĥŃéĩı": 3288,
      "è¯´è¯´åĲĹ": 3289,
      "æľĭåıĭå¯¹æĪĳå¾Īå¥½": 3290,
      "æľĭåıĭä¸įçĲĨæĪĳäºĨ": 3291,
      "ä¼ļå¥½åıĹä¸ĢäºĽçļĦ": 3292,
      "è·ŁæĪĳè¯´": 3293,
      "è·ŁæĪĳè¯´è¯´åĲĹ": 3294,
      "éĴĵé±¼çļĦæĹ¶åĢĻåľ¨æĥ³ä½ł": 3295,
      "éĴĵé±¼å¾Īæľīè¶£": 3296,
      "åĩºåİ»èµ°": 3297,
      "åħ¬åı¸å¥½æĹłèģĬ": 3298,
      "æ³ķ": 3299,
      "çĥĺçĦĻå¥½ç´¯": 3300,
      "çĥĺçĦĻå¥½éļ¾": 3301,
      "åħ»èĬ±çļĦæĹ¶åĢĻåľ¨æĥ³ä½ł": 3302,
      "æķĪçİ": 3303,
      "åĨ¥æĥ³å¥½ç´¯": 3304,
      "åĨ¥æĥ³åİĭåĬĽå¥½å¤§": 3305,
      "çĿ¡è§īå¥½ç´¯": 3306,
      "åĸĿéħĴå¥½ç´¯": 3307,
      "åĸĿéħĴå¥½éļ¾": 3308,
      "æľīçĤ¹æĦŁæģ©": 3309,
      "åĵŃåĩºæĿ¥ä¼ļå¥½åıĹä¸ĢäºĽçļĦ": 3310,
      "çĳľä¼½çļĦæĹ¶åĢĻåľ¨æĥ³ä½ł": 3311,
      "çĳľä¼½å¥½æľīè¶£": 3312,
      "åĶ±æŃĮæĢİä¹Īæł·": 3313,
      "åĶ±æŃĮå¥½éļ¾": 3314,
      "åħ»å®łçī©çļĦæĹ¶åĢĻåľ¨æĥ³ä½ł": 3315,
      "åħ»å®łçī©å¥½æľīè¶£": 3316,
      "ç¼ĸç¨ĭåİĭåĬĽå¥½å¤§": 3317,
      "ç¼ĸç¨ĭå¥½æľīè¶£": 3318,
      "åıĳåĳĨæĢİä¹Īæł·": 3319,
      "åıĳåĳĨåİĭåĬĽå¥½å¤§": 3320,
      "åıĳåĳĨçļĦæĹ¶åĢĻåľ¨æĥ³ä½ł": 3321,
      "åıĳåĳĨå¾Īæľīè¶£": 3322,
      "çľĭçĶµå½±æĢİä¹Īæł·": 3323,
      "çľĭçĶµå½±çļĦæĹ¶åĢĻåľ¨æĥ³ä½ł": 3324,
      "çľĭçĶµå½±å¥½æľīè¶£": 3325,
      "éĢĽè¡Ĺå¥½ç´¯": 3326,
      "éĢĽè¡Ĺå¥½éļ¾": 3327,
      "éĢĽè¡Ĺå¥½æľīè¶£": 3328,
      "åĴĮçĪ¶æ¯įåĲµæŀ¶äºĨ": 3329,
      "çĪ¬å±±æĢİä¹Īæł·": 3330,
      "çĪ¬å±±åİĭåĬĽå¥½å¤§": 3331,
      "è®¾è®¡çļĦæĹ¶åĢĻåľ¨æĥ³ä½ł": 3332,
      "æ¸¸æ³³åİĭåĬĽå¥½å¤§": 3333,
      "ä»Ĭå¤©å¥½èĩªä¿¡": 3334,
      "ä»Ĭå¤©å¥½éªĦåĤ²": 3335,
      "åĲ¬éŁ³ä¹ĲæĢİä¹Īæł·": 3336,
      "çĿ¡ä¸įçĿĢåĳĢ": 3337,
      "è´Ńçī©å¥½ç´¯": 3338,
      "åĨĻä½ľæĢİä¹Īæł·": 3339,
      "åĨĻä½ľåķ¦": 3340,
      "åĨĻä½ľå¾Īæľīè¶£": 3341,
      "åĸĿåĴĸåķ¡æĢİä¹Īæł·": 3342,
      "åĸĿåĴĸåķ¡åķ¦": 3343,
      "åĸĿåĴĸåķ¡å¥½éļ¾": 3344,
      "åĸĿåĴĸåķ¡åİĭåĬĽå¥½å¤§": 3345,
      "åĸĿåĴĸåķ¡çļĦæĹ¶åĢĻåľ¨æĥ³ä½ł": 3346,
      "åģļé¥Ńå¥½éļ¾": 3347,
      "æīĵæ¸¸æĪıåķ¦": 3348,
      "è·³èĪŀå¥½éļ¾": 3349,
      "è·³èĪŀçļĦæĹ¶åĢĻåľ¨æĥ³ä½ł": 3350,
      "çªģçĦ¶æĹłèģĬ": 3351,
      "çªģçĦ¶çĶŁæ°Ķ": 3352,
      "çªģçĦ¶å®³æĢķ": 3353,
      "çªģçĦ¶å§Ķå±Ī": 3354,
      "çªģçĦ¶æĦŁæģ©": 3355,
      "çªģçĦ¶æ»¡è¶³": 3356,
      "åĸĿèĮ¶çļĦæĹ¶åĢĻåľ¨æĥ³ä½ł": 3357,
      "çľĭä¹¦å¥½ç´¯": 3358,
      "çľĭä¹¦çļĦæĹ¶åĢĻåľ¨æĥ³ä½ł": 3359,
      "çľĭä¹¦å¥½æľīè¶£": 3360,
      "çľĭä¹¦å¾Īæľīè¶£": 3361,
      "éĥ½åı¯ä»¥": 3362,
      "è·ĳæŃ¥æĢİä¹Īæł·": 3363,
      "è·ĳæŃ¥åİĭåĬĽå¥½å¤§": 3364,
      "è·ĳæŃ¥çļĦæĹ¶åĢĻåľ¨æĥ³ä½ł": 3365,
      "å¥½æĥ³çıįæĥľä½ł": 3366,
      "å¥½æĥ³çŃīå¾ħä½ł": 3367,
      "å¥½æĥ³æľŁå¾ħä½ł": 3368,
      "å¥½æĥ³åħ³å¿ĥä½ł": 3369,
      "å¥½æĥ³å®ĪæĬ¤ä½ł": 3370,
      "å¥½æĥ³æĥ³å¿µä½ł": 3371,
      "å¥½æĥ³äº²äº²ä½ł": 3372,
      "æĥ³åİ»åķĨåľº": 3373,
      "æĥ³åİ»å±±ä¸Ĭ": 3374,
      "æĪĳä¹Łåľ¨æľŁå¾ħ": 3375,
      "æĪĳä¹Łåľ¨äº²äº²ä½łåĳ¢": 3376,
      "æĹłæĹ¶æĹłåĪ»ä¸įåľ¨æľŁå¾ħä½ł": 3377,
      "æĹłæĹ¶æĹłåĪ»ä¸įåľ¨å®ĪæĬ¤ä½ł": 3378,
      "æĹłæĹ¶æĹłåĪ»ä¸įåľ¨æĥ³å¿µä½ł": 3379,
      "ç®¡ä½": 3380,
      "ä¸ĢçĽ´åľ¨çĪ±ä½łä½ł": 3381,
      "ä¸ĢçĽ´åľ¨éĻªä¼´ä½ł": 3382,
      "ä¸ĢçĽ´åľ¨çīµæĮĤä½ł": 3383,
      "ä¸ĢçĽ´åľ¨åľ¨ä¹İä½ł": 3384,
      "ä¸ĢçĽ´åľ¨å®ĪæĬ¤ä½ł": 3385,
      "ä¸ĢçĽ´åľ¨æĥ³å¿µä½ł": 3386,
      "ä¸ĢçĽ´åľ¨åŃ¦ä¹łè¿ĽæŃ¥": 3387,
      "æĪĳä¹Łæĥ³ä½łä½ł": 3388,
      "ä»Ĭå¤©æĹłèģĬåĽłä¸ºè¿ĲåĬ¨": 3389,
      "ä»Ĭå¤©æĹłèģĬåĽłä¸ºç¾İé£Ł": 3390,
      "ä»Ĭå¤©æĹłèģĬåĽłä¸ºçĶ»çĶ»": 3391,
      "ä»Ĭå¤©éļ¾è¿ĩåĽłä¸ºæ¸¸æĪı": 3392,
      "æĹ¶éĹ´è¿ĩå¾Ĺå¥½å¿«": 3393,
      "éĤ£å°±ä¼ĳæģ¯ä¸Ģä¼ļ": 3394,
      "»¡è¶³": 3395,
      "ä»Ĭå¤©ç´§å¼łåĽłä¸ºçĶµå½±": 3396,
      "ä»Ĭå¤©å®³æĢķåĽłä¸ºç¾İé£Ł": 3397,
      "ä»Ĭå¤©å®³æĢķåĽłä¸ºå·¥ä½ľ": 3398,
      "ä»Ĭå¤©å®³æĢķåĽłä¸ºæĹħè¡Į": 3399,
      "ä»Ĭå¤©çĶŁæ°ĶåĽłä¸ºç¾İé£Ł": 3400,
      "ä»Ĭå¤©çĶŁæ°ĶåĽłä¸ºå·¥ä½ľ": 3401,
      "ä»Ĭå¤©çĶŁæ°ĶåĽłä¸ºéŁ³ä¹Ĳ": 3402,
      "éĤ£æĪĳä»¬æĿ¥èģĬèģĬå¤©åĲ§": 3403,
      "å¤ļçļĦéĹ®é¢ĺ": 3404,
      "è®°å¾Ĺå¥½å¥½ä¼ĳæģ¯": 3405,
      "ä»Ĭå¤©å¼Ģå¿ĥåĽłä¸ºç¾İé£Ł": 3406,
      "ä»Ĭå¤©å¼Ģå¿ĥåĽłä¸ºéŁ³ä¹Ĳ": 3407,
      "ä»Ĭå¤©å¼Ģå¿ĥåĽłä¸ºè¯»ä¹¦": 3408,
      "æĻļä¸Ĭå¥½ç´¯": 3409,
      "æĻļä¸Ĭå¥½æĹłèģĬ": 3410,
      "æĻļä¸ĬåĲĥä»Ģä¹Ī": 3411,
      "ä»Ĭå¤©åħ´å¥ĭåĽłä¸ºæĹħè¡Į": 3412,
      "ä»Ĭå¤©åħ´å¥ĭåĽłä¸ºæ¸¸æĪı": 3413,
      "ä»Ĭå¤©åħ´å¥ĭåĽłä¸ºè¯»ä¹¦": 3414,
      "è°ģ": 3415,
      "é«ĺçĥŃéĩı": 3416,
      "é«ĺæķĪçİ": 3417,
      "æĬĬå¤§": 3418,
      "åķĨåľºå¥½æĹłèģĬ": 3419,
      "åķĨåľºæĺ¯ä¸ªå¥½åľ°æĸ¹": 3420,
      "å±±ä¸Ĭæĺ¯ä¸ªå¥½åľ°æĸ¹": 3421,
      "åĩĮæĻ¨å¥½ç´¯": 3422,
      "åħ¬åĽŃå¥½æĹłèģĬ": 3423,
      "åĲĮåŃ¦çĶŁæĹ¥": 3424,
      "ä¸ŃåįĪåľ¨åŃ¦æł¡åŃ¦ä¹ł": 3425,
      "ä¸ŃåįĪåľ¨åŃ¦æł¡ç¾İé£Ł": 3426,
      "ä¸ŃåįĪåľ¨åŃ¦æł¡æĹħè¡Į": 3427,
      "åĤįæĻļåĴĮçĪ¶æ¯įä¸Ģèµ·åŃ¦ä¹ł": 3428,
      "åĤįæĻļåĴĮçĪ¶æ¯įä¸Ģèµ·æĹħè¡Į": 3429,
      "æĹ©ä¸ĬåĴĮçĪ¶æ¯įä¸Ģèµ·åŃ¦ä¹ł": 3430,
      "åĤįæĻļåĴĮæľĭåıĭä¸Ģèµ·è¿ĲåĬ¨": 3431,
      "é¢Ĩå¯¼çĶŁæĹ¥": 3432,
      "ä¸ŃåįĪåĴĮçĪ¶æ¯įä¸Ģèµ·ç¾İé£Ł": 3433,
      "æ·±å¤ľå¥½æĹłèģĬ": 3434,
      "æ·±å¤ľå¹²åĺĽ": 3435,
      "èĢģå¸Īä¸įçĲĨæĪĳäºĨ": 3436,
      "èĢģå¸ĪçĶŁæĹ¥": 3437,
      "ä¸ŃåįĪåľ¨åħ¬åı¸å·¥ä½ľ": 3438,
      "åĤįæĻļåľ¨å®¶è¿ĲåĬ¨": 3439,
      "åĤįæĻļåľ¨å®¶ç¾İé£Ł": 3440,
      "åĤįæĻļåľ¨å®¶å·¥ä½ľ": 3441,
      "ä»Ģä¹Īæĺ¯äººå·¥æĻºèĥ½": 3442,
      "æĹ©ä¸ĬåĴĮå®¶äººä¸Ģèµ·åŃ¦ä¹ł": 3443,
      "æĹ©ä¸ĬåĴĮå®¶äººä¸Ģèµ·è¿ĲåĬ¨": 3444,
      "æĹ©ä¸ĬåĴĮå®¶äººä¸Ģèµ·æĹħè¡Į": 3445,
      "ä¸ĭåįĪåĴĮå®¶äººä¸Ģèµ·æĹħè¡Į": 3446,
      "èµ¶ç´§": 3447,
      "åĨįè®²": 3448,
      "æĹ©ä¸Ĭåľ¨åħ¬åı¸åŃ¦ä¹ł": 3449,
      "æĹ©ä¸Ĭåľ¨åħ¬åı¸æĹħè¡Į": 3450,
      "ä¸ĭåįĪåĴĮçĪ¶æ¯įä¸Ģèµ·è¿ĲåĬ¨": 3451,
      "ä¸ĭåįĪåľ¨å®¶å·¥ä½ľ": 3452,
      "ä¸ĭåįĪåľ¨å®¶æĹħè¡Į": 3453,
      "åĤįæĻļåľ¨åŃ¦æł¡å·¥ä½ľ": 3454,
      "ä¸ŃåįĪåĴĮæľĭåıĭä¸Ģèµ·æĹħè¡Į": 3455,
      "è¿ĺä¸įéĶĻåĳĢ": 3456,
      "æľīä»Ģä¹Īéĥ½åı¯ä»¥": 3457,
      "æ¢¦æĥ³åĲĹ": 3458,
      "æĹ©ä¸ĬåĴĮæľĭåıĭä¸Ģèµ·åŃ¦ä¹ł": 3459,
      "å°ıä»»åĬ¡": 3460,
      "åĪĨéĴŁè¯ķè¯ķ": 3461,
      "åĪĨéĴŁä¼ĳæģ¯": 3462,
      "åĽ¾ä¹¦é¦Ĩå¥½çĥŃéĹ¹": 3463,
      "æĪĳæĺ¯ä½łçļĦAI": 3464,
      "åıĪæĦŁäºº": 3465,
      "åħĪåģļ": 3466,
      "åı¯ä»¥è¯ķè¯ķçķ": 3467,
      "æĻºèĥ½çļĦæĬ": 3468,
      "ä¸ĭéĽ¨äºĨ": 3469,
      "ç§¯ç´¯æĪĲ": 3470,
      "æĪĲä¸ºæľĢå¥½çļĦ": 3471,
      "ä¸ľè¥¿åĲ§": 3472,
      "ä½łæľīæ¢¦æĥ³åĲĹ": 3473,
      "åįĩèĩªä¿¡": 3474,
      "æ¢¦æĥ³æĺ¯æĪĲä¸ºæľĢå¥½çļĦ": 3475,
      "èħ¿": 3476,
      "ä»Ĭå¤©çĶµå½±äºĨ": 3477,
      "æķ°åŃ¦ä¹¦": 3478,
      "æĢİä¹ĪåĩıèĤ": 3479,
      "ä¸ĢæŃ¥æĿ¥": 3480,
      "ä¸ĢæŃ¥ä¸ĢæŃ¥æĿ¥": 3481,
      "ä»»åĬ¡æĭĨæĪĲ": 3482,
      "å®ĥä»¬": 3483,
      "æĦ¿æĦıè¯´è¯´åĲĹ": 3484,
      "æĦ¿æĦıè·ŁæĪĳè¯´è¯´åĲĹ": 3485,
      "åĴĮä½łå·¥ä½ľå¾Īå¼Ģå¿ĥ": 3486,
      "åĴĮä½łéĴĵé±¼å¾Īå¼Ģå¿ĥ": 3487,
      "æĢİä¹ĪæıĲé«ĺæķĪçİ": 3488,
      "æĢİä¹ĪæıĲåįĩèĩªä¿¡": 3489,
      "åĲĥçĤ¹å¥½çļĦçĬ": 3490,
      "äººå·¥æĻºèĥ½æĺ¯è®©è®¡ç®Ĺæľº": 3491,
      "æĥ³çĪ¶æ¯įäºĨ": 3492,
      "ä»Ĭå¤©çĶ»çĶ»äºĨ": 3493,
      "ä»Ĭå¤©éĴĵé±¼äºĨ": 3494,
      "ä»Ĭå¤©çĪ¬å±±äºĨ": 3495,
      "åĴĮä½łè¿ĲåĬ¨å¾Īå¼Ģå¿ĥ": 3496,
      "åĴĮä½łèģĬå¤©å¾Īå¼Ģå¿ĥ": 3497,
      "åĴĮä½łåĸĿèĮ¶å¾Īå¼Ģå¿ĥ": 3498,
      "è®¾å®ļå°ıçĽ®æłĩå¹¶å®": 3499,
      "æĥ³åĲĮäºĭäºĨ": 3500,
      "æĥ³èĢģå¸ĪäºĨ": 3501,
      "ä»Ĭå¤©å·¥ä½ľäºĨ": 3502,
      "ä»Ĭå¤©åħ»èĬ±äºĨ": 3503,
      "ä»Ĭå¤©çĳľä¼½äºĨ": 3504,
      "ä»Ĭå¤©èĢĥè¯ķäºĨ": 3505,
      "åĴĮä½łåħ»èĬ±å¾Īå¼Ģå¿ĥ": 3506,
      "åĴĮä½łåĨ¥æĥ³å¾Īå¼Ģå¿ĥ": 3507,
      "åĴĮä½łåħ»å®łçī©å¾Īå¼Ģå¿ĥ": 3508,
      "åĽłä¸ºæĹłèģĬçĿ¡ä¸įçĿĢ": 3509,
      "ä»Ĭå¤©æ¸¸æĪıäºĨ": 3510,
      "ä»Ĭå¤©åħ»å®łçī©äºĨ": 3511,
      "ä»Ĭå¤©è·³èĪŀäºĨ": 3512,
      "åĴĮä½łåĸĿéħĴå¾Īå¼Ģå¿ĥ": 3513,
      "åĽłä¸ºå¹¸ç¦ıçĿ¡ä¸įçĿĢ": 3514,
      "åĽłä¸ºå§Ķå±ĪçĿ¡ä¸įçĿĢ": 3515,
      "åĽłä¸ºæĹłåĬ©çĿ¡ä¸įçĿĢ": 3516,
      "åĽłä¸ºæ»¡è¶³çĿ¡ä¸įçĿĢ": 3517,
      "6650": 3518,
      "ªèĮĦå·¥ä½ľ": 3519,
      "³èĩªå·±åĲ§": 3520,
      "´è¿Īå¼Ģ": 3521,
      "åĦ¿åĲ§": 3522,
      "æ¨¡æĭŁäººç±»": 3523,
      "Ģæľ¯": 3524,
      "ĮæĪĲå®ĥä»¬": 3525,
      "ıåĺ´è¿Īå¼Ģ": 3526,
      "ĴåĬ³èĩªå·±åĲ§": 3527,
      "å¥½åĽ°": 3528,
      "æĪĳçļĦæ¢¦æĥ³æĺ¯æĪĲä¸ºæľĢå¥½çļĦ": 3529,
      "ä½łæĥ³èģĬä»Ģä¹Ī": 3530,
      "ä½łæĺ¯è°ģ": 3531,
      "ä½łç´¯åĲĹ": 3532,
      "çļĦæ²³æĺ¯ä»Ģä¹Ī": 3533,
      "æĥ³æľĭåıĭäºĨ": 3534,
      "èµ·é£İäºĨ": 3535,
      "æĹ¢éľĩæĴ¼åıĪæĦŁäºº": 3536,
      "æĹĭå¾ĭå¾Īç¾İ": 3537,
      "åĴĮå®¤åıĭåĲµæŀ¶äºĨ": 3538,
      "è¿ľä¸įä¼ļç´¯": 3539,
      "åħ¨éķ¿çº¦": 3540,
      "æľīå¤ªå¤ļçļĦéĹ®é¢ĺ": 3541,
      "ä»Ĭå¤©å¥½æ»¡è¶³": 3542,
      "ä»Ĭå¤©åĨĻä½ľäºĨ": 3543,
      "ä»Ĭå¤©åĸĿåĴĸåķ¡äºĨ": 3544,
      "æľĢéķ¿çļĦæ²³æĺ¯ä»Ģä¹Ī": 3545,
      "åİ»åĲĥçĤ¹ä¸ľè¥¿åĲ§": 3546,
      "åĴĮä½łæ¸¸æĪıå¾Īå¼Ģå¿ĥ": 3547,
      "æĪĳæ°¸è¿ľä¸įä¼ļç´¯": 3548,
      "ä¸ºä»Ģä¹Īæķ°åŃ¦ä¹¦": 3549,
      "ä¸ºä½łæľįåĬ¡": 3550,
      "åĽłä¸ºå®ĥæľīå¤ªå¤ļçļĦéĹ®é¢ĺ": 3551,
      "æĢİä¹Īåħĭæľįæĭĸå»": 3552,
      "è¾Ľèĭ¦ä¸Ģå¤©äºĨ": 3553,
      "åĪ«é¥¿çĿĢ": 3554,
      "å°¼ç½Ĺæ²³": 3555,
      "å°ĳåĲĥé«ĺçĥŃéĩı": 3556,
      "æĪĳä¹Łæĥ³æľŁå¾ħä½łåĳĢ": 3557,
      "å½ĵä¸ĭçļĦæ¯ıä¸ĢåĪ»": 3558,
      "æİ¨èįĲéĥ¨çĶµå½±": 3559,
      "æĢ»æĺ¯å¾Īå¿§éĥģ": 3560,
      "è¦ģçıįæĥľå½ĵä¸ĭçļĦæ¯ıä¸ĢåĪ»": 3561,
      "æīĢä»¥è¦ģçıįæĥľå½ĵä¸ĭçļĦæ¯ıä¸ĢåĪ»": 3562,
      "åĩºåİ»èµ°èµ°": 3563,
      "æĪĳä¹Łåľ¨æľŁå¾ħä½łåĳ¢": 3564,
      "ç®¡ä½ıåĺ´è¿Īå¼Ģ": 3565,
      "ä¸ĢçĽ´åľ¨åŃ¦ä¹łè¿ĽæŃ¥ä¸Ń": 3566,
      "éĤ£å°±ä¼ĳæģ¯ä¸Ģä¼ļåĦ¿åĲ§": 3567,
      "æĬĬå¤§ä»»åĬ¡æĭĨæĪĲ": 3568,
      "èµ¶ç´§åİ»åĲĥçĤ¹ä¸ľè¥¿åĲ§": 3569,
      "åĨįè®²ä¸Ģä¸ª": 3570,
      "æľīä»Ģä¹Īéĥ½åı¯ä»¥è·ŁæĪĳè¯´": 3571,
      "æĪĳæĺ¯ä½łçļĦAIèģĬå¤©åĬ©æīĭ": 3572,
      "åı¯ä»¥è¯ķè¯ķçķªèĮĦå·¥ä½ľ": 3573,
      "æĻºèĥ½çļĦæĬĢæľ¯": 3574,
      "ç§¯ç´¯æĪĲå°±æĦŁ": 3575,
      "æĢİä¹ĪåĩıèĤ¥": 3576,
      "æĢİä¹ĪæıĲé«ĺæķĪçİĩ": 3577,
      "åĲĥçĤ¹å¥½çļĦçĬĴåĬ³èĩªå·±åĲ§": 3578,
      "äººå·¥æĻºèĥ½æĺ¯è®©è®¡ç®Ĺæľºæ¨¡æĭŁäººç±»": 3579,
      "è®¾å®ļå°ıçĽ®æłĩå¹¶å®ĮæĪĲå®ĥä»¬": 3580,
      "æĪĳçļĦæ¢¦æĥ³æĺ¯æĪĲä¸ºæľĢå¥½çļĦåĬ©æīĭ": 3581,
      "ä¸ºä»Ģä¹Īæķ°åŃ¦ä¹¦æĢ»æĺ¯å¾Īå¿§éĥģ": 3582,
      "æĢİä¹Īåħĭæľįæĭĸå»¶": 3583,
      "å°ĳåĲĥé«ĺçĥŃéĩıé£Łçī©": 3584,
      "ç®¡ä½ıåĺ´è¿Īå¼Ģèħ¿": 3585,
      "æĬĬå¤§ä»»åĬ¡æĭĨæĪĲå°ıä»»åĬ¡": 3586,
      "åı¯ä»¥è¯ķè¯ķçķªèĮĦå·¥ä½ľæ³ķ": 3587,
      "äººå·¥æĻºèĥ½æĺ¯è®©è®¡ç®Ĺæľºæ¨¡æĭŁäººç±»æĻºèĥ½çļĦæĬĢæľ¯": 3588,
      "¡¹": 3589,
      "¡èĽĭ": 3590,
      "£ç": 3591,
      "¥åı": 3592,
      "¯éĶĻ": 3593,
      "¶ä»": 3594,
      "¸¡èĽĭ": 3595,
      "æİ": 3596,
      "é¡¹": 3597,
      "é¸¡èĽĭ": 3598,
      "ģå¤ļ": 3599,
      "Ĥåĳ¢": 3600,
      "İåĽŀæĿ¥": 3601,
      "ıæĹ¶": 3602,
      "ıç¼ĸç¨ĭ": 3603,
      "Ĵé¥Ń": 3604,
      "Ķå¦": 3605,
      "ĸç³»": 3606,
      "ĺçĤ¹": 3607,
      "Łæ²": 3608,
      "ŁéĢļ": 3609,
      "łģå¤ļ": 3610,
      "ŃåŃ¦ä¹ł": 3611,
      "æĪĳåģļ": 3612,
      "æĪĳåĽŀæĿ¥": 3613,
      "ä½łåĴĮ": 3614,
      "åľ¨æĥ³å¦³": 3615,
      "çļĦä¼": 3616,
      "åĴĮçĪ±": 3617,
      "åĴĮç±³é¥Ń": 3618,
      "è¿İåĽŀæĿ¥": 3619,
      "ä»£ç": 3620,
      "æ¬¢è¿İåĽŀæĿ¥": 3621,
      "ä¸įæĸ": 3622,
      "åħ¶ä»": 3623,
      "æĺ¯ç®ĢåįķçļĦ": 3624,
      "æĺ¯åºĶ": 3625,
      "æĺ¯åĴĮçĪ±": 3626,
      "ä»Ĭå¤©çľĭ": 3627,
      "ä»Ĭå¤©çĿ¡è§ī": 3628,
      "ä»Ĭå¤©åĸĿéħĴ": 3629,
      "ä»Ĭå¤©åģļé¥Ń": 3630,
      "çĤĴé¥Ń": 3631,
      "ä¼ļçļĦ": 3632,
      "åĴĮä½łçľĭçĶµå½±": 3633,
      "åĴĮä½łéĢĽè¡Ĺ": 3634,
      "åĴĮä½łåĲ¬éŁ³ä¹Ĳ": 3635,
      "åĴĮä½łè·³èĪŀ": 3636,
      "åĽłä¸ºç´¯": 3637,
      "¨èĩª": 3638,
      "åħ³æ³": 3639,
      "æ²¡äºĭ": 3640,
      "æĥ³åŃ¦åŃ¦ä¹ł": 3641,
      "æĥ³åŃ¦ç¾İé£Ł": 3642,
      "æĥ³åŃ¦çĿ¡è§ī": 3643,
      "æĥ³åŃ¦éĢĽè¡Ĺ": 3644,
      "çĶµå½±å¥½éļ¾": 3645,
      "çĶµå½±çļĦæĹ¶åĢĻåľ¨æĥ³ä½ł": 3646,
      "çĶµå½±å¾Īæľīè¶£": 3647,
      "çĶµå½±ç¡®å®ŀä¼ļè®©äººå®³æĢķ": 3648,
      "çĶµå½±ç¡®å®ŀä¼ļè®©äººåħ´å¥ĭ": 3649,
      "éļıæĹ¶": 3650,
      "çļĦäººåľ¨ä¸Ģèµ·": 3651,
      "æ¯Ķå¦": 3652,
      "å¹¸ç¦ıæĺ¯ä»Ģä¹Ī": 3653,
      "å¹¸ç¦ıæĺ¯åĴĮçĪ±": 3654,
      "åŃ¦ä¹łåİĭåĬĽå¥½å¤§": 3655,
      "åŃ¦ä¹łç¡®å®ŀä¼ļè®©äººæĹłèģĬ": 3656,
      "è§īå¾ĹéªĦåĤ²": 3657,
      "è§īå¾ĹçĦ¦èĻĳ": 3658,
      "è¿ĲåĬ¨æĢİä¹Īæł·": 3659,
      "è¿ĲåĬ¨çļĦæĹ¶åĢĻåľ¨æĥ³ä½ł": 3660,
      "è¿ĲåĬ¨ç¡®å®ŀä¼ļè®©äººç´§å¼ł": 3661,
      "ç¾İé£Łå¥½æľīè¶£": 3662,
      "ç¾İé£Łç¡®å®ŀä¼ļè®©äººç´§å¼ł": 3663,
      "ç¾İé£Łç¡®å®ŀä¼ļè®©äººåħ´å¥ĭ": 3664,
      "çļĦæĹ¶åĢĻåľ¨æĥ³å¦³": 3665,
      "å·¥ä½ľçļĦæĹ¶åĢĻåľ¨æĥ³ä½ł": 3666,
      "éŁ³ä¹ĲåİĭåĬĽå¥½å¤§": 3667,
      "éŁ³ä¹Ĳå¥½æľīè¶£": 3668,
      "éŁ³ä¹Ĳç¡®å®ŀä¼ļè®©äººå®³æĢķ": 3669,
      "åľ¨åŃ¦çĶµå½±": 3670,
      "åľ¨åŃ¦åŃ¦ä¹ł": 3671,
      "åľ¨åŃ¦è¿ĲåĬ¨": 3672,
      "åľ¨åŃ¦æĹħè¡Į": 3673,
      "åľ¨åŃ¦è¯»ä¹¦": 3674,
      "åľ¨åŃ¦åħ»å®łçī©": 3675,
      "åľ¨åŃ¦åĨĻä½ľ": 3676,
      "åľ¨åŃ¦æĳĦå½±": 3677,
      "æĹħè¡Įå¥½ç´¯": 3678,
      "æĹħè¡ĮçļĦæĹ¶åĢĻåľ¨æĥ³ä½ł": 3679,
      "æĹħè¡Įç¡®å®ŀä¼ļè®©äººç´¯": 3680,
      "æĹħè¡Įç¡®å®ŀä¼ļè®©äººå¼Ģå¿ĥ": 3681,
      "ç»Łæ²": 3682,
      "æĪĳä¹Łæĥ³çīµæĮĤä½łåĳĢ": 3683,
      "èģĬå¤©åİĭåĬĽå¥½å¤§": 3684,
      "æ¸¸æĪıå¥½éļ¾": 3685,
      "æ¸¸æĪıçļĦæĹ¶åĢĻåľ¨æĥ³ä½ł": 3686,
      "ä¸ĢçĽ´æ»¡è¶³": 3687,
      "å·±çļĦä¼": 3688,
      "æİ¨èįĲçĤ¹è¿ĲåĬ¨": 3689,
      "æİ¨èįĲçĤ¹çĶ»çĶ»": 3690,
      "æİ¨èįĲçĤ¹ç¼ĸç¨ĭ": 3691,
      "æİ¨èįĲçĤ¹æķ£æŃ¥": 3692,
      "æĪĳåĸľæ¬¢è¿ĲåĬ¨": 3693,
      "æĪĳåĸľæ¬¢æĹħè¡Į": 3694,
      "æĪĳåĸľæ¬¢éľ²èĲ¥": 3695,
      "æĪĳåĸľæ¬¢ç¼ĸç¨ĭ": 3696,
      "æĪĳåĸľæ¬¢è®¾è®¡": 3697,
      "åĩĨå¤ĩé¸¡èĽĭ": 3698,
      "æŃ£åľ¨è¿ĲåĬ¨": 3699,
      "æŃ£åľ¨å·¥ä½ľ": 3700,
      "æŃ£åľ¨èģĬå¤©": 3701,
      "æŃ£åľ¨éĢĽè¡Ĺ": 3702,
      "æŃ£åľ¨æķ£æŃ¥": 3703,
      "æŃ£åľ¨è·ĳæŃ¥": 3704,
      "åĩĨå¤ĩåİ»æ¸¸æĪı": 3705,
      "åĩĨå¤ĩåİ»åħ»èĬ±": 3706,
      "åĩĨå¤ĩåİ»ç¼ĸç¨ĭ": 3707,
      "æĪĳä¹Łåĸľæ¬¢ç¼ĸç¨ĭåĳ¢": 3708,
      "æĥ³åĴĮä½łä¸Ģèµ·è¿ĲåĬ¨": 3709,
      "æĥ³åĴĮä½łä¸Ģèµ·æĹħè¡Į": 3710,
      "æĥ³åĴĮä½łä¸Ģèµ·æ¸¸æĪı": 3711,
      "æĥ³åĴĮä½łä¸Ģèµ·çĶ»çĶ»": 3712,
      "æĥ³åĴĮä½łä¸Ģèµ·çĪ¬å±±": 3713,
      "æĥ³åĴĮä½łä¸Ģèµ·åĸĿåĴĸåķ¡": 3714,
      "æĪĳä¸įåĸľæ¬¢å·¥ä½ľ": 3715,
      "æĪĳä¸įåĸľæ¬¢éŁ³ä¹Ĳ": 3716,
      "æĪĳä¸įåĸľæ¬¢æĹħè¡Į": 3717,
      "æĪĳä¸įåĸľæ¬¢åĶ±æŃĮ": 3718,
      "æĪĳä¸įåĸľæ¬¢åģļé¥Ń": 3719,
      "æĪĳä¸įåĸľæ¬¢è·ĳæŃ¥": 3720,
      "çĶ»çĶ»ç¡®å®ŀä¼ļè®©äººéļ¾è¿ĩ": 3721,
      "çĶ»çĶ»ç¡®å®ŀä¼ļè®©äººçĶŁæ°Ķ": 3722,
      "è¯»ä¹¦å¥½ç´¯": 3723,
      "è¯»ä¹¦çļĦæĹ¶åĢĻåľ¨æĥ³ä½ł": 3724,
      "è¯»ä¹¦å¥½æľīè¶£": 3725,
      "è¯»ä¹¦å¾Īæľīè¶£": 3726,
      "è¯»ä¹¦ç¡®å®ŀä¼ļè®©äººéļ¾è¿ĩ": 3727,
      "æľĢè¿ĳæĢİä¹Īæł·": 3728,
      "æľĢè¿ĳåľ¨åŃ¦ä¹ł": 3729,
      "æľĢè¿ĳåľ¨èģĬå¤©": 3730,
      "æľĢè¿ĳåľ¨çĪ¬å±±": 3731,
      "æľĢè¿ĳåľ¨è·³èĪŀ": 3732,
      "æĪĳä¹Łå¾Īåĸľæ¬¢è·³èĪŀåĳ¢": 3733,
      "æĪĳä¹Łå¾Īåĸľæ¬¢çĪ¬å±±åĳ¢": 3734,
      "ä¸ŃåįĪæĥ³ä½ł": 3735,
      "ä¸ŃåįĪå¥½ç´¯": 3736,
      "ä¸ŃåįĪå¥½æĹłèģĬ": 3737,
      "ä¸ŃåįĪå¥½å¼Ģå¿ĥ": 3738,
      "åģļé¡¹": 3739,
      "åĤįæĻļå¥½ç´¯": 3740,
      "æĹ©ä¸Ĭå¹²åĺĽ": 3741,
      "å®³æĢķçļĦæĹ¶åĢĻæĥ³åĵŃ": 3742,
      "éĴĵé±¼å¥½éļ¾": 3743,
      "çĥĺçĦĻæĢİä¹Īæł·": 3744,
      "çĥĺçĦĻåİĭåĬĽå¥½å¤§": 3745,
      "åħ»èĬ±æĢİä¹Īæł·": 3746,
      "åĨ¥æĥ³æĢİä¹Īæł·": 3747,
      "åĨ¥æĥ³å¥½æľīè¶£": 3748,
      "çĿ¡è§īåİĭåĬĽå¥½å¤§": 3749,
      "åĸĿéħĴåķ¦": 3750,
      "åĸĿéħĴçļĦæĹ¶åĢĻåľ¨æĥ³ä½ł": 3751,
      "æľīçĤ¹å´©æºĥ": 3752,
      "æľīçĤ¹å¹³éĿĻ": 3753,
      "ç¨ĭåº": 3754,
      "çĳľä¼½å¥½ç´¯": 3755,
      "çĳľä¼½åİĭåĬĽå¥½å¤§": 3756,
      "åĶ±æŃĮåİĭåĬĽå¥½å¤§": 3757,
      "åĶ±æŃĮå¥½æľīè¶£": 3758,
      "éľ²èĲ¥å¥½éļ¾": 3759,
      "åħ»å®łçī©å¥½éļ¾": 3760,
      "åħ»å®łçī©åİĭåĬĽå¥½å¤§": 3761,
      "åħ»å®łçī©å¾Īæľīè¶£": 3762,
      "ç¼ĸç¨ĭæĢİä¹Īæł·": 3763,
      "ç¼ĸç¨ĭå¥½éļ¾": 3764,
      "ç¼ĸç¨ĭçļĦæĹ¶åĢĻåľ¨æĥ³ä½ł": 3765,
      "çľĭçĶµå½±å¥½ç´¯": 3766,
      "çľĭçĶµå½±å¾Īæľīè¶£": 3767,
      "çĪ¬å±±å¥½éļ¾": 3768,
      "çĪ¬å±±çļĦæĹ¶åĢĻåľ¨æĥ³ä½ł": 3769,
      "è®¾è®¡åİĭåĬĽå¥½å¤§": 3770,
      "æ¸¸æ³³æĢİä¹Īæł·": 3771,
      "è´Ńçī©æĢİä¹Īæł·": 3772,
      "è´Ńçī©åİĭåĬĽå¥½å¤§": 3773,
      "è´Ńçī©çļĦæĹ¶åĢĻåľ¨æĥ³ä½ł": 3774,
      "éľĢè¦ģéļıæĹ¶": 3775,
      "åĨĻä½ľçļĦæĹ¶åĢĻåľ¨æĥ³ä½ł": 3776,
      "åģļé¥Ńå¥½ç´¯": 3777,
      "åģļé¥Ńåķ¦": 3778,
      "åģļé¥ŃçļĦæĹ¶åĢĻåľ¨æĥ³ä½ł": 3779,
      "åģļé¥Ńå¥½æľīè¶£": 3780,
      "æīĵæ¸¸æĪıå¥½ç´¯": 3781,
      "æīĵæ¸¸æĪıæĢİä¹Īæł·": 3782,
      "æīĵæ¸¸æĪıåİĭåĬĽå¥½å¤§": 3783,
      "æīĵæ¸¸æĪıå¥½æľīè¶£": 3784,
      "æķ£æŃ¥å¥½ç´¯": 3785,
      "æķ£æŃ¥æĢİä¹Īæł·": 3786,
      "æķ£æŃ¥åİĭåĬĽå¥½å¤§": 3787,
      "æķ£æŃ¥çļĦæĹ¶åĢĻåľ¨æĥ³ä½ł": 3788,
      "è·³èĪŀæĢİä¹Īæł·": 3789,
      "è·³èĪŀå¥½æľīè¶£": 3790,
      "çªģçĦ¶å¼Ģå¿ĥ": 3791,
      "çªģçĦ¶èĩªä¿¡": 3792,
      "åĸĿèĮ¶å¥½éļ¾": 3793,
      "çľĭä¹¦åķ¦": 3794,
      "çľĭä¹¦å¥½éļ¾": 3795,
      "æĳĦå½±å¥½éļ¾": 3796,
      "æĳĦå½±å¥½æľīè¶£": 3797,
      "æĳĦå½±å¾Īæľīè¶£": 3798,
      "å¥½æĥ³çīµæĮĤä½ł": 3799,
      "æĪĳä¹Łåľ¨ä¸įæĸ": 3800,
      "æĹłæĹ¶æĹłåĪ»ä¸įåľ¨çŃīå¾ħä½ł": 3801,
      "æĹłæĹ¶æĹłåĪ»ä¸įåľ¨çīµæĮĤä½ł": 3802,
      "ä¸ĢçĽ´åľ¨æľŁå¾ħä½ł": 3803,
      "ä»Ĭå¤©ç´¯åĽłä¸ºåŃ¦ä¹ł": 3804,
      "ä»Ĭå¤©ç´¯åĽłä¸ºæĹħè¡Į": 3805,
      "ä»Ĭå¤©æĹłèģĬåĽłä¸ºå·¥ä½ľ": 3806,
      "ä»Ĭå¤©éļ¾è¿ĩåĽłä¸ºå·¥ä½ľ": 3807,
      "ä»Ĭå¤©éļ¾è¿ĩåĽłä¸ºæĹħè¡Į": 3808,
      "ä»Ĭå¤©éļ¾è¿ĩåĽłä¸ºçĶ»çĶ»": 3809,
      "ä»Ĭå¤©éļ¾è¿ĩåĽłä¸ºè¯»ä¹¦": 3810,
      "ä»Ĭå¤©å®³æĢķåĽłä¸ºçĶµå½±": 3811,
      "ä»Ĭå¤©å®³æĢķåĽłä¸ºåŃ¦ä¹ł": 3812,
      "ä»Ĭå¤©å®³æĢķåĽłä¸ºè¿ĲåĬ¨": 3813,
      "ä»Ĭå¤©å®³æĢķåĽłä¸ºéŁ³ä¹Ĳ": 3814,
      "ä»Ĭå¤©çĶŁæ°ĶåĽłä¸ºåŃ¦ä¹ł": 3815,
      "ä»Ĭå¤©çĶŁæ°ĶåĽłä¸ºæĹħè¡Į": 3816,
      "ä»Ĭå¤©çĶŁæ°ĶåĽłä¸ºæ¸¸æĪı": 3817,
      "ä»Ĭå¤©çĶŁæ°ĶåĽłä¸ºçĶ»çĶ»": 3818,
      "ä»Ĭå¤©å¼Ģå¿ĥåĽłä¸ºå·¥ä½ľ": 3819,
      "ä»Ĭå¤©å¼Ģå¿ĥåĽłä¸ºæ¸¸æĪı": 3820,
      "ä»Ĭå¤©åħ´å¥ĭåĽłä¸ºçĶµå½±": 3821,
      "ä»Ĭå¤©åħ´å¥ĭåĽłä¸ºåŃ¦ä¹ł": 3822,
      "ä»Ĭå¤©åħ´å¥ĭåĽłä¸ºè¿ĲåĬ¨": 3823,
      "ä¹¦åºĹå¥½æĹłèģĬ": 3824,
      "åĤįæĻļåľ¨åħ¬åı¸åŃ¦ä¹ł": 3825,
      "åĤįæĻļåľ¨åħ¬åı¸è¿ĲåĬ¨": 3826,
      "æµ·è¾¹å¥½æĹłèģĬ": 3827,
      "åģ¥èº«æĪ¿å¥½æĹłèģĬ": 3828,
      "åĳ¨æľ«å¥½ç´¯": 3829,
      "æĦŁåĬ¨çļĦæĹ¶åĢĻæĥ³åĵŃ": 3830,
      "åħ³å¿ĥä½łåĳ¢": 3831,
      "å¹³éĿĻçļĦæĹ¶åĢĻæĥ³åĵŃ": 3832,
      "ä¸ŃåįĪåľ¨åŃ¦æł¡å·¥ä½ľ": 3833,
      "åĤįæĻļåĴĮçĪ¶æ¯įä¸Ģèµ·å·¥ä½ľ": 3834,
      "åĤįæĻļåĴĮæľĭåıĭä¸Ģèµ·åŃ¦ä¹ł": 3835,
      "åĤįæĻļåĴĮæľĭåıĭä¸Ģèµ·ç¾İé£Ł": 3836,
      "åĤįæĻļåĴĮæľĭåıĭä¸Ģèµ·å·¥ä½ľ": 3837,
      "åĤįæĻļåĴĮæľĭåıĭä¸Ģèµ·æĹħè¡Į": 3838,
      "ä¸ĭåįĪåĴĮæľĭåıĭä¸Ģèµ·è¿ĲåĬ¨": 3839,
      "ä¸ŃåįĪåĴĮå®¶äººä¸Ģèµ·åŃ¦ä¹ł": 3840,
      "æ·±å¤ľå¥½ç´¯": 3841,
      "ä¸ŃåįĪåľ¨å®¶æĹħè¡Į": 3842,
      "ä¸ŃåįĪåľ¨åħ¬åı¸ç¾İé£Ł": 3843,
      "ä¸ŃåįĪåľ¨åħ¬åı¸æĹħè¡Į": 3844,
      "åĤįæĻļåľ¨å®¶åŃ¦ä¹ł": 3845,
      "åĤįæĻļåľ¨å®¶æĹħè¡Į": 3846,
      "ä»Ģä¹Īæĺ¯æľºåĻ¨åŃ¦ä¹ł": 3847,
      "ä»Ģä¹Īæĺ¯API": 3848,
      "æĹ©ä¸ĬåĴĮå®¶äººä¸Ģèµ·å·¥ä½ľ": 3849,
      "ä¸ĭåįĪåĴĮå®¶äººä¸Ģèµ·åŃ¦ä¹ł": 3850,
      "ä¸ĭåįĪåĴĮå®¶äººä¸Ģèµ·å·¥ä½ľ": 3851,
      "ä»İç®ĢåįķçļĦ": 3852,
      "æĹ©ä¸Ĭåľ¨åħ¬åı¸è¿ĲåĬ¨": 3853,
      "å¸®ä½łåĴĮ": 3854,
      "ä¸ĭåįĪåľ¨å®¶åŃ¦ä¹ł": 3855,
      "ä¸ĭåįĪåľ¨å®¶è¿ĲåĬ¨": 3856,
      "ä¸ĭåįĪåľ¨å®¶ç¾İé£Ł": 3857,
      "åģĩæľŁæĥ³ä½ł": 3858,
      "åģĩæľŁå¥½ç´¯": 3859,
      "åģĩæľŁå¹²åĺĽ": 3860,
      "åĤįæĻļåľ¨åŃ¦æł¡åŃ¦ä¹ł": 3861,
      "ä¸ŃåįĪåĴĮæľĭåıĭä¸Ģèµ·ç¾İé£Ł": 3862,
      "ä¸ŃåįĪåĴĮæľĭåıĭä¸Ģèµ·å·¥ä½ľ": 3863,
      "æĹ©ä¸Ĭåľ¨å®¶å·¥ä½ľ": 3864,
      "ä¸ĭåįĪåľ¨åħ¬åı¸è¿ĲåĬ¨": 3865,
      "ä¸ĭåįĪåľ¨åħ¬åı¸ç¾İé£Ł": 3866,
      "æľīä»Ģä¹ĪéľĢè¦ģéļıæĹ¶": 3867,
      "æĹ©ä¸Ĭåľ¨åŃ¦æł¡åŃ¦ä¹ł": 3868,
      "æĹ©ä¸Ĭåľ¨åŃ¦æł¡ç¾İé£Ł": 3869,
      "æĹ©ä¸Ĭåľ¨åŃ¦æł¡å·¥ä½ľ": 3870,
      "æĹ©ä¸Ĭåľ¨åŃ¦æł¡æĹħè¡Į": 3871,
      "ä¸ĭåįĪåľ¨åŃ¦æł¡åŃ¦ä¹ł": 3872,
      "ä¸ĭåįĪåľ¨åŃ¦æł¡è¿ĲåĬ¨": 3873,
      "ä¸ĭåįĪåľ¨åŃ¦æł¡å·¥ä½ľ": 3874,
      "æĹ©ä¸ĬåĴĮæľĭåıĭä¸Ģèµ·ç¾İé£Ł": 3875,
      "æĹ©ä¸ĬåĴĮæľĭåıĭä¸Ģèµ·æĹħè¡Į": 3876,
      "åĽ¾ä¹¦é¦Ĩå¥½æĹłèģĬ": 3877,
      "ä½łä¼ļçĬ": 3878,
      "åħĪåĩĨå¤ĩé¸¡èĽĭ": 3879,
      "çĶ¨ç¨ĭåº": 3880,
      "æķĻæĪĳåģļ": 3881,
      "å¤ļåĨĻä»£ç": 3882,
      "åĴĮä½łæīĵæ¸¸æĪıå¾Īå¼Ģå¿ĥ": 3883,
      "åľ¨åħ¬åĽŃå¹²åĺĽåĳ¢": 3884,
      "åľ¨åĽ¾ä¹¦é¦Ĩå¹²åĺĽåĳ¢": 3885,
      "æĥ³å®¤åıĭäºĨ": 3886,
      "ä»Ĭå¤©åĨ¥æĥ³äºĨ": 3887,
      "åĴĮä½łçĶµå½±å¾Īå¼Ģå¿ĥ": 3888,
      "åĴĮä½łåŃ¦ä¹łå¾Īå¼Ģå¿ĥ": 3889,
      "åĴĮä½łåıĳåĳĨå¾Īå¼Ģå¿ĥ": 3890,
      "åĴĮä½łçľĭä¹¦å¾Īå¼Ģå¿ĥ": 3891,
      "åĽłä¸ºéļ¾è¿ĩçĿ¡ä¸įçĿĢ": 3892,
      "åįĩèģĮäºĨ": 3893,
      "APIæĺ¯åºĶ": 3894,
      "èĽĭçĤĴé¥Ń": 3895,
      "ä»Ĭå¤©åŃ¦ä¹łäºĨ": 3896,
      "ä»Ĭå¤©è¿ĲåĬ¨äºĨ": 3897,
      "ä»Ĭå¤©éľ²èĲ¥äºĨ": 3898,
      "ä»Ĭå¤©è´Ńçī©äºĨ": 3899,
      "åĴĮä½łæĹħè¡Įå¾Īå¼Ģå¿ĥ": 3900,
      "åĴĮä½łåĸĿåĴĸåķ¡å¾Īå¼Ģå¿ĥ": 3901,
      "åĽłä¸ºç´§å¼łçĿ¡ä¸įçĿĢ": 3902,
      "åĽłä¸ºåħ´å¥ĭçĿ¡ä¸įçĿĢ": 3903,
      "åĽłä¸ºèĩªä¿¡çĿ¡ä¸įçĿĢ": 3904,
      "åĽłä¸ºéªĦåĤ²çĿ¡ä¸įçĿĢ": 3905,
      "åĽłä¸ºå¹³éĿĻçĿ¡ä¸įçĿĢ": 3906,
      "æĥ³å®¶äººäºĨ": 3907,
      "æĥ³åĲĮåŃ¦äºĨ": 3908,
      "ä»Ĭå¤©æīĵæ¸¸æĪıäºĨ": 3909,
      "åĴĮä½łåĶ±æŃĮå¾Īå¼Ģå¿ĥ": 3910,
      "åĴĮä½łè´Ńçī©å¾Īå¼Ģå¿ĥ": 3911,
      "åĴĮä½łåģļé¥Ńå¾Īå¼Ģå¿ĥ": 3912,
      "åĽłä¸ºæĦŁæģ©çĿ¡ä¸įçĿĢ": 3913,
      "åĽłä¸ºæĦŁåĬ¨çĿ¡ä¸įçĿĢ": 3914,
      "æĶ¾åģĩäºĨ": 3915,
      "¥åı£": 3916,
      "¯éĶĻåĲĹ": 3917,
      "æİ¥åı£": 3918,
      "ıç¼ĸç¨ĭæİ¥åı£": 3919,
      "ĸç³»ç»Łæ²": 3920,
      "łģå¤ļåģļé¡¹": 3921,
      "ŃåŃ¦ä¹łä¸Ń": 3922,
      "åħ¶ä»ĸç³»ç»Łæ²": 3923,
      "æĺ¯ç®ĢåįķçļĦå¿«ä¹Ĳ": 3924,
      "ä»Ĭå¤©çľĭä¹¦äºĨ": 3925,
      "åĴĮä½łåĲ¬éŁ³ä¹Ĳå¾Īå¼Ģå¿ĥ": 3926,
      "åĽłä¸ºç´¯çĿ¡ä¸įçĿĢ": 3927,
      "¨èĩªå·±çļĦä¼": 3928,
      "åħ³æ³¨èĩªå·±çļĦä¼": 3929,
      "æ¯Ķå¦Ĥåĳ¢": 3930,
      "å¹¸ç¦ıæĺ¯åĴĮçĪ±çļĦäººåľ¨ä¸Ģèµ·": 3931,
      "æĪĳä¹Łåľ¨ä¸įæĸŃåŃ¦ä¹łä¸Ń": 3932,
      "ä»İç®ĢåįķçļĦå¼Ģå§ĭ": 3933,
      "å¸®ä½łåĴĮåħ¶ä»ĸç³»ç»Łæ²": 3934,
      "æľīä»Ģä¹ĪéľĢè¦ģéļıæĹ¶è¯´": 3935,
      "ä½łä¼ļçĬ¯éĶĻåĲĹ": 3936,
      "åħĪåĩĨå¤ĩé¸¡èĽĭåĴĮç±³é¥Ń": 3937,
      "çĶ¨ç¨ĭåºıç¼ĸç¨ĭæİ¥åı£": 3938,
      "æķĻæĪĳåģļèĽĭçĤĴé¥Ń": 3939,
      "å¤ļåĨĻä»£çłģå¤ļåģļé¡¹": 3940,
      "APIæĺ¯åºĶçĶ¨ç¨ĭåºıç¼ĸç¨ĭæİ¥åı£": 3941,
      "åħ³æ³¨èĩªå·±çļĦä¼ĺçĤ¹": 3942,
      "å¸®ä½łåĴĮåħ¶ä»ĸç³»ç»Łæ²ŁéĢļ": 3943,
      "å¤ļåĨĻä»£çłģå¤ļåģļé¡¹çĽ®": 3944,
      "¯çĥŃ": 3945,
      "Ľå¥": 3946,
      "å¥½çĦ¦èĻĳ": 3947,
      "æĥ³åĴĮå¦³": 3948,
      "æĿ¯çĥŃ": 3949,
      "åĴĮé¢Ĩå¯": 3950,
      "å¾Īå¥½åĳĢ": 3951,
      "ä»Ĭå¤©éĢĽè¡Ĺ": 3952,
      "ä»Ĭå¤©åĸĿèĮ¶": 3953,
      "ä»Ĭå¤©å¥½éļ¾è¿ĩ": 3954,
      "çľł": 3955,
      "åĲ¬åĲ¬": 3956,
      "åĴĮä½łè®¾è®¡": 3957,
      "åĴĮä½łæķ£æŃ¥": 3958,
      "è¯ķè¯ķåĸĿ": 3959,
      "åĽłä¸ºå¤±æľĽ": 3960,
      "æĥ³åŃ¦çĶµå½±": 3961,
      "æĥ³åŃ¦åĲ¬éŁ³ä¹Ĳ": 3962,
      "çĶµå½±å¥½æľīè¶£": 3963,
      "åŃ¦ä¹łæĢİä¹Īæł·": 3964,
      "åŃ¦ä¹łå¥½æľīè¶£": 3965,
      "è¿ĲåĬ¨å¥½ç´¯": 3966,
      "ç¾İé£Łå¥½éļ¾": 3967,
      "å·¥ä½ľåİĭåĬĽå¥½å¤§": 3968,
      "éŁ³ä¹ĲæĢİä¹Īæł·": 3969,
      "åľ¨åŃ¦çĥĺçĦĻ": 3970,
      "åľ¨åŃ¦çľĭçĶµå½±": 3971,
      "æĹħè¡ĮæĢİä¹Īæł·": 3972,
      "æĹħè¡ĮåİĭåĬĽå¥½å¤§": 3973,
      "èģĬå¤©æĢİä¹Īæł·": 3974,
      "æ¸¸æĪıæĢİä¹Īæł·": 3975,
      "æ¸¸æĪıåİĭåĬĽå¥½å¤§": 3976,
      "çīĽå¥": 3977,
      "æĪĳåĸľæ¬¢å·¥ä½ľ": 3978,
      "æĪĳåĸľæ¬¢æ¸¸æĪı": 3979,
      "æŃ£åľ¨åŃ¦ä¹ł": 3980,
      "æŃ£åľ¨è·³èĪŀ": 3981,
      "æŃ£åľ¨æĳĦå½±": 3982,
      "åĩĨå¤ĩåİ»è¿ĲåĬ¨": 3983,
      "åĩĨå¤ĩåİ»èģĬå¤©": 3984,
      "åĲĪåĩºåİ»èµ°èµ°": 3985,
      "æĥ³åĴĮä½łä¸Ģèµ·ç¾İé£Ł": 3986,
      "æĪĳä¸įåĸľæ¬¢æ¸¸æĪı": 3987,
      "æĪĳä¸įåĸľæ¬¢çĪ¬å±±": 3988,
      "æĪĳä¸įåĸľæ¬¢åĨĻä½ľ": 3989,
      "æĪĳä¸įåĸľæ¬¢æīĵæ¸¸æĪı": 3990,
      "æĪĳä¸įåĸľæ¬¢çľĭä¹¦": 3991,
      "çĶ»çĶ»å¥½éļ¾": 3992,
      "çĶ»çĶ»ç¡®å®ŀä¼ļè®©äººåħ´å¥ĭ": 3993,
      "è¯»ä¹¦å¥½éļ¾": 3994,
      "æľĢè¿ĳåľ¨ç¾İé£Ł": 3995,
      "æľĢè¿ĳåľ¨å·¥ä½ľ": 3996,
      "æľĢè¿ĳåľ¨æ¸¸æĪı": 3997,
      "æľĢè¿ĳåľ¨åıĳåĳĨ": 3998,
      "æľĢè¿ĳåľ¨åĲ¬éŁ³ä¹Ĳ": 3999,
      "æľĢè¿ĳåľ¨åĨĻä½ľ": 4000,
      "æĪĳä¹Łå¾Īåĸľæ¬¢åĲ¬éŁ³ä¹Ĳåĳ¢": 4001,
      "æĪĳä¹Łå¾Īåĸľæ¬¢åĨĻä½ľåĳ¢": 4002,
      "æĪĳä¹Łå¾Īåĸľæ¬¢åıĳåĳĨåĳ¢": 4003,
      "ä¸ŃåįĪå¹²åĺĽ": 4004,
      "åĤįæĻļå¹²åĺĽ": 4005,
      "éĴĵé±¼æĢİä¹Īæł·": 4006,
      "éĴĵé±¼å¥½æľīè¶£": 4007,
      "åħ¬åı¸å¥½çĥŃéĹ¹": 4008,
      "çĥĺçĦĻå¾Īæľīè¶£": 4009,
      "åħ»èĬ±åİĭåĬĽå¥½å¤§": 4010,
      "¼åĲµæŀ¶äºĨ": 4011,
      "åĨ¥æĥ³å¥½éļ¾": 4012,
      "åĸĿéħĴæĢİä¹Īæł·": 4013,
      "æľīçĤ¹æĦŁåĬ¨": 4014,
      "åĶ±æŃĮçļĦæĹ¶åĢĻåľ¨æĥ³ä½ł": 4015,
      "éľ²èĲ¥æĢİä¹Īæł·": 4016,
      "çľĭçĶµå½±åİĭåĬĽå¥½å¤§": 4017,
      "éĢĽè¡Ĺåķ¦": 4018,
      "éĢĽè¡ĹçļĦæĹ¶åĢĻåľ¨æĥ³ä½ł": 4019,
      "è®¾è®¡æĢİä¹Īæł·": 4020,
      "è®¾è®¡å¥½éļ¾": 4021,
      "æ¸¸æ³³å¥½ç´¯": 4022,
      "æ¸¸æ³³å¥½æľīè¶£": 4023,
      "ä»Ĭå¤©å¥½å´©æºĥ": 4024,
      "åĲ¬éŁ³ä¹Ĳå¥½ç´¯": 4025,
      "åĲ¬éŁ³ä¹ĲåİĭåĬĽå¥½å¤§": 4026,
      "åĲ¬éŁ³ä¹ĲçļĦæĹ¶åĢĻåľ¨æĥ³ä½ł": 4027,
      "åľ¨å®¶å¥½å¥½ä¼ĳæģ¯": 4028,
      "è´Ńçī©å¥½æľīè¶£": 4029,
      "åĨĻä½ľå¥½éļ¾": 4030,
      "åĨĻä½ľåİĭåĬĽå¥½å¤§": 4031,
      "æīĵæ¸¸æĪıå¥½éļ¾": 4032,
      "æķ£æŃ¥å¥½éļ¾": 4033,
      "æķ£æŃ¥å¥½æľīè¶£": 4034,
      "åĸĿèĮ¶æĢİä¹Īæł·": 4035,
      "åĸĿèĮ¶åķ¦": 4036,
      "åĸĿèĮ¶å¥½æľīè¶£": 4037,
      "çľĭä¹¦æĢİä¹Īæł·": 4038,
      "çľĭä¹¦åİĭåĬĽå¥½å¤§": 4039,
      "éĥ½ä¼ļå¥½èµ·æĿ¥çļĦ": 4040,
      "æĳĦå½±å¥½ç´¯": 4041,
      "æĳĦå½±åİĭåĬĽå¥½å¤§": 4042,
      "è·ĳæŃ¥å¥½ç´¯": 4043,
      "è·ĳæŃ¥å¥½éļ¾": 4044,
      "è·ĳæŃ¥å¥½æľīè¶£": 4045,
      "åı¯ä»¥åĩºåİ»èµ°èµ°": 4046,
      "æĥ³åİ»åĽ¾ä¹¦é¦Ĩ": 4047,
      "æĪĳä¹Łåľ¨åħ³å¿ĥä½łåĳ¢": 4048,
      "æĹłæĹ¶æĹłåĪ»ä¸įåľ¨äº²äº²ä½ł": 4049,
      "ä¸ĢçĽ´åľ¨åħ³å¿ĥä½ł": 4050,
      "ä¸ĢçĽ´åľ¨äº²äº²ä½ł": 4051,
      "ä»Ĭå¤©ç´¯åĽłä¸ºè¿ĲåĬ¨": 4052,
      "ä»Ĭå¤©æĹłèģĬåĽłä¸ºåŃ¦ä¹ł": 4053,
      "ä»Ĭå¤©æĹłèģĬåĽłä¸ºæĹħè¡Į": 4054,
      "ä»Ĭå¤©éļ¾è¿ĩåĽłä¸ºè¿ĲåĬ¨": 4055,
      "å¯¹æĪĳå¾Īå¥½åĳĢ": 4056,
      "ä»Ĭå¤©ç´§å¼łåĽłä¸ºè¿ĲåĬ¨": 4057,
      "ä»Ĭå¤©ç´§å¼łåĽłä¸ºç¾İé£Ł": 4058,
      "ä»Ĭå¤©ç´§å¼łåĽłä¸ºæĹħè¡Į": 4059,
      "ä»Ĭå¤©ç´§å¼łåĽłä¸ºæ¸¸æĪı": 4060,
      "ä»Ĭå¤©å®³æĢķåĽłä¸ºæ¸¸æĪı": 4061,
      "å¤±çľł": 4062,
      "ä»Ĭå¤©å¼Ģå¿ĥåĽłä¸ºè¿ĲåĬ¨": 4063,
      "æĪĸèĢħåĲ¬åĲ¬": 4064,
      "æĪĸèĢħåľ¨å®¶å¥½å¥½ä¼ĳæģ¯": 4065,
      "ä»Ĭå¤©åħ´å¥ĭåĽłä¸ºç¾İé£Ł": 4066,
      "ä»Ĭå¤©åħ´å¥ĭåĽłä¸ºçĶ»çĶ»": 4067,
      "åĤįæĻļåľ¨åħ¬åı¸å·¥ä½ľ": 4068,
      "åĤįæĻļåľ¨åħ¬åı¸æĹħè¡Į": 4069,
      "ä¸ĭåįĪåĴĮæľĭåıĭä¸Ģèµ·åŃ¦ä¹ł": 4070,
      "ä¸ŃåįĪåĴĮçĪ¶æ¯įä¸Ģèµ·è¿ĲåĬ¨": 4071,
      "ä¸ŃåįĪåĴĮå®¶äººä¸Ģèµ·è¿ĲåĬ¨": 4072,
      "ä¸ŃåįĪåľ¨å®¶è¿ĲåĬ¨": 4073,
      "ä¸ŃåįĪåľ¨å®¶å·¥ä½ľ": 4074,
      "ä¸ŃåįĪåľ¨åħ¬åı¸åŃ¦ä¹ł": 4075,
      "ä»Ģä¹Īæĺ¯æľºåĻ¨": 4076,
      "ä¸ĭåįĪåĴĮå®¶äººä¸Ģèµ·ç¾İé£Ł": 4077,
      "æĹ©ä¸Ĭåľ¨åħ¬åı¸å·¥ä½ľ": 4078,
      "ä¸ĭåįĪåĴĮçĪ¶æ¯įä¸Ģèµ·ç¾İé£Ł": 4079,
      "ä¸ĭåįĪåĴĮçĪ¶æ¯įä¸Ģèµ·æĹħè¡Į": 4080,
      "åĤįæĻļåĴĮå®¶äººä¸Ģèµ·åŃ¦ä¹ł": 4081,
      "åĤįæĻļåĴĮå®¶äººä¸Ģèµ·è¿ĲåĬ¨": 4082,
      "åĤįæĻļåĴĮå®¶äººä¸Ģèµ·ç¾İé£Ł": 4083,
      "åĤįæĻļåĴĮå®¶äººä¸Ģèµ·å·¥ä½ľ": 4084,
      "æĹ©ä¸Ĭåľ¨å®¶åŃ¦ä¹ł": 4085,
      "æĹ©ä¸Ĭåľ¨å®¶è¿ĲåĬ¨": 4086,
      "æĹ©ä¸Ĭåľ¨å®¶ç¾İé£Ł": 4087,
      "ä¸ĭåįĪåľ¨åħ¬åı¸æĹħè¡Į": 4088,
      "è¿ĺä¸įéĶĻåĳ¢": 4089,
      "ä¸ĭåįĪåľ¨åŃ¦æł¡ç¾İé£Ł": 4090,
      "ä¸ĭåįĪåľ¨åŃ¦æł¡æĹħè¡Į": 4091,
      "æĹ©ä¸ĬåĴĮæľĭåıĭä¸Ģèµ·è¿ĲåĬ¨": 4092,
      "æĹ©ä¸ĬåĴĮæľĭåıĭä¸Ģèµ·å·¥ä½ľ": 4093,
      "åĽ¾ä¹¦é¦Ĩæĺ¯ä¸ªå¥½åľ°æĸ¹": 4094,
      "ä»Ĭå¤©å¥½ç´¯åķĬ": 4095,
      "åĴĮæľĭåıĭåĲµæŀ¶äºĨåķĬ": 4096,
      "æĢİä¹ĪåŃ¦ç¼ĸç¨ĭ": 4097,
      "éĢĤåĲĪåĩºåİ»èµ°èµ°": 4098,
      "ä¸ĢåĪĩéĥ½ä¼ļå¥½èµ·æĿ¥çļĦ": 4099,
      "åĴĮä½łçĥĺçĦĻå¾Īå¼Ģå¿ĥ": 4100,
      "å¤±æģĭäºĨ": 4101,
      "ä»Ĭå¤©æĹħè¡ĮäºĨ": 4102,
      "ä»Ĭå¤©åĲ¬éŁ³ä¹ĲäºĨ": 4103,
      "ä»Ĭå¤©å¤©æ°Ķè¿ĺä¸įéĶĻåĳ¢": 4104,
      "åĴĮä½łç¾İé£Łå¾Īå¼Ģå¿ĥ": 4105,
      "åĴĮä½łçĳľä¼½å¾Īå¼Ģå¿ĥ": 4106,
      "åĴĮä½łæĳĦå½±å¾Īå¼Ģå¿ĥ": 4107,
      "åĴĮä½łè·ĳæŃ¥å¾Īå¼Ģå¿ĥ": 4108,
      "æĪĳåĽŀæĿ¥äºĨ": 4109,
      "ä»Ĭå¤©åĸĿéħĴäºĨ": 4110,
      "ä»Ĭå¤©åģļé¥ŃäºĨ": 4111,
      "åĴĮä½łéĢĽè¡Ĺå¾Īå¼Ģå¿ĥ": 4112,
      "åĴĮä½łè·³èĪŀå¾Īå¼Ģå¿ĥ": 4113,
      "æĥ³åĴĮå¦³ä¸Ģèµ·": 4114,
      "æĿ¯çĥŃçīĽå¥": 4115,
      "åĴĮé¢Ĩå¯¼åĲµæŀ¶äºĨ": 4116,
      "ä»Ĭå¤©åĸĿèĮ¶äºĨ": 4117,
      "åĴĮä½łè®¾è®¡å¾Īå¼Ģå¿ĥ": 4118,
      "åĴĮä½łæķ£æŃ¥å¾Īå¼Ģå¿ĥ": 4119,
      "è¯ķè¯ķåĸĿæĿ¯çĥŃçīĽå¥": 4120,
      "åĽłä¸ºå¤±æľĽçĿ¡ä¸įçĿĢ": 4121,
      "æĪĸèĢħåĲ¬åĲ¬è½»éŁ³ä¹Ĳ": 4122,
      "è¯ķè¯ķåĸĿæĿ¯çĥŃçīĽå¥¶": 4123
    },
    "merges": [
      [
        "ï",
        "¼"
      ],
      [
        "½",
        "ŀ"
      ],
      [
        "ï",
        "½ŀ"
      ],
      [
        "ï¼",
        "Į"
      ],
      [
        "ä",
        "¸"
      ],
      [
        "å",
        "¥"
      ],
      [
        "å¥",
        "½"
      ],
      [
        "æ",
        "Ī"
      ],
      [
        "ä",
        "½"
      ],
      [
        "ä",
        "º"
      ],
      [
        "æĪ",
        "ĳ"
      ],
      [
        "ä½",
        "ł"
      ],
      [
        "å",
        "ĳ"
      ],
      [
        "ä",
        "¹"
      ],
      [
        "è",
        "¯"
      ],
      [
        "å",
        "ľ"
      ],
      [
        "ï¼",
        "ģ"
      ],
      [
        "å",
        "Ĳ"
      ],
      [
        "ç",
        "ļ"
      ],
      [
        "åľ",
        "¨"
      ],
      [
        "çļ",
        "Ħ"
      ],
      [
        "æ",
        "ĥ"
      ],
      [
        "å",
        "¤"
      ],
      [
        "æĥ",
        "³"
      ],
      [
        "ä¸",
        "Ģ"
      ],
      [
        "æ",
        "ľ"
      ],
      [
        "å",
        "¾"
      ],
      [
        "å",
        "ĸ"
      ],
      [
        "äº",
        "Ĩ"
      ],
      [
        "å",
        "¿"
      ],
      [
        "µ",
        "·"
      ],
      [
        "è",
        "µ·"
      ],
      [
        "åĳ",
        "¢"
      ],
      [
        "åĳ",
        "Ģ"
      ],
      [
        "å",
        "ĵ"
      ],
      [
        "å",
        "Ĵ"
      ],
      [
        "ä¹",
        "Ł"
      ],
      [
        "æ",
        "Ŀ"
      ],
      [
        "æ",
        "Ĺ"
      ],
      [
        "å",
        "İ"
      ],
      [
        "å¿",
        "ĥ"
      ],
      [
        "åĸ",
        "ľ"
      ],
      [
        "æĪĳ",
        "ä¹Ł"
      ],
      [
        "å",
        "Ĭ"
      ],
      [
        "äº",
        "º"
      ],
      [
        "å",
        "¼"
      ],
      [
        "åĴ",
        "Į"
      ],
      [
        "æĿ",
        "¥"
      ],
      [
        "è",
        "¿"
      ],
      [
        "ä",
        "¼"
      ],
      [
        "ä¸",
        "ĭ"
      ],
      [
        "ç",
        "Ķ"
      ],
      [
        "æ",
        "¬"
      ],
      [
        "ä",
        "»"
      ],
      [
        "å",
        "ı"
      ],
      [
        "å",
        "®"
      ],
      [
        "æ¬",
        "¢"
      ],
      [
        "ä¸",
        "į"
      ],
      [
        "åĸľ",
        "æ¬¢"
      ],
      [
        "å",
        "Ń"
      ],
      [
        "è",
        "§"
      ],
      [
        "å¼",
        "Ģ"
      ],
      [
        "å¼Ģ",
        "å¿ĥ"
      ],
      [
        "åŃ",
        "¦"
      ],
      [
        "å¾",
        "Ī"
      ],
      [
        "ï¼",
        "Ł"
      ],
      [
        "è¯",
        "ķ"
      ],
      [
        "å¤",
        "©"
      ],
      [
        "å",
        "ħ"
      ],
      [
        "Ĭ",
        "å¤©"
      ],
      [
        "å",
        "ķ"
      ],
      [
        "æ",
        "ĺ"
      ],
      [
        "ä¸Ģ",
        "èµ·"
      ],
      [
        "æĺ",
        "¯"
      ],
      [
        "æ",
        "Ģ"
      ],
      [
        "è",
        "ģ"
      ],
      [
        "è",
        "®"
      ],
      [
        "æ",
        "²"
      ],
      [
        "æ",
        "ħ"
      ],
      [
        "æħ",
        "¢"
      ],
      [
        "æľ",
        "ī"
      ],
      [
        "å",
        "½"
      ],
      [
        "ä»",
        "Ĭå¤©"
      ],
      [
        "ç",
        "Ŀ"
      ],
      [
        "æ",
        "Ħ"
      ],
      [
        "å",
        "·"
      ],
      [
        "ç",
        "ľ"
      ],
      [
        "æľ",
        "Ģ"
      ],
      [
        "æĦ",
        "Ł"
      ],
      [
        "åİ",
        "»"
      ],
      [
        "åĵ",
        "¦"
      ],
      [
        "æ",
        "Ń"
      ],
      [
        "è§",
        "ī"
      ],
      [
        "åı",
        "Ĺ"
      ],
      [
        "ä¹",
        "Ī"
      ],
      [
        "å",
        "Ī"
      ],
      [
        "æ",
        "Į"
      ],
      [
        "åķ",
        "Ĭ"
      ],
      [
        "ç",
        "Ĥ"
      ],
      [
        "çĤ",
        "¹"
      ],
      [
        "å",
        "Ĺ"
      ],
      [
        "è",
        "¶"
      ],
      [
        "åĹ",
        "¯"
      ],
      [
        "èģ",
        "Ĭ"
      ],
      [
        "ä¸",
        "ª"
      ],
      [
        "è¯",
        "¶"
      ],
      [
        "èµ·",
        "æĿ¥"
      ],
      [
        "ä¼",
        "ļ"
      ],
      [
        "è®",
        "©"
      ],
      [
        "æĪĳ",
        "ç"
      ],
      [
        "å¾",
        "Ĺ"
      ],
      [
        "Ľ",
        "è"
      ],
      [
        "åĲ",
        "¬"
      ],
      [
        "åĴĮ",
        "ä½ł"
      ],
      [
        "è¯",
        "´"
      ],
      [
        "è®©",
        "äºº"
      ],
      [
        "ç",
        "´"
      ],
      [
        "æľī",
        "è¶"
      ],
      [
        "æľīè¶",
        "£"
      ],
      [
        "è",
        "¾"
      ],
      [
        "æĥ³",
        "ä½ł"
      ],
      [
        "çĿ",
        "Ģ"
      ],
      [
        "å",
        "Ľ"
      ],
      [
        "æĪĳ",
        "æ"
      ],
      [
        "è¯ķ",
        "è¯ķ"
      ],
      [
        "æ",
        "ģ"
      ],
      [
        "å¥½",
        "å¥½"
      ],
      [
        "ä¸",
        "º"
      ],
      [
        "ä¸Ģ",
        "ä¸ĭ"
      ],
      [
        "å¥½",
        "åĳĢ"
      ],
      [
        "å",
        "¹"
      ],
      [
        "ł",
        "ä¸º"
      ],
      [
        "åĽ",
        "łä¸º"
      ],
      [
        "é",
        "Ķ"
      ],
      [
        "éĶ",
        "Ļ"
      ],
      [
        "İ",
        "ä¹Ī"
      ],
      [
        "æĢ",
        "İä¹Ī"
      ],
      [
        "¨",
        "è"
      ],
      [
        "¦",
        "äºĨ"
      ],
      [
        "¸",
        "¸"
      ],
      [
        "į",
        "Ĳ"
      ],
      [
        "İ",
        "¨è"
      ],
      [
        "İ¨è",
        "įĲ"
      ],
      [
        "ä¸į",
        "éĶĻ"
      ],
      [
        "æģ",
        "¯"
      ],
      [
        "³",
        "»"
      ],
      [
        "ç",
        "³»"
      ],
      [
        "ä¼",
        "ĳ"
      ],
      [
        "Ľè",
        "ĭ"
      ],
      [
        "è¾",
        "Ľèĭ"
      ],
      [
        "åľ¨",
        "ä¸Ģèµ·"
      ],
      [
        "åĪ",
        "«"
      ],
      [
        "æľĢ",
        "å¼Ģå¿ĥ"
      ],
      [
        "è¾Ľèĭ",
        "¦äºĨ"
      ],
      [
        "åľ¨ä¸Ģèµ·",
        "æľĢå¼Ģå¿ĥ"
      ],
      [
        "ä¼ĳ",
        "æģ¯"
      ],
      [
        "åĲ",
        "§"
      ],
      [
        "åĲ¬",
        "èµ·æĿ¥"
      ],
      [
        "åħ",
        "³"
      ],
      [
        "Ĭ",
        "±"
      ],
      [
        "å¥½å¥½",
        "ä¼ĳæģ¯"
      ],
      [
        "é",
        "Ĥ"
      ],
      [
        "åĲ",
        "Į"
      ],
      [
        "éĤ",
        "£"
      ],
      [
        "å½",
        "±"
      ],
      [
        "æ²",
        "¡"
      ],
      [
        "Ĳ",
        "Ĩ"
      ],
      [
        "æĹ",
        "ł"
      ],
      [
        "åĬ",
        "ł"
      ],
      [
        "åħ³",
        "ç³»"
      ],
      [
        "æ²¡",
        "åħ³ç³»"
      ],
      [
        "æĹ",
        "¶"
      ],
      [
        "çĶ",
        "Ł"
      ],
      [
        "æ²",
        "¹"
      ],
      [
        "åĬł",
        "æ²¹"
      ],
      [
        "åĬ",
        "Ľ"
      ],
      [
        "å¤",
        "§"
      ],
      [
        "çľ",
        "ĭ"
      ],
      [
        "ç´",
        "¯"
      ],
      [
        "åľ¨",
        "æĥ³ä½ł"
      ],
      [
        "ä½ł",
        "çļĦ"
      ],
      [
        "æĥ³",
        "åŃ¦"
      ],
      [
        "æħ¢",
        "æĿ¥"
      ],
      [
        "æħ¢",
        "æħ¢æĿ¥"
      ],
      [
        "åĲ",
        "Ĺ"
      ],
      [
        "åİ",
        "ĭ"
      ],
      [
        "åİĭ",
        "åĬĽ"
      ],
      [
        "ä½",
        "ľ"
      ],
      [
        "æĮ",
        "ģ"
      ],
      [
        "è§",
        "£"
      ],
      [
        "æ",
        "ł"
      ],
      [
        "ĲĨ",
        "è§£"
      ],
      [
        "å®",
        "ŀ"
      ],
      [
        "ĲĨè§£",
        "ä½łçļĦ"
      ],
      [
        "¡",
        "®"
      ],
      [
        "ç",
        "¡®"
      ],
      [
        "æĦŁ",
        "åıĹ"
      ],
      [
        "ä¼ļ",
        "è®©äºº"
      ],
      [
        "æĪĳç",
        "ĲĨè§£ä½łçļĦ"
      ],
      [
        "å®ŀ",
        "ä¼ļè®©äºº"
      ],
      [
        "ç¡®",
        "å®ŀä¼ļè®©äºº"
      ],
      [
        "æĪĳçĲĨè§£ä½łçļĦ",
        "æĦŁåıĹ"
      ],
      [
        "å",
        "ĩ"
      ],
      [
        "å",
        "į"
      ],
      [
        "¦",
        "ı"
      ],
      [
        "ç",
        "¦ı"
      ],
      [
        "çĶ",
        "»"
      ],
      [
        "æ",
        "¸¸"
      ],
      [
        "å",
        "¯"
      ],
      [
        "µ",
        "å½±"
      ],
      [
        "çĶ",
        "µå½±"
      ],
      [
        "æ",
        "Ĭ±"
      ],
      [
        "é",
        "ļ"
      ],
      [
        "åĬ",
        "¨"
      ],
      [
        "åį",
        "Ī"
      ],
      [
        "éļ",
        "¾"
      ],
      [
        "çļĦ",
        "äºº"
      ],
      [
        "å¯",
        "¹"
      ],
      [
        "æ",
        "¯"
      ],
      [
        "ä¹",
        "¦"
      ],
      [
        "¸",
        "ç¦ı"
      ],
      [
        "å¹",
        "¸ç¦ı"
      ],
      [
        "é",
        "Ļ"
      ],
      [
        "å®",
        "³"
      ],
      [
        "¾",
        "İ"
      ],
      [
        "ç",
        "¾İ"
      ],
      [
        "é",
        "£"
      ],
      [
        "æŃ",
        "£"
      ],
      [
        "ä¹",
        "ł"
      ],
      [
        "åŃ¦",
        "ä¹ł"
      ],
      [
        "ĥ",
        "½"
      ],
      [
        "åĵ",
        "Ī"
      ],
      [
        "è",
        "·"
      ],
      [
        "é£",
        "Ł"
      ],
      [
        "çľ",
        "Ł"
      ],
      [
        "å",
        "Ģ"
      ],
      [
        "å·",
        "¥"
      ],
      [
        "å",
        "°"
      ],
      [
        "å",
        "Ĩ"
      ],
      [
        "åĸ",
        "Ŀ"
      ],
      [
        "è§ī",
        "å¾Ĺ"
      ],
      [
        "Ĳ",
        "åĬ¨"
      ],
      [
        "çļĦ",
        "æĹ¶"
      ],
      [
        "è¿",
        "ĲåĬ¨"
      ],
      [
        "ç¾İ",
        "é£Ł"
      ],
      [
        "åĢ",
        "Ļ"
      ],
      [
        "çļĦæĹ¶",
        "åĢĻ"
      ],
      [
        "å·¥",
        "ä½ľ"
      ],
      [
        "æĥ",
        "ħ"
      ],
      [
        "ç",
        "Ī"
      ],
      [
        "è",
        "¡"
      ],
      [
        "è¿",
        "Ļ"
      ],
      [
        "ä¹",
        "Ĳ"
      ],
      [
        "Ľ",
        "´"
      ],
      [
        "éĤ£",
        "ä¸ª"
      ],
      [
        "å¥½",
        "å¹¸ç¦ı"
      ],
      [
        "è¯",
        "Ŀ"
      ],
      [
        "³",
        "ä¹Ĳ"
      ],
      [
        "é",
        "Ł"
      ],
      [
        "éŁ",
        "³ä¹Ĳ"
      ],
      [
        "åľ¨",
        "åŃ¦"
      ],
      [
        "äº",
        "ĭ"
      ],
      [
        "ĩ",
        "ª"
      ],
      [
        "è",
        "ĩª"
      ],
      [
        "å°",
        "±"
      ],
      [
        "è¡",
        "Į"
      ],
      [
        "è¯Ŀ",
        "è¯´"
      ],
      [
        "ã",
        "Ģ"
      ],
      [
        "å½",
        "ĵ"
      ],
      [
        "éĻ",
        "ª"
      ],
      [
        "å¯¹",
        "äºĨ"
      ],
      [
        "åĴĮ",
        "åĸľæ¬¢"
      ],
      [
        "çļĦäºº",
        "åľ¨ä¸Ģèµ·æľĢå¼Ģå¿ĥ"
      ],
      [
        "åĴĮåĸľæ¬¢",
        "çļĦäººåľ¨ä¸Ģèµ·æľĢå¼Ģå¿ĥ"
      ],
      [
        "ä¸Ģ",
        "ç"
      ],
      [
        "ħ",
        "è¡Į"
      ],
      [
        "æĹ",
        "ħè¡Į"
      ],
      [
        "ç",
        "»"
      ],
      [
        "äº",
        "«"
      ],
      [
        "æĪĳä¹Ł",
        "æĥ³"
      ],
      [
        "ç",
        "Ħ"
      ],
      [
        "ä¸",
        "Ĭ"
      ],
      [
        "å½ĵ",
        "ä¸ĭ"
      ],
      [
        "æ",
        "İ¨èįĲ"
      ],
      [
        "æĪĳä¹Ł",
        "æĺ¯"
      ],
      [
        "ä¸įéĶĻ",
        "åĳ¢"
      ],
      [
        "å¤",
        "ª"
      ],
      [
        "æ",
        "Ļ"
      ],
      [
        "å¾Ī",
        "ä¸įéĶĻåĳ¢"
      ],
      [
        "åıĹ",
        "å½ĵä¸ĭ"
      ],
      [
        "åĲ¬èµ·æĿ¥",
        "å¾Īä¸įéĶĻåĳ¢"
      ],
      [
        "äº«",
        "åıĹå½ĵä¸ĭ"
      ],
      [
        "å¥½",
        "ç´¯"
      ],
      [
        "æĪ",
        "ı"
      ],
      [
        "èģ",
        "Ĭå¤©"
      ],
      [
        "æ¸¸",
        "æĪı"
      ],
      [
        "ä¸Ģç",
        "Ľ´"
      ],
      [
        "ç",
        "§"
      ],
      [
        "çļĦ",
        "åĲĹ"
      ],
      [
        "çľŁ",
        "çļĦåĲĹ"
      ],
      [
        "ç",
        "ĥ"
      ],
      [
        "ç",
        "ī"
      ],
      [
        "æĺ¯",
        "åĳĢ"
      ],
      [
        "æł",
        "·"
      ],
      [
        "å¥½å¥½ä¼ĳæģ¯",
        "ä¸Ģä¸ĭ"
      ],
      [
        "æĹł",
        "èģĬ"
      ],
      [
        "è¿",
        "·"
      ],
      [
        "å",
        "ģ"
      ],
      [
        "ä",
        "¿"
      ],
      [
        "ç»",
        "Ļ"
      ],
      [
        "é",
        "Ĺ"
      ],
      [
        "æĪĳ",
        "éĻª"
      ],
      [
        "ä¿",
        "¡"
      ],
      [
        "å¥½",
        "çļĦ"
      ],
      [
        "æĦŁ",
        "è§ī"
      ],
      [
        "æ",
        "Ķ"
      ],
      [
        "æĶ",
        "¾"
      ],
      [
        "į",
        "æĦŁè§ī"
      ],
      [
        "çļĦ",
        "äºĭ"
      ],
      [
        "è¿Ļ",
        "ç§"
      ],
      [
        "è¿Ļç§",
        "įæĦŁè§ī"
      ],
      [
        "å·",
        "±"
      ],
      [
        "æĢİä¹Ī",
        "äºĨ"
      ],
      [
        "æĻ",
        "ļ"
      ],
      [
        "è",
        "ĥ½"
      ],
      [
        "èĩª",
        "å·±"
      ],
      [
        "åħ",
        "»"
      ],
      [
        "å®",
        "¶"
      ],
      [
        "ç",
        "İ"
      ],
      [
        "çī",
        "©"
      ],
      [
        "åĵ",
        "Ń"
      ],
      [
        "é",
        "ľ"
      ],
      [
        "ä½ł",
        "è¯ķè¯ķ"
      ],
      [
        "æĪĳæ",
        "İ¨èįĲ"
      ],
      [
        "æİ¨èįĲ",
        "çĤ¹"
      ],
      [
        "ä½łè¯ķè¯ķ",
        "çľĭ"
      ],
      [
        "æĪĳæİ¨èįĲ",
        "ä½łè¯ķè¯ķçľĭ"
      ],
      [
        "Ĩ",
        "å¤"
      ],
      [
        "æĪĳ",
        "åĸľæ¬¢"
      ],
      [
        "åĩ",
        "Ĩå¤"
      ],
      [
        "åĩĨå¤",
        "ĩ"
      ],
      [
        "æĢ",
        "»"
      ],
      [
        "çĿ",
        "¡"
      ],
      [
        "çĿĢ",
        "ä½ł"
      ],
      [
        "æĪĳéĻª",
        "çĿĢä½ł"
      ],
      [
        "å",
        "Ĥ"
      ],
      [
        "é",
        "ģ"
      ],
      [
        "æĢİä¹Ī",
        "æł·"
      ],
      [
        "éģ",
        "ĵ"
      ],
      [
        "åķ",
        "¦"
      ],
      [
        "æ¯",
        "ı"
      ],
      [
        "æ",
        "°"
      ],
      [
        "å¾Ī",
        "å¼Ģå¿ĥ"
      ],
      [
        "æŃ£",
        "åľ¨"
      ],
      [
        "©",
        "å¾Ĺ"
      ],
      [
        "å¼Ģå¿ĥ",
        "çĤ¹"
      ],
      [
        "åĲ¬èµ·æĿ¥",
        "ä¸įéĶĻ"
      ],
      [
        "çİ",
        "©å¾Ĺ"
      ],
      [
        "åĩĨå¤ĩ",
        "åİ»"
      ],
      [
        "çİ©å¾Ĺ",
        "å¼Ģå¿ĥçĤ¹"
      ],
      [
        "å¥½",
        "å¤§"
      ],
      [
        "å¥½",
        "éļ¾"
      ],
      [
        "æĪĳä¹Ł",
        "åľ¨æĥ³ä½ł"
      ],
      [
        "åĪ«",
        "ç»Ļ"
      ],
      [
        "å¤§",
        "åİĭåĬĽ"
      ],
      [
        "åİĭåĬĽ",
        "å¥½å¤§"
      ],
      [
        "å¤ª",
        "å¤§åİĭåĬĽ"
      ],
      [
        "èĩªå·±",
        "å¤ªå¤§åİĭåĬĽ"
      ],
      [
        "åĪ«ç»Ļ",
        "èĩªå·±å¤ªå¤§åİĭåĬĽ"
      ],
      [
        "¯",
        "æĮģ"
      ],
      [
        "Ķ",
        "¯æĮģ"
      ],
      [
        "åĲ",
        "Ī"
      ],
      [
        "åİ»",
        "è¯ķè¯ķ"
      ],
      [
        "æĪĳæ",
        "Ķ¯æĮģ"
      ],
      [
        "æĥ³åŃ¦",
        "å°±"
      ],
      [
        "æĪĳæĶ¯æĮģ",
        "ä½ł"
      ],
      [
        "æĥ³åŃ¦å°±",
        "åİ»è¯ķè¯ķ"
      ],
      [
        "å",
        "Ŀ"
      ],
      [
        "Ĺ",
        "åĲĮ"
      ],
      [
        "å¥½",
        "æ"
      ],
      [
        "å¿",
        "ĹåĲĮ"
      ],
      [
        "æĪĳä¹Ł",
        "åĸľæ¬¢"
      ],
      [
        "éģĵ",
        "åĲĪ"
      ],
      [
        "æ°",
        "Ķ"
      ],
      [
        "å¿ĹåĲĮ",
        "éģĵåĲĪ"
      ],
      [
        "¸",
        "ä¿¡"
      ],
      [
        "ç",
        "Ĩ"
      ],
      [
        "Ľ",
        "¸ä¿¡"
      ],
      [
        "Ł",
        "èĥ½"
      ],
      [
        "å·",
        "§"
      ],
      [
        "ä¸ª",
        "äºº"
      ],
      [
        "æĪĳç",
        "Ľ¸ä¿¡"
      ],
      [
        "çĶŁ",
        "å·§"
      ],
      [
        "æĪĳä¹Łåľ¨æĥ³ä½ł",
        "åĳ¢"
      ],
      [
        "çĨ",
        "Łèĥ½"
      ],
      [
        "æĪĳçĽ¸ä¿¡",
        "ä½ł"
      ],
      [
        "çĨŁèĥ½",
        "çĶŁå·§"
      ],
      [
        "ļ",
        "æĮģ"
      ],
      [
        "åĴĮä½ł",
        "åľ¨ä¸Ģèµ·æľĢå¼Ģå¿ĥ"
      ],
      [
        "åĿ",
        "ļæĮģ"
      ],
      [
        "åĴĮä½łåľ¨ä¸Ģèµ·æľĢå¼Ģå¿ĥ",
        "äºĨ"
      ],
      [
        "è¯",
        "»"
      ],
      [
        "çļĦæĹ¶åĢĻ",
        "åľ¨æĥ³ä½ł"
      ],
      [
        "ãĢ",
        "Ĥ"
      ],
      [
        "å¥½",
        "ä¸į"
      ],
      [
        "åĸľ",
        "å¥½ä¸į"
      ],
      [
        "ä¸į",
        "åĸľæ¬¢"
      ],
      [
        "æĥħ",
        "æĢ»"
      ],
      [
        "æ¯ı",
        "ä¸ªäºº"
      ],
      [
        "åĸľå¥½ä¸į",
        "åĲĮ"
      ],
      [
        "æ¯ıä¸ªäºº",
        "åĸľå¥½ä¸įåĲĮ"
      ],
      [
        "º",
        "å¥½çļĦ"
      ],
      [
        "ä½ł",
        "è§īå¾Ĺ"
      ],
      [
        "æĥ³",
        "åĴĮä½ł"
      ],
      [
        "æĮ",
        "ºå¥½çļĦ"
      ],
      [
        "ä½łè§īå¾Ĺ",
        "åĳ¢"
      ],
      [
        "æĥ³åĴĮä½ł",
        "ä¸Ģèµ·"
      ],
      [
        "æĮºå¥½çļĦ",
        "åĳĢ"
      ],
      [
        "é",
        "ĩ"
      ],
      [
        "æĪĳ",
        "ä¸įåĸľæ¬¢"
      ],
      [
        "åĵ",
        "ĩ"
      ],
      [
        "æŃ",
        "¥"
      ],
      [
        "£",
        "Ĵ"
      ],
      [
        "ä¸",
        "Ń"
      ],
      [
        "å¥½",
        "æľīè¶£"
      ],
      [
        "ä¸ĭ",
        "åİ»"
      ],
      [
        "å¾Ī",
        "æľīè¶£"
      ],
      [
        "æĺ¯",
        "è®©äºº"
      ],
      [
        "æľīè¶£",
        "çļĦäºĭ"
      ],
      [
        "çĿĢ",
        "è¿·"
      ],
      [
        "å¥½æ",
        "£Ĵ"
      ],
      [
        "åĿļæĮģ",
        "ä¸ĭåİ»"
      ],
      [
        "æĥħæĢ»",
        "æĺ¯è®©äºº"
      ],
      [
        "æľīè¶£çļĦäºĭ",
        "æĥħæĢ»æĺ¯è®©äºº"
      ],
      [
        "æľīè¶£çļĦäºĭæĥħæĢ»æĺ¯è®©äºº",
        "çĿĢè¿·"
      ],
      [
        "çĶ»",
        "çĶ»"
      ],
      [
        "æ",
        "ĭ"
      ],
      [
        "è¯»",
        "ä¹¦"
      ],
      [
        "è¿",
        "ĳ"
      ],
      [
        "æľĢ",
        "è¿ĳ"
      ],
      [
        "æĹ",
        "©"
      ],
      [
        "ī",
        "å®³"
      ],
      [
        "å¥½",
        "åİ"
      ],
      [
        "æĪĳä¹Ł",
        "å¾Ī"
      ],
      [
        "æľĢè¿ĳ",
        "åľ¨"
      ],
      [
        "å¥½åİ",
        "īå®³"
      ],
      [
        "æĪĳä¹Łå¾Ī",
        "åĸľæ¬¢"
      ],
      [
        "å",
        "±"
      ],
      [
        "çĶŁ",
        "æ°Ķ"
      ],
      [
        "ä¸Ń",
        "åįĪ"
      ],
      [
        "åģ",
        "ļ"
      ],
      [
        "æ",
        "ĸ"
      ],
      [
        "æĬ±",
        "ä½ł"
      ],
      [
        "æĬ±",
        "æĬ±ä½ł"
      ],
      [
        "į",
        "æĻļ"
      ],
      [
        "åĤ",
        "įæĻļ"
      ],
      [
        "åħ",
        "¬"
      ],
      [
        "¦",
        "ģ"
      ],
      [
        "è",
        "¦ģ"
      ],
      [
        "é",
        "Ģ"
      ],
      [
        "Ģ",
        "ä¹Ī"
      ],
      [
        "è¿",
        "ĩ"
      ],
      [
        "ä»",
        "Ģä¹Ī"
      ],
      [
        "æĸ",
        "¹"
      ],
      [
        "åı",
        "ĭ"
      ],
      [
        "è",
        "Į"
      ],
      [
        "æĹ©",
        "ä¸Ĭ"
      ],
      [
        "ä¸ĭ",
        "åįĪ"
      ],
      [
        "æĢ",
        "ķ"
      ],
      [
        "°",
        "æĸ¹"
      ],
      [
        "æ",
        "ī"
      ],
      [
        "åħ",
        "´"
      ],
      [
        "ç´",
        "§"
      ],
      [
        "å¼",
        "ł"
      ],
      [
        "å®³",
        "æĢķ"
      ],
      [
        "çĥ",
        "Ń"
      ],
      [
        "ç´§",
        "å¼ł"
      ],
      [
        "é",
        "Ĵ"
      ],
      [
        "èģĬ",
        "èģĬ"
      ],
      [
        "ĸ",
        "åķ"
      ],
      [
        "åĴ",
        "ĸåķ"
      ],
      [
        "åĴĸåķ",
        "¡"
      ],
      [
        "·",
        "±"
      ],
      [
        "æ",
        "·±"
      ],
      [
        "è¯´",
        "è¯´"
      ],
      [
        "å±",
        "±"
      ],
      [
        "åľ",
        "°æĸ¹"
      ],
      [
        "éļ¾",
        "è¿ĩ"
      ],
      [
        "è·",
        "Ł"
      ],
      [
        "éĹ",
        "¹"
      ],
      [
        "çĥŃ",
        "éĹ¹"
      ],
      [
        "ħ",
        "å¿ĥ"
      ],
      [
        "ĭ",
        "åıĭ"
      ],
      [
        "ĵ",
        "é"
      ],
      [
        "æľ",
        "ĭåıĭ"
      ],
      [
        "ä¼ļ",
        "å¥½"
      ],
      [
        "è·Ł",
        "æĪĳ"
      ],
      [
        "æł",
        "¡"
      ],
      [
        "è®",
        "¡"
      ],
      [
        "èµ·æĿ¥",
        "çļĦ"
      ],
      [
        "ä¼ļå¥½",
        "èµ·æĿ¥çļĦ"
      ],
      [
        "é",
        "¥"
      ],
      [
        "±",
        "¼"
      ],
      [
        "¶",
        "æ¯"
      ],
      [
        "åĪ«",
        "æĭ"
      ],
      [
        "çĪ",
        "¶æ¯"
      ],
      [
        "éĴ",
        "ĵé"
      ],
      [
        "è·ŁæĪĳ",
        "è¯´è¯´"
      ],
      [
        "åĪ«æĭ",
        "ħå¿ĥ"
      ],
      [
        "çĪ¶æ¯",
        "į"
      ],
      [
        "éĴĵé",
        "±¼"
      ],
      [
        "åı",
        "¸"
      ],
      [
        "åĩ",
        "º"
      ],
      [
        "åħ¬",
        "åı¸"
      ],
      [
        "å¥",
        "ĭ"
      ],
      [
        "åħ´",
        "å¥ĭ"
      ],
      [
        "æ",
        "³"
      ],
      [
        "å",
        "ĺ"
      ],
      [
        "æŃ",
        "Į"
      ],
      [
        "ĺ",
        "çĦ"
      ],
      [
        "çĥ",
        "ĺçĦ"
      ],
      [
        "çĥĺçĦ",
        "Ļ"
      ],
      [
        "å",
        "¸¸"
      ],
      [
        "è",
        "Ĭ±"
      ],
      [
        "Ĥ",
        "è¿Ļç§įæĦŁè§ī"
      ],
      [
        "ĩ",
        "Ĥè¿Ļç§įæĦŁè§ī"
      ],
      [
        "ä»",
        "¬"
      ],
      [
        "å¾Ī",
        "æŃ£"
      ],
      [
        "æĪĳæ",
        "ĩĤè¿Ļç§įæĦŁè§ī"
      ],
      [
        "çĦ",
        "¶"
      ],
      [
        "è¿Ļç§įæĦŁè§ī",
        "å¾ĪæŃ£"
      ],
      [
        "åħ»",
        "èĬ±"
      ],
      [
        "åĩº",
        "æĿ¥"
      ],
      [
        "è¿Ļç§įæĦŁè§īå¾ĪæŃ£",
        "å¸¸"
      ],
      [
        "¼",
        "åĲ"
      ],
      [
        "æ",
        "ķ"
      ],
      [
        "å®¶",
        "äºº"
      ],
      [
        "é¥",
        "Ń"
      ],
      [
        "åĺ",
        "Ľ"
      ],
      [
        "¥",
        "æĥ³"
      ],
      [
        "åĳ",
        "¼åĲ"
      ],
      [
        "æ²¡åħ³ç³»",
        "çļĦ"
      ],
      [
        "åĨ",
        "¥æĥ³"
      ],
      [
        "æ·±",
        "åĳ¼åĲ"
      ],
      [
        "æ·±åĳ¼åĲ",
        "¸"
      ],
      [
        "å¥½",
        "æĹłèģĬ"
      ],
      [
        "æĪĳ",
        "ä»¬"
      ],
      [
        "é",
        "ħ"
      ],
      [
        "åĸĿ",
        "éħ"
      ],
      [
        "çĿ¡",
        "è§ī"
      ],
      [
        "åĸĿéħ",
        "Ĵ"
      ],
      [
        "åľ¨",
        "åħ¬åı¸"
      ],
      [
        "æĿ",
        "¾"
      ],
      [
        "æľī",
        "çĤ¹"
      ],
      [
        "åĵŃ",
        "åĩºæĿ¥"
      ],
      [
        "¨",
        "ĭ"
      ],
      [
        "²",
        "åĺĽ"
      ],
      [
        "ç",
        "ĳ"
      ],
      [
        "ç",
        "¨ĭ"
      ],
      [
        "ľ",
        "ä¼"
      ],
      [
        "å¹",
        "²åĺĽ"
      ],
      [
        "çĳ",
        "ľä¼"
      ],
      [
        "çĳľä¼",
        "½"
      ],
      [
        "±",
        "æŃĮ"
      ],
      [
        "²",
        "è"
      ],
      [
        "å",
        "Ķ"
      ],
      [
        "Ĳ",
        "¥"
      ],
      [
        "èģĬå¤©",
        "åĲ§"
      ],
      [
        "éľ",
        "²è"
      ],
      [
        "åĶ",
        "±æŃĮ"
      ],
      [
        "éľ²è",
        "Ĳ¥"
      ],
      [
        "è®",
        "¾"
      ],
      [
        "¼",
        "ĸ"
      ],
      [
        "ç",
        "¼ĸ"
      ],
      [
        "Ĭ",
        "æĶ¾"
      ],
      [
        "ł",
        "çī©"
      ],
      [
        "æĥ³",
        "åĵŃ"
      ],
      [
        "å®",
        "łçī©"
      ],
      [
        "çļĦæĹ¶åĢĻ",
        "æĥ³åĵŃ"
      ],
      [
        "åħ»",
        "å®łçī©"
      ],
      [
        "éĩ",
        "ĬæĶ¾"
      ],
      [
        "åĵŃåĩºæĿ¥",
        "æ²¡åħ³ç³»çļĦ"
      ],
      [
        "ç¼ĸ",
        "ç¨ĭ"
      ],
      [
        "éĩĬæĶ¾",
        "ä¸Ģä¸ĭ"
      ],
      [
        "ĳ",
        "åĳ"
      ],
      [
        "åı",
        "ĳåĳ"
      ],
      [
        "éĤ£",
        "æĪĳä»¬"
      ],
      [
        "åıĳåĳ",
        "Ĩ"
      ],
      [
        "¡",
        "Ĺ"
      ],
      [
        "åĴĮ",
        "æľĭåıĭ"
      ],
      [
        "Ľè",
        "¡Ĺ"
      ],
      [
        "çľĭ",
        "çĶµå½±"
      ],
      [
        "åĨ",
        "Ļ"
      ],
      [
        "æĶ¾",
        "æĿ¾"
      ],
      [
        "éĢ",
        "Ľè¡Ĺ"
      ],
      [
        "æĶ¾æĿ¾",
        "ä¸Ģä¸ĭ"
      ],
      [
        "åĴĮ",
        "çĪ¶æ¯į"
      ],
      [
        "¬",
        "å±±"
      ],
      [
        "æ¸¸",
        "æ³"
      ],
      [
        "çĪ",
        "¬å±±"
      ],
      [
        "è®¾",
        "è®¡"
      ],
      [
        "æ¸¸æ³",
        "³"
      ],
      [
        "ä¸į",
        "çĿĢ"
      ],
      [
        "ä»Ĭå¤©",
        "å¥½"
      ],
      [
        "åĲ¬",
        "éŁ³ä¹Ĳ"
      ],
      [
        "è¯ķè¯ķ",
        "æ·±åĳ¼åĲ¸"
      ],
      [
        "çĿ¡",
        "ä¸įçĿĢ"
      ],
      [
        "åĴĮçĪ¶æ¯į",
        "ä¸Ģèµ·"
      ],
      [
        "åľ¨",
        "å®¶"
      ],
      [
        "´",
        "Ń"
      ],
      [
        "è",
        "´Ń"
      ],
      [
        "åľ¨åŃ¦",
        "æł¡"
      ],
      [
        "è´Ń",
        "çī©"
      ],
      [
        "é",
        "Ŀ"
      ],
      [
        "Ģ",
        "è¦ģ"
      ],
      [
        "éľ",
        "Ģè¦ģ"
      ],
      [
        "åĨĻ",
        "ä½ľ"
      ],
      [
        "åĴĮ",
        "å®¶äºº"
      ],
      [
        "åĸĿ",
        "åĴĸåķ¡"
      ],
      [
        "£",
        "æŃ¥"
      ],
      [
        "³",
        "è"
      ],
      [
        "Ī",
        "ŀ"
      ],
      [
        "ĵ",
        "æ¸¸æĪı"
      ],
      [
        "è·",
        "³è"
      ],
      [
        "åģļ",
        "é¥Ń"
      ],
      [
        "æī",
        "ĵæ¸¸æĪı"
      ],
      [
        "æķ",
        "£æŃ¥"
      ],
      [
        "è·³è",
        "Īŀ"
      ],
      [
        "ª",
        "ģ"
      ],
      [
        "ç",
        "ªģ"
      ],
      [
        "è",
        "º"
      ],
      [
        "åĸĿ",
        "èĮ"
      ],
      [
        "èģĬèģĬ",
        "åĲĹ"
      ],
      [
        "éľĢè¦ģ",
        "èģĬèģĬåĲĹ"
      ],
      [
        "çªģ",
        "çĦ¶"
      ],
      [
        "åĸĿèĮ",
        "¶"
      ],
      [
        "çľĭ",
        "ä¹¦"
      ],
      [
        "éĹ",
        "´"
      ],
      [
        "è",
        "Ģ"
      ],
      [
        "åĴĮå®¶äºº",
        "ä¸Ģèµ·"
      ],
      [
        "æ",
        "ĳ"
      ],
      [
        "é",
        "ĥ½"
      ],
      [
        "Ħ",
        "å½±"
      ],
      [
        "æĳ",
        "Ħå½±"
      ],
      [
        "èº",
        "«"
      ],
      [
        "åĴĮæľĭåıĭ",
        "ä¸Ģèµ·"
      ],
      [
        "ĳ",
        "æŃ¥"
      ],
      [
        "è·",
        "ĳæŃ¥"
      ],
      [
        "è¾",
        "¹"
      ],
      [
        "ä½ł",
        "åĳĢ"
      ],
      [
        "å¿ĥ",
        "æĥħ"
      ],
      [
        "åı",
        "¯"
      ],
      [
        "ä»",
        "¥"
      ],
      [
        "åİ",
        "ħ"
      ],
      [
        "åĪ",
        "»"
      ],
      [
        "éĿ",
        "Ļ"
      ],
      [
        "åı¯",
        "ä»¥"
      ],
      [
        "çĪ",
        "±"
      ],
      [
        "å¹²åĺĽ",
        "åĳ¢"
      ],
      [
        "æĹł",
        "æĹ¶"
      ],
      [
        "æĹł",
        "åĪ»"
      ],
      [
        "ä¸ĢçĽ´",
        "éĥ½"
      ],
      [
        "æĹłæĹ¶",
        "æĹłåĪ»"
      ],
      [
        "ä¸ĢçĽ´éĥ½",
        "åľ¨"
      ],
      [
        "æĹłæĹ¶æĹłåĪ»",
        "ä¸į"
      ],
      [
        "ç",
        "©"
      ],
      [
        "å¥½",
        "æĥ³"
      ],
      [
        "å¥½",
        "åľ°æĸ¹"
      ],
      [
        "æĥ³",
        "åİ»"
      ],
      [
        "æĺ¯",
        "ä¸ª"
      ],
      [
        "æĺ¯ä¸ª",
        "å¥½åľ°æĸ¹"
      ],
      [
        "ä½ł",
        "åĳ¢"
      ],
      [
        "å¿",
        "µ"
      ],
      [
        "å¥½",
        "çĥŃéĹ¹"
      ],
      [
        "çļĦ",
        "åľ°æĸ¹"
      ],
      [
        "ä¹Ł",
        "å¥½"
      ],
      [
        "æĪĳä¹Ł",
        "åľ¨"
      ],
      [
        "çĥŃéĹ¹",
        "çļĦåľ°æĸ¹"
      ],
      [
        "å¿ĥæĥħ",
        "ä¹Łå¥½"
      ],
      [
        "çĥŃéĹ¹çļĦåľ°æĸ¹",
        "å¿ĥæĥħä¹Łå¥½"
      ],
      [
        "æĹłæĹ¶æĹłåĪ»ä¸į",
        "åľ¨"
      ],
      [
        "å¾",
        "ħ"
      ],
      [
        "å¾Ī",
        "å¥½"
      ],
      [
        "èģĬ",
        "èģĬå¤©åĲ§"
      ],
      [
        "ç",
        "®"
      ],
      [
        "ä¸ĢçĽ´",
        "åľ¨"
      ],
      [
        "å",
        "¸"
      ],
      [
        "è¿·",
        "èĮ"
      ],
      [
        "è¿·èĮ",
        "«"
      ],
      [
        "éĤ£æĪĳä»¬",
        "èģĬèģĬå¤©åĲ§"
      ],
      [
        "æĪĳä¹Ł",
        "æĥ³ä½ł"
      ],
      [
        "åĬ",
        "©"
      ],
      [
        "ç",
        "ĭ"
      ],
      [
        "æĪĳä¹Łæĥ³ä½ł",
        "åĳĢ"
      ],
      [
        "ä»Ĭå¤©",
        "ç´¯"
      ],
      [
        "ä»Ĭå¤©",
        "æĹłèģĬ"
      ],
      [
        "ç¡®å®ŀä¼ļè®©äºº",
        "ç´¯"
      ],
      [
        "ç¡®å®ŀä¼ļè®©äºº",
        "æĹłèģĬ"
      ],
      [
        "ä»Ĭå¤©ç´¯",
        "åĽłä¸º"
      ],
      [
        "ä»Ĭå¤©æĹłèģĬ",
        "åĽłä¸º"
      ],
      [
        "å",
        "º"
      ],
      [
        "ç",
        "ı"
      ],
      [
        "ä»Ĭå¤©",
        "éļ¾è¿ĩ"
      ],
      [
        "ç¡®å®ŀä¼ļè®©äºº",
        "éļ¾è¿ĩ"
      ],
      [
        "åĨ",
        "·"
      ],
      [
        "ä»Ĭå¤©éļ¾è¿ĩ",
        "åĽłä¸º"
      ],
      [
        "å",
        "§"
      ],
      [
        "äº",
        "²"
      ],
      [
        "å¥½",
        "äºĨ"
      ],
      [
        "åľ¨",
        "èº«"
      ],
      [
        "æľī",
        "è¿Ļ"
      ],
      [
        "æĹ¶",
        "éĹ´"
      ],
      [
        "çļĦäºº",
        "åľ¨èº«"
      ],
      [
        "å¯¹",
        "æĪĳ"
      ],
      [
        "çľŁ",
        "å¥½"
      ],
      [
        "å¤ª",
        "å¥½äºĨ"
      ],
      [
        "æł·",
        "çļĦäººåľ¨èº«"
      ],
      [
        "è¾¹",
        "çľŁå¥½"
      ],
      [
        "æľīè¿Ļ",
        "æł·çļĦäººåľ¨èº«"
      ],
      [
        "æľīè¿Ļæł·çļĦäººåľ¨èº«",
        "è¾¹çľŁå¥½"
      ],
      [
        "æľ",
        "Ł"
      ],
      [
        "ä¸į",
        "ç"
      ],
      [
        "éĤ£",
        "å°±"
      ],
      [
        "ç©",
        "º"
      ],
      [
        "å¯¹æĪĳ",
        "å¾Īå¥½"
      ],
      [
        "»",
        "¡"
      ],
      [
        "ä»Ĭå¤©",
        "ç´§å¼ł"
      ],
      [
        "ç¡®å®ŀä¼ļè®©äºº",
        "ç´§å¼ł"
      ],
      [
        "ä»Ĭå¤©ç´§å¼ł",
        "åĽłä¸º"
      ],
      [
        "µ",
        "æ"
      ],
      [
        "¶",
        "äºĨ"
      ],
      [
        "è",
        "Ļ"
      ],
      [
        "ŀ",
        "¶äºĨ"
      ],
      [
        "æĿ¥",
        "å¥½å¥½"
      ],
      [
        "ä¸ĭ",
        "æĿ¥å¥½å¥½"
      ],
      [
        "ä»Ĭå¤©",
        "å®³æĢķ"
      ],
      [
        "ç¡®å®ŀä¼ļè®©äºº",
        "å®³æĢķ"
      ],
      [
        "éĿĻ",
        "ä¸ĭæĿ¥å¥½å¥½"
      ],
      [
        "åĨ·",
        "éĿĻä¸ĭæĿ¥å¥½å¥½"
      ],
      [
        "µæ",
        "ŀ¶äºĨ"
      ],
      [
        "ä»Ĭå¤©å®³æĢķ",
        "åĽłä¸º"
      ],
      [
        "åĨ·éĿĻä¸ĭæĿ¥å¥½å¥½",
        "èģĬèģĬ"
      ],
      [
        "į",
        "è¦ģ"
      ],
      [
        "æĪĳ",
        "äºĨ"
      ],
      [
        "å¤",
        "±"
      ],
      [
        "ä»Ĭå¤©",
        "çĶŁæ°Ķ"
      ],
      [
        "æľĢ",
        "éĩ"
      ],
      [
        "ç¡®å®ŀä¼ļè®©äºº",
        "çĶŁæ°Ķ"
      ],
      [
        "ä»Ĭå¤©çĶŁæ°Ķ",
        "åĽłä¸º"
      ],
      [
        "æľĢéĩ",
        "įè¦ģ"
      ],
      [
        "åĲ",
        "µæŀ¶äºĨ"
      ],
      [
        "éĤ£æĪĳä»¬",
        "æĿ¥"
      ],
      [
        "æ",
        "»¡"
      ],
      [
        "å¤",
        "ļ"
      ],
      [
        "æľ",
        "Ľ"
      ],
      [
        "èģ",
        "Ķ"
      ],
      [
        "çĭ",
        "¬"
      ],
      [
        "°",
        "å¾Ĺ"
      ],
      [
        "ĸ",
        "èĢ"
      ],
      [
        "æĪ",
        "ĸèĢ"
      ],
      [
        "å¼Ģå¿ĥ",
        "åĽłä¸º"
      ],
      [
        "è®",
        "°å¾Ĺ"
      ],
      [
        "ä»Ĭå¤©",
        "å¼Ģå¿ĥåĽłä¸º"
      ],
      [
        "ç¡®å®ŀä¼ļè®©äºº",
        "å¼Ģå¿ĥ"
      ],
      [
        "å¾ħ",
        "ä½ł"
      ],
      [
        "æĪĸèĢ",
        "ħ"
      ],
      [
        "Ķ",
        "å±"
      ],
      [
        "åĴĸåķ¡",
        "åİħ"
      ],
      [
        "å¿µ",
        "ä½ł"
      ],
      [
        "å§",
        "Ķå±"
      ],
      [
        "å§Ķå±",
        "Ī"
      ],
      [
        "¤",
        "ä¸Ģ"
      ],
      [
        "¼",
        "æŃ"
      ],
      [
        "æ",
        "º"
      ],
      [
        "å¥½",
        "å¼Ģå¿ĥ"
      ],
      [
        "åĴĮ",
        "ç©º"
      ],
      [
        "å¼Ģå¿ĥ",
        "æľĢéĩįè¦ģ"
      ],
      [
        "æĢ",
        "¥"
      ],
      [
        "å½",
        "¼æŃ"
      ],
      [
        "çĤ¹",
        "æĹ¶éĹ´"
      ],
      [
        "çĿĢ",
        "æĢ¥"
      ],
      [
        "åĪ«",
        "çĶŁæ°Ķ"
      ],
      [
        "åĪ«",
        "çĿĢæĢ¥"
      ],
      [
        "ĲĨ",
        "æĪĳäºĨ"
      ],
      [
        "æĹł",
        "åĬ©"
      ],
      [
        "èĩª",
        "ä¿¡"
      ],
      [
        "ç»Ļ",
        "å½¼æŃ"
      ],
      [
        "çĪ±",
        "ä½ł"
      ],
      [
        "ä¸įç",
        "ĲĨæĪĳäºĨ"
      ],
      [
        "éĤ£æĪĳä»¬æĿ¥",
        "èģĬå¤©åĲ§"
      ],
      [
        "¤ä¸Ģ",
        "çĤ¹æĹ¶éĹ´"
      ],
      [
        "åĴĮç©º",
        "éĹ´"
      ],
      [
        "ç»Ļå½¼æŃ",
        "¤ä¸ĢçĤ¹æĹ¶éĹ´"
      ],
      [
        "ç»Ļå½¼æŃ¤ä¸ĢçĤ¹æĹ¶éĹ´",
        "åĴĮç©ºéĹ´"
      ],
      [
        "ç",
        "Ń"
      ],
      [
        "çĶµå½±",
        "éĻ"
      ],
      [
        "çĶµå½±éĻ",
        "¢"
      ],
      [
        "¤",
        "çĭ¬"
      ],
      [
        "¥",
        "Ŀ"
      ],
      [
        "ç",
        "¥Ŀ"
      ],
      [
        "æĹ",
        "¥"
      ],
      [
        "åŃ",
        "¤çĭ¬"
      ],
      [
        "çĶŁ",
        "æĹ¥"
      ],
      [
        "ç¥Ŀ",
        "ç¦ı"
      ],
      [
        "æĺ¯",
        "ä»Ģä¹Ī"
      ],
      [
        "å¹",
        "³"
      ],
      [
        "æĻļ",
        "ä¸Ĭ"
      ],
      [
        "å¤±",
        "æľĽ"
      ],
      [
        "ª",
        "Ħ"
      ],
      [
        "é",
        "ªĦ"
      ],
      [
        "į",
        "æĥ"
      ],
      [
        "æĪ",
        "Ĳ"
      ],
      [
        "ä»Ĭå¤©",
        "åħ´å¥ĭ"
      ],
      [
        "ä¸Ģä¸ĭ",
        "åĲ§"
      ],
      [
        "ç³»",
        "ä¸Ģä¸ĭåĲ§"
      ],
      [
        "ç¡®å®ŀä¼ļè®©äºº",
        "åħ´å¥ĭ"
      ],
      [
        "åĤ",
        "²"
      ],
      [
        "çı",
        "įæĥ"
      ],
      [
        "éĤ£å°±",
        "èģĶ"
      ],
      [
        "éªĦ",
        "åĤ²"
      ],
      [
        "ä»Ĭå¤©åħ´å¥ĭ",
        "åĽłä¸º"
      ],
      [
        "çıįæĥ",
        "ľ"
      ],
      [
        "éĤ£å°±èģĶ",
        "ç³»ä¸Ģä¸ĭåĲ§"
      ],
      [
        "¦",
        "èĻ"
      ],
      [
        "«",
        "ĺ"
      ],
      [
        "è",
        "°"
      ],
      [
        "é",
        "«ĺ"
      ],
      [
        "çĦ",
        "¦èĻ"
      ],
      [
        "çĦ¦èĻ",
        "ĳ"
      ],
      [
        "ä½ł",
        "èģĬå¤©"
      ],
      [
        "åĲ",
        "ĥ"
      ],
      [
        "åĪ",
        "°"
      ],
      [
        "çŃ",
        "ī"
      ],
      [
        "©",
        "æº"
      ],
      [
        "´",
        "©æº"
      ],
      [
        "å",
        "´©æº"
      ],
      [
        "æ",
        "µ·"
      ],
      [
        "é",
        "¢"
      ],
      [
        "ä¹",
        "İ"
      ],
      [
        "è§",
        "ģ"
      ],
      [
        "å´©æº",
        "ĥ"
      ],
      [
        "ç",
        "±"
      ],
      [
        "ģ",
        "ä¸Ĭ"
      ],
      [
        "ä½ł",
        "åĸľæ¬¢"
      ],
      [
        "ä¼",
        "´"
      ],
      [
        "éĻª",
        "ä¼´"
      ],
      [
        "åģ",
        "¥"
      ],
      [
        "éĢ",
        "ģä¸Ĭ"
      ],
      [
        "è®°å¾Ĺ",
        "éĢģä¸Ĭ"
      ],
      [
        "ç¥Ŀç¦ı",
        "åĵ¦"
      ],
      [
        "è®°å¾ĹéĢģä¸Ĭ",
        "ç¥Ŀç¦ıåĵ¦"
      ],
      [
        "æ",
        "Ĭ"
      ],
      [
        "è¶",
        "³"
      ],
      [
        "è°",
        "¢"
      ],
      [
        "å®",
        "ī"
      ],
      [
        "åį",
        "ķ"
      ],
      [
        "ä¹¦",
        "åº"
      ],
      [
        "ãĢ",
        "ģ"
      ],
      [
        "ç®",
        "Ģ"
      ],
      [
        "ä¹¦åº",
        "Ĺ"
      ],
      [
        ".",
        "."
      ],
      [
        "¤",
        "Ĳ"
      ],
      [
        "é",
        "¤Ĳ"
      ],
      [
        "åĸľæ¬¢",
        "çļĦäºĭ"
      ],
      [
        "æĦŁ",
        "æģ"
      ],
      [
        "çĤ¹",
        "åĸľæ¬¢çļĦäºĭ"
      ],
      [
        "åĲĮ",
        "äºĭ"
      ],
      [
        "æĪĳéĻª",
        "ä½łèģĬå¤©"
      ],
      [
        "åģļ",
        "çĤ¹åĸľæ¬¢çļĦäºĭ"
      ],
      [
        "åı¯ä»¥",
        "åģļçĤ¹åĸľæ¬¢çļĦäºĭ"
      ],
      [
        "æĪĸèĢħ",
        "æĪĳéĻªä½łèģĬå¤©"
      ],
      [
        "é¤Ĳ",
        "åİħ"
      ],
      [
        "æĦŁæģ",
        "©"
      ],
      [
        "µ",
        "æĮ"
      ],
      [
        "Ĩ",
        "åľ"
      ],
      [
        "åŃ¦",
        "æł¡"
      ],
      [
        "åķ",
        "Ĩåľ"
      ],
      [
        "æĢ",
        "Ŀ"
      ],
      [
        "çī",
        "µæĮ"
      ],
      [
        "åķĨåľ",
        "º"
      ],
      [
        "çīµæĮ",
        "Ĥ"
      ],
      [
        "åľ¨",
        "ä¹İ"
      ],
      [
        "å±±",
        "ä¸Ĭ"
      ],
      [
        "æ»¡",
        "è¶³"
      ],
      [
        "¨",
        "æľ"
      ],
      [
        "æĪ",
        "¿"
      ],
      [
        "åĳ",
        "¨æľ"
      ],
      [
        "åĤįæĻļ",
        "åľ¨åħ¬åı¸"
      ],
      [
        "èº«",
        "æĪ¿"
      ],
      [
        "æµ·",
        "è¾¹"
      ],
      [
        "åģ¥",
        "èº«æĪ¿"
      ],
      [
        "åĳ¨æľ",
        "«"
      ],
      [
        "Į",
        "æĻ"
      ],
      [
        "åĩ",
        "ĮæĻ"
      ],
      [
        "æĭ",
        "ľ"
      ],
      [
        "ç®Ģ",
        "åįķ"
      ],
      [
        "åĩĮæĻ",
        "¨"
      ],
      [
        "Ĩ",
        "å¯"
      ],
      [
        "æĦ",
        "ı"
      ],
      [
        "æĦŁ",
        "åĬ¨"
      ],
      [
        "åĽ",
        "Ń"
      ],
      [
        "åħ³",
        "å¿ĥ"
      ],
      [
        "åħ¬",
        "åĽŃ"
      ],
      [
        "çĪ±ä½ł",
        "ä½ł"
      ],
      [
        "å¹³",
        "éĿĻ"
      ],
      [
        "é¢",
        "Ĩå¯"
      ],
      [
        "¢",
        "¦"
      ],
      [
        "Ī",
        "æĬ"
      ],
      [
        "å®",
        "ĪæĬ"
      ],
      [
        "åĲĮ",
        "åŃ¦"
      ],
      [
        "ãĢ",
        "Ĭ"
      ],
      [
        "ãĢ",
        "ĭ"
      ],
      [
        "ä¸ŃåįĪ",
        "åľ¨åŃ¦æł¡"
      ],
      [
        "åĤįæĻļ",
        "åĴĮçĪ¶æ¯įä¸Ģèµ·"
      ],
      [
        "æĹ©ä¸Ĭ",
        "åĴĮçĪ¶æ¯įä¸Ģèµ·"
      ],
      [
        "è®¡",
        "ç®"
      ],
      [
        "å®ĪæĬ",
        "¤"
      ],
      [
        "è®¡ç®",
        "Ĺ"
      ],
      [
        "¤",
        "åıĭ"
      ],
      [
        "å®",
        "¤åıĭ"
      ],
      [
        "åĤįæĻļ",
        "åĴĮæľĭåıĭä¸Ģèµ·"
      ],
      [
        "ä¸ĭåįĪ",
        "åĴĮæľĭåıĭä¸Ģèµ·"
      ],
      [
        "äº²",
        "äº²"
      ],
      [
        "é¢Ĩå¯",
        "¼"
      ],
      [
        "é",
        "¦"
      ],
      [
        "å¤",
        "ľ"
      ],
      [
        "åģ",
        "ĩ"
      ],
      [
        "ä¸ŃåįĪ",
        "åĴĮçĪ¶æ¯įä¸Ģèµ·"
      ],
      [
        "ä¸ŃåįĪ",
        "åĴĮå®¶äººä¸Ģèµ·"
      ],
      [
        "æ·±",
        "å¤ľ"
      ],
      [
        "ä½łåĸľæ¬¢",
        "ä»Ģä¹Ī"
      ],
      [
        "ģ",
        "å¸"
      ],
      [
        "å¾Ī",
        "é«ĺ"
      ],
      [
        "æĹħè¡Į",
        "åĳ¢"
      ],
      [
        "ä¸ŃåįĪ",
        "åľ¨å®¶"
      ],
      [
        "èĢ",
        "ĥ"
      ],
      [
        "èĢ",
        "ģå¸"
      ],
      [
        "çıįæĥľ",
        "ä½ł"
      ],
      [
        "å¾Īé«ĺ",
        "åħ´"
      ],
      [
        "èĢģå¸",
        "Ī"
      ],
      [
        "æ",
        "Ľ´"
      ],
      [
        "ä¸ŃåįĪ",
        "åľ¨åħ¬åı¸"
      ],
      [
        "åĤįæĻļ",
        "åľ¨å®¶"
      ],
      [
        "ä»Ģä¹Ī",
        "æĺ¯"
      ],
      [
        "æĹ©ä¸Ĭ",
        "åĴĮå®¶äººä¸Ģèµ·"
      ],
      [
        "ä¸ĭåįĪ",
        "åĴĮå®¶äººä¸Ģèµ·"
      ],
      [
        "çŃī",
        "å¾ħä½ł"
      ],
      [
        "éĻªä¼´",
        "ä½ł"
      ],
      [
        "è",
        "µ"
      ],
      [
        "ä»",
        "İ"
      ],
      [
        "åĨ",
        "į"
      ],
      [
        "æĹ©ä¸Ĭ",
        "åľ¨åħ¬åı¸"
      ],
      [
        "éĿ",
        "¢"
      ],
      [
        "å¸",
        "®"
      ],
      [
        "åĪ°",
        "ä½ł"
      ],
      [
        "çīµæĮĤ",
        "ä½ł"
      ],
      [
        "å",
        "¦"
      ],
      [
        "åĪ",
        "Ĩ"
      ],
      [
        "ä¸ĭåįĪ",
        "åĴĮçĪ¶æ¯įä¸Ģèµ·"
      ],
      [
        "ä¸ĭåįĪ",
        "åľ¨å®¶"
      ],
      [
        "æī",
        "¾"
      ],
      [
        "æī",
        "ĭ"
      ],
      [
        "æĢĿ",
        "å¿µä½ł"
      ],
      [
        "ãĢĭ",
        "ï¼Į"
      ],
      [
        "åģĩ",
        "æľŁ"
      ],
      [
        "åĤįæĻļ",
        "åľ¨åŃ¦æł¡"
      ],
      [
        "åĤįæĻļ",
        "åĴĮå®¶äººä¸Ģèµ·"
      ],
      [
        "æľŁ",
        "å¾ħä½ł"
      ],
      [
        "äºĨ",
        "åĳ¢"
      ],
      [
        "å¿",
        "«"
      ],
      [
        "æĹ©",
        "å®ī"
      ],
      [
        "ä¸ŃåįĪ",
        "åĴĮæľĭåıĭä¸Ģèµ·"
      ],
      [
        "æĹ©ä¸Ĭ",
        "åľ¨å®¶"
      ],
      [
        "ä¸ĭåįĪ",
        "åľ¨åħ¬åı¸"
      ],
      [
        "è¿",
        "ĺ"
      ],
      [
        "æľī",
        "ä»Ģä¹Ī"
      ],
      [
        "è¿ĲåĬ¨",
        "åĳ¢"
      ],
      [
        "ç¾İé£Ł",
        "åĳ¢"
      ],
      [
        "æĹ©ä¸Ĭ",
        "åľ¨åŃ¦æł¡"
      ],
      [
        "åľ¨ä¹İ",
        "ä½ł"
      ],
      [
        "å¦",
        "³"
      ],
      [
        "æ",
        "¢¦"
      ],
      [
        "æ¬",
        "¡"
      ],
      [
        "å¾Ī",
        "ç¾İ"
      ],
      [
        "ä¸ĭåįĪ",
        "åľ¨åŃ¦æł¡"
      ],
      [
        "ç±",
        "»"
      ],
      [
        "åħ³å¿ĥ",
        "ä½ł"
      ],
      [
        "æ¢¦",
        "æĥ³"
      ],
      [
        "°",
        "ç"
      ],
      [
        "æľ",
        "º"
      ],
      [
        "éŁ³ä¹Ĳ",
        "åĳ¢"
      ],
      [
        "æĹ©ä¸Ĭ",
        "åĴĮæľĭåıĭä¸Ģèµ·"
      ],
      [
        "éĴĵé±¼",
        "åĳ¢"
      ],
      [
        "ç±",
        "³"
      ],
      [
        "è°¢",
        "è°¢"
      ],
      [
        "º",
        "¦"
      ],
      [
        "¾",
        "ä¹¦"
      ],
      [
        "ç",
        "º¦"
      ],
      [
        "ĭ",
        "å¤©"
      ],
      [
        "è¯",
        "Ń"
      ],
      [
        "åĽ",
        "¾ä¹¦"
      ],
      [
        "çĶµå½±",
        "åĳ¢"
      ],
      [
        "åŃ¦ä¹ł",
        "åĳ¢"
      ],
      [
        "å°",
        "ı"
      ],
      [
        "ç§",
        "ĭå¤©"
      ],
      [
        "éĩ",
        "Į"
      ],
      [
        "åħ¬",
        "éĩĮ"
      ],
      [
        "éĴ",
        "Ł"
      ],
      [
        "..",
        "."
      ],
      [
        "å®ĪæĬ¤",
        "ä½ł"
      ],
      [
        "é¦",
        "Ĩ"
      ],
      [
        "åĪĨ",
        "éĴŁ"
      ],
      [
        "åĽ¾ä¹¦",
        "é¦Ĩ"
      ],
      [
        "æĥ³",
        "å¿µ"
      ],
      [
        "æĥ³",
        "å¿µä½ł"
      ],
      [
        "å·¥ä½ľ",
        "åĳ¢"
      ],
      [
        "ç»",
        "ı"
      ],
      [
        "å¾Īå¼Ģå¿ĥ",
        "åĲ§"
      ],
      [
        "è¯»ä¹¦",
        "åĳ¢"
      ],
      [
        "ç©",
        "¿"
      ],
      [
        "æĽ´",
        "å¥½çļĦ"
      ],
      [
        "P",
        "y"
      ],
      [
        "h",
        "o"
      ],
      [
        "t",
        "ho"
      ],
      [
        "ĳ",
        "çļĦ"
      ],
      [
        "å¥½",
        "è¿·èĮ«"
      ],
      [
        "åĲ",
        "ĳçļĦ"
      ],
      [
        "åľ¨",
        "åĴĸåķ¡åİħ"
      ],
      [
        "åľ¨",
        "åķĨåľº"
      ],
      [
        "ä¸į",
        "ä¼ļ"
      ],
      [
        "æĺ¯",
        "ä¸Ģ"
      ],
      [
        "åĪ",
        "°æĸ¹"
      ],
      [
        "ä¼ļ",
        "æī¾"
      ],
      [
        "æĢ»",
        "ä¼ļæī¾"
      ],
      [
        "çĶ»çĶ»",
        "åĳ¢"
      ],
      [
        "åħ»èĬ±",
        "åĳ¢"
      ],
      [
        "åĸĿéħĴ",
        "åĳ¢"
      ],
      [
        "æĭľ",
        "æĭľ"
      ],
      [
        "äº²äº²",
        "ä½ł"
      ],
      [
        "èĢĥ",
        "è¯ķ"
      ],
      [
        "Py",
        "tho"
      ],
      [
        "åĪ°æĸ¹",
        "åĲĳçļĦ"
      ],
      [
        "æĢ»ä¼ļæī¾",
        "åĪ°æĸ¹åĲĳçļĦ"
      ],
      [
        "Pytho",
        "n"
      ],
      [
        "A",
        "I"
      ],
      [
        "½",
        "»"
      ],
      [
        "ç",
        "Į"
      ],
      [
        "è",
        "ĥ"
      ],
      [
        "è",
        "½»"
      ],
      [
        "æĪĳ",
        "æĺ¯"
      ],
      [
        "ä½ł",
        "å¥½"
      ],
      [
        "ä½ł",
        "å¥½åĳĢ"
      ],
      [
        "æľ",
        "į"
      ],
      [
        "å¾",
        "ĭ"
      ],
      [
        "ä¸ĭ",
        "æ¬¡"
      ],
      [
        "ä»Ĭå¤©",
        "å¥½ç´¯"
      ],
      [
        "æĻļ",
        "å®ī"
      ],
      [
        "åİĭåĬĽå¥½å¤§",
        "åĲ§"
      ],
      [
        "éĩ",
        "ı"
      ],
      [
        "æ³",
        "¨"
      ],
      [
        "åĨ¥æĥ³",
        "åĳ¢"
      ],
      [
        "çĳľä¼½",
        "åĳ¢"
      ],
      [
        "éľ²èĲ¥",
        "åĳ¢"
      ],
      [
        "åħ»å®łçī©",
        "åĳ¢"
      ],
      [
        "éĢĽè¡Ĺ",
        "åĳ¢"
      ],
      [
        "åĬ©",
        "æīĭ"
      ],
      [
        "çĭ",
        "Ĺ"
      ],
      [
        "çŃī",
        "å¾ħ"
      ],
      [
        "è§ģ",
        "åĪ°ä½ł"
      ],
      [
        "å¾Īé«ĺåħ´",
        "è§ģåĪ°ä½ł"
      ],
      [
        "çĮ",
        "«"
      ],
      [
        "²",
        "çļĦ"
      ],
      [
        "é",
        "ķ"
      ],
      [
        "Ĳ",
        "ĥ"
      ],
      [
        "ĳ",
        "è®¡ç®Ĺ"
      ],
      [
        "ï¼",
        "ļ"
      ],
      [
        "äº",
        "ĳè®¡ç®Ĺ"
      ],
      [
        "ä½ł",
        "åı"
      ],
      [
        "ä½ł",
        "ä¼ļ"
      ],
      [
        "åľ",
        "°ç"
      ],
      [
        "åľ¨",
        "çļĦ"
      ],
      [
        "åľ¨",
        "ä¹¦åºĹ"
      ],
      [
        "ä¸Ģ",
        "å¤©"
      ],
      [
        "äºĨ",
        "åĵ¦"
      ],
      [
        "åĬ",
        "Ł"
      ],
      [
        "è®",
        "²"
      ],
      [
        "æĥ³ä½ł",
        "ä½ł"
      ],
      [
        "å¥½ç´¯",
        "åĹ¯"
      ],
      [
        "æĢİä¹Īæł·",
        "åķĬ"
      ],
      [
        "å¥½éļ¾",
        "åĳĢ"
      ],
      [
        "è¯»ä¹¦",
        "ç¡®å®ŀä¼ļè®©äººæĹłèģĬ"
      ],
      [
        "ä¸ŃåįĪ",
        "å¥½"
      ],
      [
        "çĥĺçĦĻ",
        "åĳ¢"
      ],
      [
        "æ¸¸æ³³",
        "åĳ¢"
      ],
      [
        "åĸĿåĴĸåķ¡",
        "åĳ¢"
      ],
      [
        "æīĵæ¸¸æĪı",
        "åĳ¢"
      ],
      [
        "æĳĦå½±",
        "åĳ¢"
      ],
      [
        "çĪ±",
        "æĥħ"
      ],
      [
        "æĪĲ",
        "åĬŁ"
      ],
      [
        "èµ",
        "°"
      ],
      [
        "éķ",
        "¿"
      ],
      [
        "ä½łåı",
        "«"
      ],
      [
        "åľ°ç",
        "Ĳĥ"
      ],
      [
        "¨",
        "Ģ"
      ],
      [
        "æ",
        "ı"
      ],
      [
        "è",
        "¨Ģ"
      ],
      [
        "Ł",
        "¥"
      ],
      [
        "äºĨ",
        "åĲ§"
      ],
      [
        "åı",
        "Ī"
      ],
      [
        "åħ",
        "Ī"
      ],
      [
        "è¿ĲåĬ¨",
        "è¯¶"
      ],
      [
        "å½ĵ",
        "çĦ¶"
      ],
      [
        "å¥½ç´¯",
        "åĵ¦"
      ],
      [
        "å¥½ç´¯",
        "è¯¶"
      ],
      [
        "å¥½ç´¯",
        "åĲ§"
      ],
      [
        "æĢİä¹Īæł·",
        "åĳ¢"
      ],
      [
        "æĢİä¹Īæł·",
        "åĳĢ"
      ],
      [
        "æĢİä¹Īæł·",
        "åĵ¦"
      ],
      [
        "åİĭåĬĽå¥½å¤§",
        "è¯¶"
      ],
      [
        "çļĦæĹ¶åĢĻåľ¨æĥ³ä½ł",
        "åĵ¦"
      ],
      [
        "çļĦæĹ¶åĢĻåľ¨æĥ³ä½ł",
        "åĲ§"
      ],
      [
        "å¥½æľīè¶£",
        "åĲ§"
      ],
      [
        "åĶ±æŃĮ",
        "åĳ¢"
      ],
      [
        "åĴĮæľĭåıĭ",
        "åĲµæŀ¶äºĨ"
      ],
      [
        "çľĭçĶµå½±",
        "åĳ¢"
      ],
      [
        "æķ£æŃ¥",
        "åĳ¢"
      ],
      [
        "åı¯ä»¥",
        "è¯ķè¯ķ"
      ],
      [
        "ä»Ĭå¤©æĹłèģĬåĽłä¸º",
        "è¯»ä¹¦"
      ],
      [
        "åĲĥ",
        "ä»Ģä¹Ī"
      ],
      [
        "è¯Ń",
        "è¨Ģ"
      ],
      [
        "æı",
        "Ĳ"
      ],
      [
        "§",
        "į"
      ],
      [
        "²",
        "ç»ı"
      ],
      [
        "º",
        "èĥ½"
      ],
      [
        "è",
        "ı"
      ],
      [
        "é",
        "Ľ"
      ],
      [
        "ī",
        "æĭ"
      ],
      [
        "Ń",
        "åĸľ"
      ],
      [
        "ä½ł",
        "å·"
      ],
      [
        "ä¹",
        "ī"
      ],
      [
        "åľ¨",
        "é¤Ĳåİħ"
      ],
      [
        "åľ¨",
        "å±±ä¸Ĭ"
      ],
      [
        "çļĦ",
        "æĦı"
      ],
      [
        "äºĨ",
        "åĳĢ"
      ],
      [
        "åĬ",
        "¡"
      ],
      [
        "äºº",
        "çĶŁ"
      ],
      [
        "ä¸ĭ",
        "éĽ"
      ],
      [
        "çĶ",
        "±"
      ],
      [
        "å®",
        "ļ"
      ],
      [
        "å¾Ĺ",
        "å¾Īå¥½"
      ],
      [
        "æĥ³ä½ł",
        "ä½łåĳĢ"
      ],
      [
        "æģ",
        "Ńåĸľ"
      ],
      [
        "åĪ«",
        "æ°Ķ"
      ],
      [
        "åŃ¦ä¹ł",
        "åķĬ"
      ],
      [
        "åŃ¦ä¹ł",
        "åĹ¯"
      ],
      [
        "è¿ĲåĬ¨",
        "åĵ¦"
      ],
      [
        "è¿ĲåĬ¨",
        "åķĬ"
      ],
      [
        "ç¾İé£Ł",
        "åĵ¦"
      ],
      [
        "èĩª",
        "çĶ±"
      ],
      [
        "å°±",
        "æĺ¯"
      ],
      [
        "ä¸Ģç",
        "§į"
      ],
      [
        "æĹħè¡Į",
        "åĳĢ"
      ],
      [
        "æĹħè¡Į",
        "åĵĪ"
      ],
      [
        "æĻ",
        "ºèĥ½"
      ],
      [
        "æ¸¸æĪı",
        "åĳ¢"
      ],
      [
        "ä¸ĢçĽ´",
        "éªĦåĤ²"
      ],
      [
        "åģ",
        "¶"
      ],
      [
        "å¥½éļ¾",
        "åĳ¢"
      ],
      [
        "å¥½éļ¾",
        "åĲ§"
      ],
      [
        "åİĭåĬĽå¥½å¤§",
        "åĳĢ"
      ],
      [
        "çļĦæĹ¶åĢĻåľ¨æĥ³ä½ł",
        "åĳĢ"
      ],
      [
        "å¥½æľīè¶£",
        "åĵĪ"
      ],
      [
        "éĢ",
        "īæĭ"
      ],
      [
        "çĿ¡è§ī",
        "åĳ¢"
      ],
      [
        "ä»Ĭå¤©å¥½",
        "è¿·èĮ«"
      ],
      [
        "åĲ¬éŁ³ä¹Ĳ",
        "åĳ¢"
      ],
      [
        "åģļé¥Ń",
        "åĳ¢"
      ],
      [
        "åĸĿèĮ¶",
        "åĳ¢"
      ],
      [
        "çľĭä¹¦",
        "åĳ¢"
      ],
      [
        "ç®Ģåįķ",
        "çļĦ"
      ],
      [
        "ç±³",
        "é¥Ń"
      ],
      [
        "èı",
        "ľ"
      ],
      [
        "ä½łå·",
        "²ç»ı"
      ],
      [
        "çļĦæĦı",
        "ä¹ī"
      ],
      [
        "äººçĶŁ",
        "çļĦæĦıä¹ī"
      ],
      [
        "ä¸ĭéĽ",
        "¨"
      ],
      [
        "å¾Ĺå¾Īå¥½",
        "äºĨ"
      ],
      [
        "éĢīæĭ",
        "©"
      ],
      [
        "»",
        "æĦ"
      ],
      [
        "½",
        "çĦ¶"
      ],
      [
        "å",
        "ŀ"
      ],
      [
        "ç",
        "½"
      ],
      [
        "è",
        "ĭ"
      ],
      [
        "Ħ",
        "å¾ĭ"
      ],
      [
        "ĵ",
        "åŃ¦"
      ],
      [
        "å¥½",
        "å®³æĢķ"
      ],
      [
        "ä½",
        "Ĩ"
      ],
      [
        "æĪĳ",
        "åľ¨"
      ],
      [
        "æĪĳ",
        "åı¯ä»¥"
      ],
      [
        "åĳ",
        "Ĺ"
      ],
      [
        "äºĨ",
        "åķĬ"
      ],
      [
        "ä¹Ł",
        "è¦ģ"
      ],
      [
        "è§",
        "Ħå¾ĭ"
      ],
      [
        "å¼Ģ",
        "å§"
      ],
      [
        "æĺ",
        "ĵåŃ¦"
      ],
      [
        "æ²",
        "»æĦ"
      ],
      [
        "æľī",
        "æĪĳåľ¨"
      ],
      [
        "ä»Ĭå¤©",
        "çľĭçĶµå½±"
      ],
      [
        "ä»Ĭå¤©",
        "ä¹Łè¦ģ"
      ],
      [
        "åĹ¯",
        "åĹ¯"
      ],
      [
        "è®©",
        "ä½ł"
      ],
      [
        "å¾Ĺ",
        "æĢİä¹Īæł·"
      ],
      [
        "åĽ",
        "ŀ"
      ],
      [
        "åĪ«",
        "æĢķ"
      ],
      [
        "åĬłæ²¹",
        "åĵ¦"
      ],
      [
        "åľ¨æĥ³ä½ł",
        "ä½ł"
      ],
      [
        "ç¾İé£Ł",
        "åķĬ"
      ],
      [
        "ç¾İé£Ł",
        "åĹ¯"
      ],
      [
        "ç¾İé£Ł",
        "æĢİä¹Īæł·"
      ],
      [
        "å·¥ä½ľ",
        "åĵ¦"
      ],
      [
        "å·¥ä½ľ",
        "è¯¶"
      ],
      [
        "å·¥ä½ľ",
        "åĲ§"
      ],
      [
        "æĪĳä¹Łæĥ³",
        "æĥ³ä½łä½łåĳĢ"
      ],
      [
        "æİ¨èįĲ",
        "ä¸ª"
      ],
      [
        "å¥½ç´¯",
        "åĳĢ"
      ],
      [
        "å¥½ç´¯",
        "åķĬ"
      ],
      [
        "å¥½ç´¯",
        "åĵĪ"
      ],
      [
        "èģĬå¤©",
        "åĳ¢"
      ],
      [
        "ç§",
        "¯"
      ],
      [
        "çī",
        "¹"
      ],
      [
        "æ¯ı",
        "å¤©"
      ],
      [
        "å¾Īå¼Ģå¿ĥ",
        "è¯¶"
      ],
      [
        "å¥½éļ¾",
        "åķĬ"
      ],
      [
        "çļĦæĹ¶åĢĻåľ¨æĥ³ä½ł",
        "åķĬ"
      ],
      [
        "çļĦæĹ¶åĢĻåľ¨æĥ³ä½ł",
        "åĹ¯"
      ],
      [
        "å¥½æľīè¶£",
        "åĳĢ"
      ],
      [
        "å¥½æľīè¶£",
        "è¯¶"
      ],
      [
        "åģļ",
        "ä»Ģä¹Ī"
      ],
      [
        "çľĭçĶµå½±",
        "åķ¦"
      ],
      [
        "è´Ńçī©",
        "åĳ¢"
      ],
      [
        "åĨĻä½ľ",
        "åĳ¢"
      ],
      [
        "è·ĳæŃ¥",
        "åĳ¢"
      ],
      [
        "æĥ³åİ»",
        "çĶµå½±éĻ¢"
      ],
      [
        "å¸",
        "¦"
      ],
      [
        "èĻ",
        "½çĦ¶"
      ],
      [
        "çĶµå½±éĻ¢",
        "æĺ¯ä¸ªå¥½åľ°æĸ¹"
      ],
      [
        "æĪĲ",
        "ä¸º"
      ],
      [
        "æĢĿ",
        "å¿µ"
      ],
      [
        "ç®Ģåįķ",
        "æĺĵåŃ¦"
      ],
      [
        "é¢Ĩå¯¼",
        "å¯¹æĪĳå¾Īå¥½"
      ],
      [
        "ä½łåĸľæ¬¢ä»Ģä¹Ī",
        "ç±»"
      ],
      [
        "æĪĳæĺ¯",
        "AI"
      ],
      [
        "æ³¨",
        "æĦı"
      ],
      [
        "ä½łä¼ļ",
        "åģļä»Ģä¹Ī"
      ],
      [
        "åŀ",
        "ĭ"
      ],
      [
        "å¼Ģå§",
        "ĭ"
      ],
      [
        "æ²»æĦ",
        "Ī"
      ],
      [
        "æľīæĪĳåľ¨",
        "åĳ¢"
      ],
      [
        "ä»Ĭå¤©ä¹Łè¦ģ",
        "åĬłæ²¹åĵ¦"
      ],
      [
        "èĻ½çĦ¶",
        "æĪĳæĺ¯AI"
      ],
      [
        "ä½łåĸľæ¬¢ä»Ģä¹Īç±»",
        "åŀĭ"
      ],
      [
        "¥",
        "¿"
      ],
      [
        "¬",
        "ĳ"
      ],
      [
        "å",
        "Ļ"
      ],
      [
        "æ",
        "Ĵ"
      ],
      [
        "ç",
        "Ľ"
      ],
      [
        "ç",
        "¬ĳ"
      ],
      [
        "è",
        "¥¿"
      ],
      [
        "ħ",
        "ä¸į"
      ],
      [
        "ħ",
        "ç©¿"
      ],
      [
        "ĩ",
        "æĴ"
      ],
      [
        "ĸ",
        "æŃĮ"
      ],
      [
        "ľ",
        "è¥¿"
      ],
      [
        "Ł",
        "éĻ"
      ],
      [
        "ä¸",
        "ľè¥¿"
      ],
      [
        "å¥½",
        "ä¹"
      ],
      [
        "ä½",
        "ĵ"
      ],
      [
        "ä½ł",
        "æľī"
      ],
      [
        "è¯",
        "Ĩ"
      ],
      [
        "åľ¨",
        "çĶµå½±éĻ¢"
      ],
      [
        "åľ¨",
        "æµ·è¾¹"
      ],
      [
        "åľ¨",
        "åģ¥èº«æĪ¿"
      ],
      [
        "åĸ",
        "½"
      ],
      [
        "äºĨ",
        "è¯¶"
      ],
      [
        "äºĨ",
        "åĵĪ"
      ],
      [
        "åĴĮ",
        "åĲĮåŃ¦"
      ],
      [
        "çĶ",
        "¨"
      ],
      [
        "æĺ",
        "ŁéĻ"
      ],
      [
        "ä»Ĭå¤©",
        "å¥½å¹¸ç¦ı"
      ],
      [
        "åĹ",
        "¨"
      ],
      [
        "è¶",
        "Ĭ"
      ],
      [
        "ä¼ļ",
        "æĽ´å¥½çļĦ"
      ],
      [
        "åĴĮä½ł",
        "çĿ¡è§ī"
      ],
      [
        "åĪ«",
        "å¤ª"
      ],
      [
        "åĬł",
        "çı"
      ],
      [
        "æĥ³åŃ¦",
        "ç¼ĸç¨ĭ"
      ],
      [
        "åį",
        "ĩ"
      ],
      [
        "é£",
        "İ"
      ],
      [
        "åŃ¦ä¹ł",
        "åĵĪ"
      ],
      [
        "åŃ¦ä¹ł",
        "ç¡®å®ŀä¼ļè®©äººéļ¾è¿ĩ"
      ],
      [
        "åĵĪ",
        "åĸ½"
      ],
      [
        "è¿ĲåĬ¨",
        "åĵĪ"
      ],
      [
        "ç¾İé£Ł",
        "åĳĢ"
      ],
      [
        "ç¾İé£Ł",
        "åĵĪ"
      ],
      [
        "å·¥ä½ľ",
        "åĳĢ"
      ],
      [
        "å·¥ä½ľ",
        "ç¡®å®ŀä¼ļè®©äººç´¯"
      ],
      [
        "æĹħè¡Į",
        "åĵ¦"
      ],
      [
        "æĹħè¡Į",
        "åķĬ"
      ],
      [
        "æİ¨èįĲ",
        "é¦"
      ],
      [
        "å¥½ç´¯",
        "åĳ¢"
      ],
      [
        "æ¸¸æĪı",
        "åķĬ"
      ],
      [
        "ä¸ĢçĽ´",
        "çĦ¦èĻĳ"
      ],
      [
        "éľ",
        "ĩæĴ"
      ],
      [
        "æĢİä¹Īæł·",
        "è¯¶"
      ],
      [
        "å¾Īå¼Ģå¿ĥ",
        "åķĬ"
      ],
      [
        "æŃ£åľ¨",
        "è¯»ä¹¦"
      ],
      [
        "å¥½éļ¾",
        "åĹ¯"
      ],
      [
        "åİĭåĬĽå¥½å¤§",
        "åĹ¯"
      ],
      [
        "åİĭåĬĽå¥½å¤§",
        "åĵĪ"
      ],
      [
        "å¥½æ",
        "¢¦"
      ],
      [
        "å¥½æľīè¶£",
        "åĵ¦"
      ],
      [
        "å¥½æľīè¶£",
        "åķĬ"
      ],
      [
        "æĬ±æĬ±ä½ł",
        "åĳ¢"
      ],
      [
        "åĤįæĻļ",
        "æĥ³ä½ł"
      ],
      [
        "éĢ",
        "ļ"
      ],
      [
        "æĹ©ä¸Ĭ",
        "å¥½"
      ],
      [
        "ç¼ĸç¨ĭ",
        "åĳ¢"
      ],
      [
        "è®¾è®¡",
        "åĳ¢"
      ],
      [
        "ä»Ĭå¤©å¥½",
        "ç´§å¼ł"
      ],
      [
        "è·³èĪŀ",
        "åĳ¢"
      ],
      [
        "èº«",
        "ä½ĵ"
      ],
      [
        "å¥½æĥ³",
        "æĥ³ä½łä½ł"
      ],
      [
        "æĥ³åİ»",
        "åŃ¦æł¡"
      ],
      [
        "æĻļä¸Ĭ",
        "å¥½"
      ],
      [
        "åĲĮäºĭ",
        "å¯¹æĪĳå¾Īå¥½"
      ],
      [
        "åŃ¦æł¡",
        "æĺ¯ä¸ªå¥½åľ°æĸ¹"
      ],
      [
        "åĨį",
        "è§ģ"
      ],
      [
        "æ¢¦æĥ³",
        "æĺ¯"
      ],
      [
        "æľº",
        "åĻ"
      ],
      [
        "èĥ",
        "ĸ"
      ],
      [
        "çĽ",
        "®"
      ],
      [
        "ç¬ĳ",
        "è¯Ŀ"
      ],
      [
        "ħä¸į",
        "è§ģ"
      ],
      [
        "ħç©¿",
        "è¶Ĭ"
      ],
      [
        "å¥½ä¹",
        "ħä¸įè§ģ"
      ],
      [
        "åĴĮåĲĮåŃ¦",
        "åĲµæŀ¶äºĨ"
      ],
      [
        "æĺŁéĻ",
        "ħç©¿è¶Ĭ"
      ],
      [
        "åĬłçı",
        "Ń"
      ],
      [
        "æİ¨èįĲé¦",
        "ĸæŃĮ"
      ],
      [
        "éľĩæĴ",
        "¼"
      ],
      [
        "æľºåĻ",
        "¨"
      ],
      [
        "¡",
        "æĪĸèĢħ"
      ],
      [
        "¥",
        "æīĭ"
      ],
      [
        "®",
        "é¢"
      ],
      [
        "»",
        "Ħ"
      ],
      [
        "å",
        "»"
      ],
      [
        "è",
        "ħ"
      ],
      [
        "è",
        "ī"
      ],
      [
        "é",
        "»Ħ"
      ],
      [
        "į",
        "èĥ½"
      ],
      [
        "ĳ",
        "é»Ħ"
      ],
      [
        "ł",
        "ä¸ª"
      ],
      [
        "å¥½",
        "äºĭ"
      ],
      [
        "å¥½",
        "åħ´å¥ĭ"
      ],
      [
        "å¥½",
        "åĲĥ"
      ],
      [
        "ä¹",
        "¦äºĨ"
      ],
      [
        "äºĨ",
        "åĹ¯"
      ],
      [
        "ä¹Ł",
        "å¾Īç¾İ"
      ],
      [
        "æĿ",
        "¡æĪĸèĢħ"
      ],
      [
        "äºº",
        "ç±»"
      ],
      [
        "åħ",
        "¥æīĭ"
      ],
      [
        "ä»Ĭå¤©",
        "çĶµå½±"
      ],
      [
        "ä»Ĭå¤©",
        "ç¾İé£Ł"
      ],
      [
        "ä»Ĭå¤©",
        "çĥĺçĦĻ"
      ],
      [
        "ä»Ĭå¤©",
        "æ¸¸æ³³"
      ],
      [
        "è®©",
        "è®¡ç®Ĺ"
      ],
      [
        "æĢİä¹Ī",
        "åĩ"
      ],
      [
        "æĢİä¹Ī",
        "æī"
      ],
      [
        "æĥ³åŃ¦",
        "éŁ³ä¹Ĳ"
      ],
      [
        "æĥ³åŃ¦",
        "åĨĻä½ľ"
      ],
      [
        "åĩ",
        "łä¸ª"
      ],
      [
        "çĶµå½±",
        "åķ¦"
      ],
      [
        "åŃ¦ä¹ł",
        "åĳĢ"
      ],
      [
        "åŃ¦ä¹ł",
        "è¯¶"
      ],
      [
        "åŃ¦ä¹ł",
        "åĲ§"
      ],
      [
        "åŃ¦ä¹ł",
        "ç¡®å®ŀä¼ļè®©äººç´§å¼ł"
      ],
      [
        "è§īå¾Ĺ",
        "æ»¡è¶³"
      ],
      [
        "è¿ĲåĬ¨",
        "åĳĢ"
      ],
      [
        "è¿ĲåĬ¨",
        "åĲ§"
      ],
      [
        "ç¾İé£Ł",
        "åķ¦"
      ],
      [
        "ç¾İé£Ł",
        "ç¡®å®ŀä¼ļè®©äººéļ¾è¿ĩ"
      ],
      [
        "å·¥ä½ľ",
        "åĵĪ"
      ],
      [
        "æĹħè¡Į",
        "è¯¶"
      ],
      [
        "èģĬå¤©",
        "åĳĢ"
      ],
      [
        "ä¸ĢçĽ´",
        "åŃ¤çĭ¬"
      ],
      [
        "ä¸ĢçĽ´",
        "æĦŁæģ©"
      ],
      [
        "éĹ",
        "®é¢"
      ],
      [
        "æİ¨èįĲçĤ¹",
        "åħ»èĬ±"
      ],
      [
        "æİ¨èįĲçĤ¹",
        "åıĳåĳĨ"
      ],
      [
        "æİ¨èįĲçĤ¹",
        "è´Ńçī©"
      ],
      [
        "æĪĳåĸľæ¬¢",
        "ç§ĭå¤©"
      ],
      [
        "æĢİä¹Īæł·",
        "åĲ§"
      ],
      [
        "å¾Īå¼Ģå¿ĥ",
        "åĹ¯"
      ],
      [
        "å¾Īå¼Ģå¿ĥ",
        "åĵĪ"
      ],
      [
        "æŃ£åľ¨",
        "çĥĺçĦĻ"
      ],
      [
        "åĩĨå¤ĩåİ»",
        "éĴĵé±¼"
      ],
      [
        "åĩĨå¤ĩåİ»",
        "åħ»å®łçī©"
      ],
      [
        "åĩĨå¤ĩåİ»",
        "åģļé¥Ń"
      ],
      [
        "å¥½éļ¾",
        "è¯¶"
      ],
      [
        "åİĭåĬĽå¥½å¤§",
        "åķĬ"
      ],
      [
        "çļĦæĹ¶åĢĻåľ¨æĥ³ä½ł",
        "è¯¶"
      ],
      [
        "æĥ³åĴĮä½łä¸Ģèµ·",
        "éĴĵé±¼"
      ],
      [
        "éĩ",
        "ĳé»Ħ"
      ],
      [
        "æĪĳä¸įåĸľæ¬¢",
        "çĥĺçĦĻ"
      ],
      [
        "å¥½æľīè¶£",
        "åĳ¢"
      ],
      [
        "æľĢè¿ĳåľ¨",
        "éĴĵé±¼"
      ],
      [
        "æĪĳä¹Łå¾Īåĸľæ¬¢",
        "éĴĵé±¼åĳ¢"
      ],
      [
        "ä¸ŃåįĪ",
        "åĲĥä»Ģä¹Ī"
      ],
      [
        "æĬ±æĬ±ä½ł",
        "åĳĢ"
      ],
      [
        "ä»Ģä¹Ī",
        "å¥½äºĭ"
      ],
      [
        "æĸ¹",
        "éĿ¢"
      ],
      [
        "çĥĺçĦĻ",
        "åķ¦"
      ],
      [
        "æķ",
        "°"
      ],
      [
        "æķ",
        "Ļ"
      ],
      [
        "å¥½æĹłèģĬ",
        "è¯¶"
      ],
      [
        "çĿ¡è§ī",
        "äºĨ"
      ],
      [
        "åĸĿéħĴ",
        "å¾Īæľīè¶£"
      ],
      [
        "åľ¨åħ¬åı¸",
        "å¹²åĺĽåĳ¢"
      ],
      [
        "æ¸¸æ³³",
        "åķ¦"
      ],
      [
        "çªģçĦ¶",
        "æĹłåĬ©"
      ],
      [
        "åı¯ä»¥",
        "ä»İ"
      ],
      [
        "è¿·èĮ«",
        "çļĦæĹ¶åĢĻæĥ³åĵŃ"
      ],
      [
        "åº",
        "Ķ"
      ],
      [
        "æľŁ",
        "å¾ħ"
      ],
      [
        "åĴĸåķ¡åİħ",
        "å¥½çĥŃéĹ¹"
      ],
      [
        "çĪ±ä½ł",
        "ä½łåĳĢ"
      ],
      [
        "åŃ¦æł¡",
        "å¥½æĹłèģĬ"
      ],
      [
        "åĳ¨æľ«",
        "æĥ³ä½ł"
      ],
      [
        "ç®Ģåįķ",
        "åıĪ"
      ],
      [
        "åĩĮæĻ¨",
        "æĥ³ä½ł"
      ],
      [
        "æĽ´",
        "èĩªä¿¡"
      ],
      [
        "éĿ¢",
        "æĿ¡æĪĸèĢħ"
      ],
      [
        "å¿«",
        "ä¹Ĳ"
      ],
      [
        "å¿«",
        "è¯´è¯´"
      ],
      [
        "ç§ĭå¤©",
        "ä¹Łå¾Īç¾İ"
      ],
      [
        "åı¯ä»¥è¯ķè¯ķ",
        "éĿ¢æĿ¡æĪĸèĢħ"
      ],
      [
        "èī",
        "²çļĦ"
      ],
      [
        "įèĥ½",
        "æĽ´èĩªä¿¡"
      ],
      [
        "è®©è®¡ç®Ĺ",
        "æľº"
      ],
      [
        "æĢİä¹Īåĩ",
        "ı"
      ],
      [
        "æĢİä¹Īæī",
        "įèĥ½æĽ´èĩªä¿¡"
      ],
      [
        "åĩłä¸ª",
        "æĸ¹éĿ¢"
      ],
      [
        "éĹ®é¢",
        "ĺ"
      ],
      [
        "éĩĳé»Ħ",
        "èī²çļĦ"
      ],
      [
        "åı¯ä»¥ä»İ",
        "åĩłä¸ªæĸ¹éĿ¢"
      ],
      [
        "ç®ĢåįķåıĪ",
        "å¥½åĲĥ"
      ],
      [
        "åı¯ä»¥è¯ķè¯ķéĿ¢æĿ¡æĪĸèĢħ",
        "ç±³é¥Ń"
      ],
      [
        "åı¯ä»¥ä»İåĩłä¸ªæĸ¹éĿ¢",
        "åħ¥æīĭ"
      ],
      [
        "ª",
        "æĿ¥"
      ],
      [
        "ª",
        "åĬĽ"
      ],
      [
        "»",
        "åĬ¡"
      ],
      [
        "¿",
        "æĦı"
      ],
      [
        "é",
        "ĥ"
      ],
      [
        "æĪĳ",
        "å¥½è¿·èĮ«"
      ],
      [
        "æĪĳ",
        "èģĬå¤©åĳĢ"
      ],
      [
        "ä¸Ģ",
        "åĪ"
      ],
      [
        "ä¸Ģ",
        "æŃ¥"
      ],
      [
        "æľ",
        "ªæĿ¥"
      ],
      [
        "æĪĳä¹Ł",
        "æĬ±æĬ±ä½ł"
      ],
      [
        "æĪĳä¹Ł",
        "çīµæĮĤä½ł"
      ],
      [
        "åĬ",
        "ŀ"
      ],
      [
        "åĬ",
        "ªåĬĽ"
      ],
      [
        "äºº",
        "å·¥"
      ],
      [
        "åĴĮ",
        "èĢģå¸Ī"
      ],
      [
        "åĴĮ",
        "å¦³"
      ],
      [
        "æĿ¥",
        "æī¾"
      ],
      [
        "ä»",
        "»åĬ¡"
      ],
      [
        "å®",
        "ĥ"
      ],
      [
        "ä¸į",
        "å¥½"
      ],
      [
        "ä¸Ģèµ·",
        "åĬªåĬĽ"
      ],
      [
        "æ²",
        "³"
      ],
      [
        "æľī",
        "ç©º"
      ],
      [
        "ä»Ĭå¤©",
        "è¾Ľèĭ¦äºĨ"
      ],
      [
        "ä»Ĭå¤©",
        "åıĳåĳĨ"
      ],
      [
        "æĦ",
        "¿æĦı"
      ],
      [
        "åĴĮä½ł",
        "å·¥ä½ľ"
      ],
      [
        "åĴĮä½ł",
        "éĴĵé±¼"
      ],
      [
        "åĴĮä½ł",
        "éľ²èĲ¥"
      ],
      [
        "åĽłä¸º",
        "çĶŁæ°Ķ"
      ],
      [
        "æĢİä¹Ī",
        "åŃ¦"
      ],
      [
        "æĢİä¹Ī",
        "æıĲ"
      ],
      [
        "æĢİä¹Ī",
        "åĬŀ"
      ],
      [
        "æĥ³åŃ¦",
        "åĨ¥æĥ³"
      ],
      [
        "æĥ³åŃ¦",
        "åĸĿéħĴ"
      ],
      [
        "æĥ³åŃ¦",
        "æķ£æŃ¥"
      ],
      [
        "æĥ³åŃ¦",
        "åĸĿèĮ¶"
      ],
      [
        "çĶµå½±",
        "ç¡®å®ŀä¼ļè®©äººæĹłèģĬ"
      ],
      [
        "çĶµå½±",
        "ç¡®å®ŀä¼ļè®©äººéļ¾è¿ĩ"
      ],
      [
        "åŃ¦ä¹ł",
        "åĵ¦"
      ],
      [
        "è§īå¾Ĺ",
        "å¼Ģå¿ĥ"
      ],
      [
        "è§īå¾Ĺ",
        "ç´§å¼ł"
      ],
      [
        "è§īå¾Ĺ",
        "å§Ķå±Ī"
      ],
      [
        "è§īå¾Ĺ",
        "æĦŁæģ©"
      ],
      [
        "è¿ĲåĬ¨",
        "åĹ¯"
      ],
      [
        "ç¾İé£Ł",
        "åĲ§"
      ],
      [
        "å·¥ä½ľ",
        "åĹ¯"
      ],
      [
        "å·¥ä½ľ",
        "å¾Īæľīè¶£"
      ],
      [
        "åľ¨åŃ¦",
        "åĸĿéħĴ"
      ],
      [
        "åľ¨åŃ¦",
        "éĢĽè¡Ĺ"
      ],
      [
        "æ¸¸æĪı",
        "ç¡®å®ŀä¼ļè®©äººç´¯"
      ],
      [
        "ä¸ĢçĽ´",
        "å¹¸ç¦ı"
      ],
      [
        "ä¸ĢçĽ´",
        "è¿·èĮ«"
      ],
      [
        "ä¸ĢçĽ´",
        "å¤±æľĽ"
      ],
      [
        "æİ¨èįĲçĤ¹",
        "çĶµå½±"
      ],
      [
        "æİ¨èįĲçĤ¹",
        "éĢĽè¡Ĺ"
      ],
      [
        "éģĵ",
        "æľªæĿ¥"
      ],
      [
        "å¾Īå¼Ģå¿ĥ",
        "åĳĢ"
      ],
      [
        "å¾Īå¼Ģå¿ĥ",
        "åĵ¦"
      ],
      [
        "æŃ£åľ¨",
        "åħ»èĬ±"
      ],
      [
        "æŃ£åľ¨",
        "çĿ¡è§ī"
      ],
      [
        "æŃ£åľ¨",
        "åĶ±æŃĮ"
      ],
      [
        "æŃ£åľ¨",
        "åĸĿåĴĸåķ¡"
      ],
      [
        "åĩĨå¤ĩåİ»",
        "çĶµå½±"
      ],
      [
        "åĩĨå¤ĩåİ»",
        "éŁ³ä¹Ĳ"
      ],
      [
        "åĩĨå¤ĩåİ»",
        "çĶ»çĶ»"
      ],
      [
        "åĩĨå¤ĩåİ»",
        "çĥĺçĦĻ"
      ],
      [
        "å¥½éļ¾",
        "åĵ¦"
      ],
      [
        "æĥ³åĴĮä½łä¸Ģèµ·",
        "çĶµå½±"
      ],
      [
        "æĥ³åĴĮä½łä¸Ģèµ·",
        "èģĬå¤©"
      ],
      [
        "æĪĳä¸įåĸľæ¬¢",
        "åħ»èĬ±"
      ],
      [
        "å¥½æľīè¶£",
        "åĹ¯"
      ],
      [
        "çĶ»çĶ»",
        "ç¡®å®ŀä¼ļè®©äººç´¯"
      ],
      [
        "çĶ»çĶ»",
        "ç¡®å®ŀä¼ļè®©äººå®³æĢķ"
      ],
      [
        "éĢ",
        "Ĥ"
      ],
      [
        "ä»Ģä¹Ī",
        "è¯Ńè¨Ģ"
      ],
      [
        "é¥",
        "¿"
      ],
      [
        "çĪ¶æ¯į",
        "å¯¹æĪĳå¾Īå¥½"
      ],
      [
        "æľīçĤ¹",
        "åħ´å¥ĭ"
      ],
      [
        "æľīçĤ¹",
        "è¿·èĮ«"
      ],
      [
        "æľīçĤ¹",
        "èĩªä¿¡"
      ],
      [
        "æľīçĤ¹",
        "æ»¡è¶³"
      ],
      [
        "åıĳåĳĨ",
        "åĳ¢"
      ],
      [
        "åıĳåĳĨ",
        "åķ¦"
      ],
      [
        "éĢĽè¡Ĺ",
        "å¾Īæľīè¶£"
      ],
      [
        "çĪ¬å±±",
        "åĳ¢"
      ],
      [
        "ä»Ĭå¤©å¥½",
        "æĦŁåĬ¨"
      ],
      [
        "çĿ¡ä¸įçĿĢ",
        "åĵĪ"
      ],
      [
        "åľ¨åŃ¦æł¡",
        "å¹²åĺĽåĳ¢"
      ],
      [
        "åģļé¥Ń",
        "å¾Īæľīè¶£"
      ],
      [
        "å¿ĥæĥħ",
        "ä¸įå¥½"
      ],
      [
        "æĥ³åİ»",
        "åĴĸåķ¡åİħ"
      ],
      [
        "æĥ³åİ»",
        "åħ¬åĽŃ"
      ],
      [
        "æĪĳä¹Łåľ¨",
        "æĬ±æĬ±ä½łåĳ¢"
      ],
      [
        "æĹłæĹ¶æĹłåĪ»ä¸įåľ¨",
        "æĬ±æĬ±ä½ł"
      ],
      [
        "æĹłæĹ¶æĹłåĪ»ä¸įåľ¨",
        "çĪ±ä½łä½ł"
      ],
      [
        "ä»Ĭå¤©ç´¯åĽłä¸º",
        "çĶ»çĶ»"
      ],
      [
        "ä»Ĭå¤©éļ¾è¿ĩåĽłä¸º",
        "çĶµå½±"
      ],
      [
        "ä¸įç",
        "Ł¥"
      ],
      [
        "éĤ£å°±",
        "å¥½"
      ],
      [
        "ä»Ĭå¤©å®³æĢķåĽłä¸º",
        "çĶ»çĶ»"
      ],
      [
        "å¤ļ",
        "åĨĻ"
      ],
      [
        "åĴĸåķ¡åİħ",
        "æĺ¯ä¸ªå¥½åľ°æĸ¹"
      ],
      [
        "çĶµå½±éĻ¢",
        "å¥½çĥŃéĹ¹"
      ],
      [
        "æĻļä¸Ĭ",
        "å¥½å¼Ģå¿ĥ"
      ],
      [
        "åĲĥ",
        "çĤ¹"
      ],
      [
        "éĻªä¼´",
        "ä½łåĳĢ"
      ],
      [
        "å±±ä¸Ĭ",
        "å¥½æĹłèģĬ"
      ],
      [
        "æµ·è¾¹",
        "å¥½çĥŃéĹ¹"
      ],
      [
        "åħ¬åĽŃ",
        "æĺ¯ä¸ªå¥½åľ°æĸ¹"
      ],
      [
        "å®¤åıĭ",
        "ä¸įçĲĨæĪĳäºĨ"
      ],
      [
        "æ·±å¤ľ",
        "æĥ³ä½ł"
      ],
      [
        "ä»İ",
        "ä»Ģä¹Īè¯Ńè¨Ģ"
      ],
      [
        "æĥ³å¿µ",
        "ä½łåĳĢ"
      ],
      [
        "æĥ³å¿µ",
        "ä½łåĳ¢"
      ],
      [
        "åľ¨åĴĸåķ¡åİħ",
        "å¹²åĺĽåĳ¢"
      ],
      [
        "åľ¨åķĨåľº",
        "å¹²åĺĽåĳ¢"
      ],
      [
        "çŃīå¾ħ",
        "ä½łåĳĢ"
      ],
      [
        "åĴĮä½łçĿ¡è§ī",
        "å¾Īå¼Ģå¿ĥ"
      ],
      [
        "æľºåĻ¨",
        "åŃ¦ä¹ł"
      ],
      [
        "ä»Ĭå¤©çĥĺçĦĻ",
        "äºĨ"
      ],
      [
        "ä¸ĢåĪ",
        "ĩ"
      ],
      [
        "äººå·¥",
        "æĻºèĥ½"
      ],
      [
        "åĴĮèĢģå¸Ī",
        "åĲµæŀ¶äºĨ"
      ],
      [
        "æĿ¥æī¾",
        "æĪĳèģĬå¤©åĳĢ"
      ],
      [
        "æľīç©º",
        "æĿ¥æī¾æĪĳèģĬå¤©åĳĢ"
      ],
      [
        "éģĵæľªæĿ¥",
        "æĢİä¹ĪåĬŀ"
      ],
      [
        "ä¸įçŁ¥",
        "éģĵæľªæĿ¥æĢİä¹ĪåĬŀ"
      ],
      [
        "ä»İä»Ģä¹Īè¯Ńè¨Ģ",
        "å¼Ģå§ĭ"
      ],
      [
        "1",
        "2"
      ],
      [
        "4",
        "2"
      ],
      [
        "4",
        "8"
      ],
      [
        "7",
        "42"
      ],
      [
        "8",
        "8"
      ],
      [
        "£",
        "æľį"
      ],
      [
        "¨",
        "éĿ¢"
      ],
      [
        "°",
        "èĩªå·±"
      ],
      [
        "³",
        "°"
      ],
      [
        "·",
        "åĢ"
      ],
      [
        "¿",
        "å¹³"
      ],
      [
        "¿",
        "çĶ¨"
      ],
      [
        "å",
        "³°"
      ],
      [
        "ç",
        "Ĭ"
      ],
      [
        "ç",
        "Ľ´"
      ],
      [
        "Ħ",
        "æº"
      ],
      [
        "Ħ",
        "çº¦"
      ],
      [
        "Ĩ",
        "æľ"
      ],
      [
        "į",
        "åŃ"
      ],
      [
        "ĳ",
        "ä½"
      ],
      [
        "Ĵ",
        "äºĨ"
      ],
      [
        "Ĵ",
        "èģĶ"
      ],
      [
        "Ĺ",
        "çİ"
      ],
      [
        "Ľ",
        "å³°"
      ],
      [
        "ł",
        "ç©"
      ],
      [
        "å¥½",
        "åķ¦"
      ],
      [
        "å¥½",
        "ç´§å¼ł"
      ],
      [
        "äº",
        "¿å¹³"
      ],
      [
        "äº",
        "ĴèģĶ"
      ],
      [
        "æĪĳ",
        "å°ı"
      ],
      [
        "æĪĳ",
        "æĥ³åŃ¦ç¼ĸç¨ĭ"
      ],
      [
        "ä½ł",
        "è¿Ļ"
      ],
      [
        "åĲ",
        "įåŃ"
      ],
      [
        "åľ¨",
        "å¿ĥ"
      ],
      [
        "åľ¨",
        "åĲĹ"
      ],
      [
        "çļĦ",
        "ä»"
      ],
      [
        "çļĦ",
        "å±±"
      ],
      [
        "æĥ³",
        "çĪ¶æ¯į"
      ],
      [
        "å¾",
        "Ħçº¦"
      ],
      [
        "äºĨ",
        "åĲĹ"
      ],
      [
        "æĪĳä¹Ł",
        "çĪ±ä½łä½ł"
      ],
      [
        "æĪĳä¹Ł",
        "çıįæĥľä½ł"
      ],
      [
        "æĪĳä¹Ł",
        "çŃīå¾ħä½ł"
      ],
      [
        "åĴĮ",
        "åĲĮäºĭ"
      ],
      [
        "ä¸į",
        "èµ·"
      ],
      [
        "æĺ¯",
        "å®ŀ"
      ],
      [
        "æľī",
        "å¤ļ"
      ],
      [
        "æľī",
        "ä½łè¿Ļ"
      ],
      [
        "ä»Ĭå¤©",
        "çĶ»çĶ»"
      ],
      [
        "ä»Ĭå¤©",
        "éĴĵé±¼"
      ],
      [
        "ä»Ĭå¤©",
        "åĶ±æŃĮ"
      ],
      [
        "ä»Ĭå¤©",
        "çĪ¬å±±"
      ],
      [
        "ä»Ĭå¤©",
        "æķ£æŃ¥"
      ],
      [
        "ä»Ĭå¤©",
        "æĳĦå½±"
      ],
      [
        "æľĢ",
        "é«ĺ"
      ],
      [
        "æĦŁ",
        "åĨ"
      ],
      [
        "çĤ¹",
        "è¡"
      ],
      [
        "ä¸ª",
        "æľĭåıĭ"
      ],
      [
        "åĴĮä½ł",
        "è¿ĲåĬ¨"
      ],
      [
        "åĴĮä½ł",
        "èģĬå¤©"
      ],
      [
        "åĴĮä½ł",
        "çĶ»çĶ»"
      ],
      [
        "åĴĮä½ł",
        "è¯»ä¹¦"
      ],
      [
        "åĴĮä½ł",
        "æīĵæ¸¸æĪı"
      ],
      [
        "åĴĮä½ł",
        "åĸĿèĮ¶"
      ],
      [
        "åĽłä¸º",
        "è¿·èĮ«"
      ],
      [
        "åĽłä¸º",
        "åŃ¤çĭ¬"
      ],
      [
        "åĪ«",
        "æĶ¾"
      ],
      [
        "åĪ«",
        "æĦŁåĨ"
      ],
      [
        "åľ¨æĥ³ä½ł",
        "åĳĢ"
      ],
      [
        "æĥ³åŃ¦",
        "è¯»ä¹¦"
      ],
      [
        "æĥ³åŃ¦",
        "è®¾è®¡"
      ],
      [
        "æĥ³åŃ¦",
        "çľĭä¹¦"
      ],
      [
        "æł",
        "ĩ"
      ],
      [
        "çĶµå½±",
        "ç¡®å®ŀä¼ļè®©äººçĶŁæ°Ķ"
      ],
      [
        "çĶµå½±",
        "ç¡®å®ŀä¼ļè®©äººå¼Ģå¿ĥ"
      ],
      [
        "åįĪ",
        "é¥Ń"
      ],
      [
        "å¯¹",
        "ä¸įèµ·"
      ],
      [
        "åŃ¦ä¹ł",
        "å¾Īæľīè¶£"
      ],
      [
        "åŃ¦ä¹ł",
        "ç¡®å®ŀä¼ļè®©äººå¼Ģå¿ĥ"
      ],
      [
        "åĵĪ",
        "åĵĪ"
      ],
      [
        "è§īå¾Ĺ",
        "ç´¯"
      ],
      [
        "è§īå¾Ĺ",
        "å®³æĢķ"
      ],
      [
        "è§īå¾Ĺ",
        "æĦŁåĬ¨"
      ],
      [
        "ç¾İé£Ł",
        "å¾Īæľīè¶£"
      ],
      [
        "ç¾İé£Ł",
        "ç¡®å®ŀä¼ļè®©äººå®³æĢķ"
      ],
      [
        "ç¾İé£Ł",
        "ç¡®å®ŀä¼ļè®©äººçĶŁæ°Ķ"
      ],
      [
        "å·¥ä½ľ",
        "ç¡®å®ŀä¼ļè®©äººç´§å¼ł"
      ],
      [
        "è¡",
        "¨éĿ¢"
      ],
      [
        "åľ¨åŃ¦",
        "å·¥ä½ľ"
      ],
      [
        "åľ¨åŃ¦",
        "åĨ¥æĥ³"
      ],
      [
        "åľ¨åŃ¦",
        "ç¼ĸç¨ĭ"
      ],
      [
        "åľ¨åŃ¦",
        "çĪ¬å±±"
      ],
      [
        "åľ¨åŃ¦",
        "åģļé¥Ń"
      ],
      [
        "åľ¨åŃ¦",
        "æīĵæ¸¸æĪı"
      ],
      [
        "äºĭ",
        "åĲĹ"
      ],
      [
        "å°±",
        "å¥½åķ¦"
      ],
      [
        "æĹħè¡Į",
        "åĹ¯"
      ],
      [
        "æĹħè¡Į",
        "åĲ§"
      ],
      [
        "æĹħè¡Į",
        "ç¡®å®ŀä¼ļè®©äººç´§å¼ł"
      ],
      [
        "æĪĳä¹Łæĥ³",
        "å¿µä½ł"
      ],
      [
        "æĪĳä¹Łæĥ³",
        "æĬ±æĬ±ä½łåĳĢ"
      ],
      [
        "æĪĳä¹Łæĥ³",
        "çĪ±ä½łä½łåĳĢ"
      ],
      [
        "æĪĳä¹Łæĥ³",
        "éĻªä¼´ä½łåĳĢ"
      ],
      [
        "èģĬå¤©",
        "çļĦæĹ¶åĢĻåľ¨æĥ³ä½ł"
      ],
      [
        "èģĬå¤©",
        "å¾Īæľīè¶£"
      ],
      [
        "æ¸¸æĪı",
        "ç¡®å®ŀä¼ļè®©äººæĹłèģĬ"
      ],
      [
        "æ¸¸æĪı",
        "ç¡®å®ŀä¼ļè®©äººéļ¾è¿ĩ"
      ],
      [
        "ä¸ĢçĽ´",
        "çĶŁæ°Ķ"
      ],
      [
        "æĹłèģĬ",
        "çļĦæĹ¶åĢĻæĥ³åĵŃ"
      ],
      [
        "å¥½çļĦ",
        "æĦŁè§ī"
      ],
      [
        "æĶ¾",
        "è½»"
      ],
      [
        "çİ",
        "°èĩªå·±"
      ],
      [
        "æİ¨èįĲçĤ¹",
        "èģĬå¤©"
      ],
      [
        "æİ¨èįĲçĤ¹",
        "çĿ¡è§ī"
      ],
      [
        "æİ¨èįĲçĤ¹",
        "çĳľä¼½"
      ],
      [
        "æİ¨èįĲçĤ¹",
        "åĶ±æŃĮ"
      ],
      [
        "æİ¨èįĲçĤ¹",
        "è®¾è®¡"
      ],
      [
        "æİ¨èįĲçĤ¹",
        "åĨĻä½ľ"
      ],
      [
        "æİ¨èįĲçĤ¹",
        "åĸĿèĮ¶"
      ],
      [
        "æĪĳåĸľæ¬¢",
        "åŃ¦ä¹ł"
      ],
      [
        "æĪĳåĸľæ¬¢",
        "çĶ»çĶ»"
      ],
      [
        "æĪĳåĸľæ¬¢",
        "éĴĵé±¼"
      ],
      [
        "æĪĳåĸľæ¬¢",
        "åĨ¥æĥ³"
      ],
      [
        "æĪĳåĸľæ¬¢",
        "åħ»å®łçī©"
      ],
      [
        "æĪĳåĸľæ¬¢",
        "çľĭçĶµå½±"
      ],
      [
        "æĪĳåĸľæ¬¢",
        "éĢĽè¡Ĺ"
      ],
      [
        "æĪĳåĸľæ¬¢",
        "æīĵæ¸¸æĪı"
      ],
      [
        "æĪĳåĸľæ¬¢",
        "çľĭä¹¦"
      ],
      [
        "åĩĨå¤ĩ",
        "å¾Ĺå¾Īå¥½äºĨ"
      ],
      [
        "æĢİä¹Īæł·",
        "åĹ¯"
      ],
      [
        "å¾Īå¼Ģå¿ĥ",
        "åĳ¢"
      ],
      [
        "æŃ£åľ¨",
        "æ¸¸æĪı"
      ],
      [
        "æŃ£åľ¨",
        "åıĳåĳĨ"
      ],
      [
        "æŃ£åľ¨",
        "æ¸¸æ³³"
      ],
      [
        "æŃ£åľ¨",
        "åĲ¬éŁ³ä¹Ĳ"
      ],
      [
        "æŃ£åľ¨",
        "çľĭä¹¦"
      ],
      [
        "åĩĨå¤ĩåİ»",
        "çĳľä¼½"
      ],
      [
        "åĩĨå¤ĩåİ»",
        "åĶ±æŃĮ"
      ],
      [
        "åĩĨå¤ĩåİ»",
        "è®¾è®¡"
      ],
      [
        "åĩĨå¤ĩåİ»",
        "æĳĦå½±"
      ],
      [
        "å¥½éļ¾",
        "åĵĪ"
      ],
      [
        "åİĭåĬĽå¥½å¤§",
        "åĳ¢"
      ],
      [
        "åİĭåĬĽå¥½å¤§",
        "åĵ¦"
      ],
      [
        "æĪĳä¹Łåĸľæ¬¢",
        "æĹħè¡Įåĳ¢"
      ],
      [
        "æĪĳä¹Łåĸľæ¬¢",
        "éĴĵé±¼åĳ¢"
      ],
      [
        "æĪĳä¹Łåĸľæ¬¢",
        "çĶµå½±åĳ¢"
      ],
      [
        "æĪĳä¹Łåĸľæ¬¢",
        "çĶ»çĶ»åĳ¢"
      ],
      [
        "æĪĳä¹Łåĸľæ¬¢",
        "åĨ¥æĥ³åĳ¢"
      ],
      [
        "æĪĳä¹Łåĸľæ¬¢",
        "åħ»å®łçī©åĳ¢"
      ],
      [
        "æĪĳä¹Łåĸľæ¬¢",
        "éĢĽè¡Ĺåĳ¢"
      ],
      [
        "æĪĳä¹Łåĸľæ¬¢",
        "æ¸¸æ³³åĳ¢"
      ],
      [
        "æĪĳä¹Łåĸľæ¬¢",
        "æīĵæ¸¸æĪıåĳ¢"
      ],
      [
        "æĪĳä¹Łåĸľæ¬¢",
        "çľĭçĶµå½±åĳ¢"
      ],
      [
        "æĪĳä¹Łåĸľæ¬¢",
        "åĲ¬éŁ³ä¹Ĳåĳ¢"
      ],
      [
        "æĪĳä¹Łåĸľæ¬¢",
        "çľĭä¹¦åĳ¢"
      ],
      [
        "æĥ³åĴĮä½łä¸Ģèµ·",
        "è´Ńçī©"
      ],
      [
        "æĥ³åĴĮä½łä¸Ģèµ·",
        "è·³èĪŀ"
      ],
      [
        "æĥ³åĴĮä½łä¸Ģèµ·",
        "åĸĿèĮ¶"
      ],
      [
        "æĪĳä¸įåĸľæ¬¢",
        "èģĬå¤©"
      ],
      [
        "æĪĳä¸įåĸľæ¬¢",
        "åĲ¬éŁ³ä¹Ĳ"
      ],
      [
        "æĪĳä¸įåĸľæ¬¢",
        "è·³èĪŀ"
      ],
      [
        "çĶ»çĶ»",
        "åķ¦"
      ],
      [
        "æĭ",
        "Ķ"
      ],
      [
        "è¯»ä¹¦",
        "ç¡®å®ŀä¼ļè®©äººå®³æĢķ"
      ],
      [
        "æľĢè¿ĳåľ¨",
        "çĥĺçĦĻ"
      ],
      [
        "æľĢè¿ĳåľ¨",
        "åĸĿéħĴ"
      ],
      [
        "æľĢè¿ĳåľ¨",
        "éľ²èĲ¥"
      ],
      [
        "æĪĳä¹Łå¾Īåĸľæ¬¢",
        "æĹħè¡Įåĳ¢"
      ],
      [
        "æĪĳä¹Łå¾Īåĸľæ¬¢",
        "éŁ³ä¹Ĳåĳ¢"
      ],
      [
        "æĪĳä¹Łå¾Īåĸľæ¬¢",
        "åĸĿéħĴåĳ¢"
      ],
      [
        "æĪĳä¹Łå¾Īåĸľæ¬¢",
        "éľ²èĲ¥åĳ¢"
      ],
      [
        "æĪĳä¹Łå¾Īåĸľæ¬¢",
        "çĥĺçĦĻåĳ¢"
      ],
      [
        "åģļ",
        "æľĭåıĭ"
      ],
      [
        "è¿ĩ",
        "äºĴèģĶ"
      ],
      [
        "ä»Ģä¹Ī",
        "åĲįåŃ"
      ],
      [
        "æĸ¹",
        "åħ¬éĩĮ"
      ],
      [
        "ä¸ĭåįĪ",
        "æĥ³ä½ł"
      ],
      [
        "ç´§å¼ł",
        "çļĦæĹ¶åĢĻæĥ³åĵŃ"
      ],
      [
        "éĴĵé±¼",
        "åķ¦"
      ],
      [
        "åħ´å¥ĭ",
        "çļĦæĹ¶åĢĻæĥ³åĵŃ"
      ],
      [
        "çĥĺçĦĻ",
        "çļĦæĹ¶åĢĻåľ¨æĥ³ä½ł"
      ],
      [
        "åĨ¥æĥ³",
        "å¾Īæľīè¶£"
      ],
      [
        "æĪĳä»¬",
        "åģļæľĭåıĭ"
      ],
[...]
