{
  "version": "1.0",
  "truncation": null,
  "padding": null,
  "added_tokens": [
    {
      "id": 0,
      "content": "[PAD]",
      "single_word": false,
      "lstrip": false,
      "rstrip": false,
      "normalized": false,
      "special": true
    },
    {
      "id": 1,
      "content": "[UNK]",
      "single_word": false,
      "lstrip": false,
      "rstrip": false,
      "normalized": false,
      "special": true
    },
    {
      "id": 2,
      "content": "[CLS]",
      "single_word": false,
      "lstrip": false,
      "rstrip": false,
      "normalized": false,
      "special": true
    },
    {
      "id": 3,
      "content": "[SEP]",
      "single_word": false,
      "lstrip": false,
      "rstrip": false,
      "normalized": false,
      "special": true
    },
    {
      "id": 4,
      "content": "[END]",
      "single_word": false,
      "lstrip": false,
      "rstrip": false,
      "normalized": false,
      "special": true
    },
    {
      "id": 5,
      "content": "[BOS]",
      "single_word": false,
      "lstrip": false,
      "rstrip": false,
      "normalized": false,
      "special": true
    },
    {
      "id": 6,
      "content": "[EOS]",
      "single_word": false,
      "lstrip": false,
      "rstrip": false,
      "normalized": false,
      "special": true
    }
  ],
  "normalizer": null,
  "pre_tokenizer": {
    "type": "ByteLevel",
    "add_prefix_space": false,
    "trim_offsets": true,
    "use_regex": true
  },
  "post_processor": null,
  "decoder": null,
  "model": {
    "type": "BPE",
    "dropout": null,
    "unk_token": "[UNK]",
    "continuing_subword_prefix": null,
    "end_of_word_suffix": null,
    "fuse_unk": false,
    "byte_fallback": false,
    "ignore_merges": false,
    "vocab": {
      "[PAD]": 0,
      "[UNK]": 1,
      "[CLS]": 2,
      "[SEP]": 3,
      "[END]": 4,
      "[BOS]": 5,
      "[EOS]": 6,
      ".": 7,
      "0": 8,
      "1": 9,
      "2": 10,
      "3": 11,
      "4": 12,
      "5": 13,
      "8": 14,
      "A": 15,
      "C": 16,
      "G": 17,
      "I": 18,
      "L": 19,
      "P": 20,
      "W": 21,
      "b": 22,
      "d": 23,
      "e": 24,
      "h": 25,
      "n": 26,
      "o": 27,
      "t": 28,
      "y": 29,
      "¡": 30,
      "¢": 31,
      "£": 32,
      "¤": 33,
      "¥": 34,
      "¦": 35,
      "§": 36,
      "¨": 37,
      "©": 38,
      "ª": 39,
      "«": 40,
      "¬": 41,
      "®": 42,
      "¯": 43,
      "°": 44,
      "±": 45,
      "²": 46,
      "³": 47,
      "´": 48,
      "µ": 49,
      "¶": 50,
      "·": 51,
      "¸": 52,
      "¹": 53,
      "º": 54,
      "»": 55,
      "¼": 56,
      "½": 57,
      "¾": 58,
      "¿": 59,
      "â": 60,
      "ã": 61,
      "ä": 62,
      "å": 63,
      "æ": 64,
      "ç": 65,
      "è": 66,
      "é": 67,
      "ï": 68,
      "Ċ": 69,
      "Ġ": 70,
      "Ģ": 71,
      "ģ": 72,
      "Ĥ": 73,
      "ĥ": 74,
      "Ħ": 75,
      "ħ": 76,
      "Ĩ": 77,
      "ĩ": 78,
      "Ī": 79,
      "ī": 80,
      "Ĭ": 81,
      "ĭ": 82,
      "Į": 83,
      "į": 84,
      "İ": 85,
      "ı": 86,
      "Ĳ": 87,
      "ĳ": 88,
      "Ĵ": 89,
      "ĵ": 90,
      "Ķ": 91,
      "ķ": 92,
      "ĸ": 93,
      "Ĺ": 94,
      "ĺ": 95,
      "Ļ": 96,
      "ļ": 97,
      "Ľ": 98,
      "ľ": 99,
      "Ŀ": 100,
      "ŀ": 101,
      "Ł": 102,
      "ł": 103,
      "Ń": 104,
      "ï¼": 105,
      "ï¼Į": 106,
      "ä¸": 107,
      "è¯": 108,
      "ä¹": 109,
      "½ŀ": 110,
      "ï½ŀ": 111,
      "äº": 112,
      "å¤": 113,
      "ä»": 114,
      "ä¹Ī": 115,
      "ä½": 116,
      "çļ": 117,
      "çļĦ": 118,
      "æľ": 119,
      "æĺ": 120,
      "è®": 121,
      "åĲ": 122,
      "å¥": 123,
      "åĪ": 124,
      "å¥½": 125,
      "æĺ¯": 126,
      "åĳ": 127,
      "æĢ": 128,
      "äºĨ": 129,
      "ä½ł": 130,
      "å¾": 131,
      "åĬ": 132,
      "åı": 133,
      "è¿": 134,
      "æĢİ": 135,
      "åŃ": 136,
      "ãĢ": 137,
      "å°": 138,
      "æĪ": 139,
      "ä¸į": 140,
      "ä»Ģ": 141,
      "æĢİä¹Ī": 142,
      "ä»Ģä¹Ī": 143,
      "ä¸Ģ": 144,
      "ä¸ª": 145,
      "å®": 146,
      "åŃ¦": 147,
      "å¤ļ": 148,
      "å¿": 149,
      "ï¼ģ": 150,
      "ä¼": 151,
      "å¤©": 152,
      "åĴ": 153,
      "åĴĮ": 154,
      "éĩ": 155,
      "èģ": 156,
      "å¼": 157,
      "ç»": 158,
      "è¯´": 159,
      "ç®": 160,
      "è§": 161,
      "èĥ": 162,
      "æĪĳ": 163,
      "æİ": 164,
      "å·": 165,
      "æĿ": 166,
      "¦ģ": 167,
      "è¦ģ": 168,
      "ä¹ł": 169,
      "æķ": 170,
      "åĳĢ": 171,
      "çĶ": 172,
      "åħ": 173,
      "æĦ": 174,
      "æĹ": 175,
      "åľ": 176,
      "å¾Ī": 177,
      "æ³": 178,
      "æĥ": 179,
      "ï¼Ł": 180,
      "éĢ": 181,
      "åº": 182,
      "äºº": 183,
      "æī": 184,
      "èĩ": 185,
      "èĩª": 186,
      "å¯": 187,
      "æľī": 188,
      "åľ¨": 189,
      "åĨ": 190,
      "Ĭå¤©": 191,
      "çĲ": 192,
      "è¯ķ": 193,
      "è¯Ŀ": 194,
      "çĲĨ": 195,
      "åĳ¢": 196,
      "åŃ¦ä¹ł": 197,
      "ä¼ļ": 198,
      "å°±": 199,
      "åĵ": 200,
      "éĤ": 201,
      "éĤ£": 202,
      "å¯¹": 203,
      "èĥ½": 204,
      "æĸ": 205,
      "å¿ĥ": 206,
      "æĿ¥": 207,
      "èµ": 208,
      "è®¡": 209,
      "ãĢģ": 210,
      "åĹ": 211,
      "ç®Ĺ": 212,
      "èĢ": 213,
      "åģ": 214,
      "æŀ": 215,
      "åĲ§": 216,
      "åĩ": 217,
      "åķ": 218,
      "åĽ": 219,
      "åķĬ": 220,
      "æİ¨": 221,
      "åİ": 222,
      "å¼Ģ": 223,
      "çĶ¨": 224,
      "ç§": 225,
      "çī": 226,
      "è®¡ç®Ĺ": 227,
      "äºĭ": 228,
      "åģļ": 229,
      "è®°": 230,
      "è¯Ŀè¯´": 231,
      "è¯Ń": 232,
      "çľ": 233,
      "¯ä»": 234,
      "è¯¶": 235,
      "åĹ¯": 236,
      "æľº": 237,
      "çĤ": 238,
      "ä»Ĭå¤©": 239,
      "çĤ¹": 240,
      "èį": 241,
      "èįĲ": 242,
      "æİ¨èįĲ": 243,
      "éĤ£ä¸ª": 244,
      "å¯¹äºĨ": 245,
      "åĵ¦": 246,
      "å¾Ĺ": 247,
      "å¸": 248,
      "åĪĨ": 249,
      "åį": 250,
      "Ľ´": 251,
      "æŃ": 252,
      "æ³ķ": 253,
      "åı¯ä»": 254,
      "åı¯ä»¥": 255,
      "æģ": 256,
      "éĿ": 257,
      "æ²": 258,
      "ä¸Ĭ": 259,
      "¢ĺ": 260,
      "è°": 261,
      "é¢ĺ": 262,
      "ä¿": 263,
      "æ¬": 264,
      "æł": 265,
      "æĶ": 266,
      "éĹ": 267,
      "ãĢĤ": 268,
      "å·±": 269,
      "èĩªå·±": 270,
      "ä»Ģä¹Īæĺ¯": 271,
      "å¹": 272,
      "åĬ¨": 273,
      "æĥħ": 274,
      "ĭåı": 275,
      "åĮ": 276,
      "æĮ": 277,
      "ä½ľ": 278,
      "æĦŁ": 279,
      "åĪ«": 280,
      "åĬĽ": 281,
      "éĩį": 282,
      "æĽ´": 283,
      "ä¸Ń": 284,
      "è¯»": 285,
      "éľ": 286,
      "æĻ": 287,
      "ç¼": 288,
      "æĪĲ": 289,
      "éĢĤ": 290,
      "æĬ": 291,
      "å®ļ": 292,
      "æĭ": 293,
      "éĴ": 294,
      "åĪ°": 295,
      "æı": 296,
      "æıĲ": 297,
      "èĭ": 298,
      "åĲĹ": 299,
      "èģĶ": 300,
      "æĥ³": 301,
      "å½": 302,
      "éĩı": 303,
      "æģ¯": 304,
      "éĶ": 305,
      "è¿ĺ": 306,
      "èģĬ": 307,
      "éĶĻ": 308,
      "ç´": 309,
      "è§£": 310,
      "å·¥": 311,
      "æĮģ": 312,
      "è®©": 313,
      "å¤ª": 314,
      "æķ°": 315,
      "ä»İ": 316,
      "¨ĭ": 317,
      "ç¨ĭ": 318,
      "åĬł": 319,
      "åī": 320,
      "ä¹Ł": 321,
      "½ĳ": 322,
      "ç½ĳ": 323,
      "å®Į": 324,
      "çī©": 325,
      "è¿Ļ": 326,
      "åĸ": 327,
      "èµ·": 328,
      "åĸľ": 329,
      "å¿«": 330,
      "æĸ°": 331,
      "ä¸Ģä¸ª": 332,
      "æīĭ": 333,
      "éĢļ": 334,
      "æ¯": 335,
      "çİ": 336,
      "è¿ĩ": 337,
      "åĩº": 338,
      "å»": 339,
      "åĿ": 340,
      "æľĭåı": 341,
      "æľĭåıĭ": 342,
      "å°ı": 343,
      "çĲĨè§£": 344,
      "æ¬¡": 345,
      "è¶": 346,
      "éľĢ": 347,
      "çĽ": 348,
      "è¯į": 349,
      "éĩĮ": 350,
      "éĿ¢": 351,
      "ä¸ĭ": 352,
      "æĦı": 353,
      "ä¿¡": 354,
      "åĻ": 355,
      "åĻ¨": 356,
      "æī¾": 357,
      "æį": 358,
      "ä¹Ĳ": 359,
      "èµ°": 360,
      "åİ»": 361,
      "æł·": 362,
      "æķ°æį": 363,
      "æķ°æį®": 364,
      "£çļĦ": 365,
      "«ĺ": 366,
      "é«ĺ": 367,
      "æĹ¶": 368,
      "AI": 369,
      "ĸç¨ĭ": 370,
      "ç¼ĸç¨ĭ": 371,
      "æ°": 372,
      "èĬ": 373,
      "ä¸įéĶĻ": 374,
      "èĬĤ": 375,
      "è¡": 376,
      "èĢĥ": 377,
      "æŀ¶": 378,
      "ç§į": 379,
      "±»": 380,
      "ç±»": 381,
      "è·": 382,
      "éĥ": 383,
      "éĻ": 384,
      "ä½łçļĦ": 385,
      "çľĭ": 386,
      "èģĶç½ĳ": 387,
      "Py": 388,
      "è®²": 389,
      "åĲµ": 390,
      "çľŁ": 391,
      "éĴŁ": 392,
      "on": 393,
      "th": 394,
      "·±": 395,
      "æ·±": 396,
      "æľĢ": 397,
      "åĬ¡": 398,
      "å¼ı": 399,
      "åĲµæŀ¶": 400,
      "ºè®": 401,
      "ºèĥ½": 402,
      "ç¬": 403,
      "é£": 404,
      "åįĩ": 405,
      "æĻºèĥ½": 406,
      "å»ºè®": 407,
      "è¶Ĭ": 408,
      "å»ºè®®": 409,
      "ç»ĵ": 410,
      "ç®Ģ": 411,
      "æ³¨": 412,
      "åĨĻ": 413,
      "³»": 414,
      "çĿ": 415,
      "ç³»": 416,
      "åºĶ": 417,
      "æĬĢ": 418,
      "æ¯Ķ": 419,
      "Pyth": 420,
      "å±": 421,
      "è®¾": 422,
      "åĲĥ": 423,
      "å¥½å¥½": 424,
      "å¼Ģå¿ĥ": 425,
      "ç´¯": 426,
      "åĲ¬": 427,
      "æİ¥": 428,
      "è¾": 429,
      "ĳæģ¯": 430,
      "ä¼ĳæģ¯": 431,
      "æĹ©": 432,
      "å·¥ä½ľ": 433,
      "çŃ": 434,
      "æ²¡": 435,
      "åĬ©": 436,
      "å¸®": 437,
      "éľĢè¦ģ": 438,
      "Python": 439,
      "®é¢ĺ": 440,
      "çĦ": 441,
      "éĹ®é¢ĺ": 442,
      "æħ": 443,
      "åĲĮ": 444,
      "æħ¢": 445,
      "æ´": 446,
      "å¿«ä¹Ĳ": 447,
      "¿çĶ¨": 448,
      "ä½¿çĶ¨": 449,
      "èģĬå¤©": 450,
      "è§Ħ": 451,
      "åĽł": 452,
      "åĻ¨åŃ¦ä¹ł": 453,
      "æ°Ķ": 454,
      "éĥ½": 455,
      "æĢİä¹Īæł·": 456,
      "åħ´": 457,
      "è¯ķè¯ķ": 458,
      "..": 459,
      "ç¡": 460,
      "å¥½çļĦ": 461,
      "éĩįè¦ģ": 462,
      "åŁ": 463,
      "ä½łå¥½": 464,
      "è®¡ç®Ĺæľº": 465,
      "ħäºĭ": 466,
      "åĪ¶": 467,
      "ä¸Ģç§į": 468,
      "èĥĮ": 469,
      "æķħäºĭ": 470,
      "èĩªä¿¡": 471,
      "æĸ¹": 472,
      "æľºåĻ¨åŃ¦ä¹ł": 473,
      "éĿĻ": 474,
      "åīį": 475,
      "è¡Į": 476,
      "èĢĮ": 477,
      "åįķ": 478,
      "æŃ¥": 479,
      "å¤į": 480,
      "å¾ĭ": 481,
      "äººç±»": 482,
      "è¯Ńæ³ķ": 483,
      "è°¢": 484,
      "èĭ±": 485,
      "¿è¶Ĭ": 486,
      "æľį": 487,
      "è¿Ľ": 488,
      "ãĢĬ": 489,
      "ãĢĭ": 490,
      "å¤ļè¯»": 491,
      "å°±æĺ¯": 492,
      "èĥ½åĬĽ": 493,
      "ä¿Ŀ": 494,
      "åĮĸ": 495,
      "è´": 496,
      "ä»»": 497,
      "æŀľ": 498,
      "åĪĨéĴŁ": 499,
      "¢«": 500,
      "è¢«": 501,
      "åŃĲ": 502,
      "ä¸Ģæ¬¡": 503,
      "è°ĥ": 504,
      "Pythonæĺ¯": 505,
      "ä¿ĿæĮģ": 506,
      "æĢİä¹ĪåŃ¦": 507,
      "çĶµ": 508,
      "åİŁ": 509,
      "è¿ĺä¸įéĶĻ": 510,
      "§ĭ": 511,
      "å§ĭ": 512,
      "å¤ĩ": 513,
      "å°ĳ": 514,
      "è§ī": 515,
      "å¼Ģå§ĭ": 516,
      "å½±": 517,
      "¦Ĥ": 518,
      "Ľèĭ": 519,
      "ä¸º": 520,
      "å¥½äºĨ": 521,
      "ç§¯": 522,
      "è®°å¾Ĺ": 523,
      "æĶ¯": 524,
      "éĩıåŃĲ": 525,
      "è¾Ľèĭ": 526,
      "çĦ¶": 527,
      "è¾Ľèĭ¦": 528,
      "è§ģ": 529,
      "æ¬¢": 530,
      "åĮº": 531,
      "çĿĢ": 532,
      "çĶµå½±": 533,
      "»åĬ¨": 534,
      "¾İ": 535,
      "ç¾İ": 536,
      "æľ¬": 537,
      "åĪĻ": 538,
      "ä¸įæĺ¯": 539,
      "åĪ«å¤ª": 540,
      "åĸľæ¬¢": 541,
      "æľ¯": 542,
      "ç»ı": 543,
      "æĬĢæľ¯": 544,
      "ç¥": 545,
      "å¾Ģ": 546,
      "æĹ©ä¸Ĭ": 547,
      "ä½ı": 548,
      "å¾Īå¤ļ": 549,
      "ç¦": 550,
      "éļ": 551,
      "åĪ©": 552,
      "èĻ": 553,
      "é¡": 554,
      "å¾Īé«ĺ": 555,
      "å¾Īé«ĺåħ´": 556,
      "ä¹¦": 557,
      "èĢĥè¯ķ": 558,
      "ä¸Ģå¤©": 559,
      "æľīä»Ģä¹Ī": 560,
      "åı¯ä»¥è¯ķè¯ķ": 561,
      "ãĢĭï¼Į": 562,
      "åĪ°ä½ł": 563,
      "æĺ¯AI": 564,
      "§½": 565,
      "æ§½": 566,
      "èĸ": 567,
      "åħ³": 568,
      "æĻļ": 569,
      "è·³": 570,
      "è§Ħå¾ĭ": 571,
      "äºĳ": 572,
      "ä¸įè¦ģ": 573,
      "åĩł": 574,
      "çī¹": 575,
      "æĪĲæŀľ": 576,
      "è®©è®¡ç®Ĺæľº": 577,
      "éĻħ": 578,
      "·éĿĻ": 579,
      "åŀ": 580,
      "ĴèģĶç½ĳ": 581,
      "äºĴèģĶç½ĳ": 582,
      "å¤§": 583,
      "ä¸įä¼ļ": 584,
      "æķ£çļĦ": 585,
      "åĨ·éĿĻ": 586,
      "å°±æķ£çļĦ": 587,
      "æĿ¥å¥½å¥½": 588,
      "æŃ£çļĦ": 589,
      "æıĲåįĩ": 590,
      "åī§": 591,
      "ä¹Łå¾Ī": 592,
      "éĢļè¿ĩ": 593,
      "æľĭåıĭä¸įä¼ļ": 594,
      "ä¸ĭæĿ¥å¥½å¥½": 595,
      "çľŁæŃ£çļĦ": 596,
      "åĲµæŀ¶å°±æķ£çļĦ": 597,
      "åĽłä¸º": 598,
      "æľįåĬ¡": 599,
      "ä¸Ģæ¬¡åĲµæŀ¶å°±æķ£çļĦ": 600,
      "è·³æ§½": 601,
      "äºĳè®¡ç®Ĺ": 602,
      "åŀĭ": 603,
      "åĨ·éĿĻä¸ĭæĿ¥å¥½å¥½": 604,
      "éĢļè¿ĩäºĴèģĶç½ĳ": 605,
      "æľĭåıĭä¸įä¼ļåĽłä¸º": 606,
      "çľŁæŃ£çļĦæľĭåıĭä¸įä¼ļåĽłä¸º": 607,
      "çľŁæŃ£çļĦæľĭåıĭä¸įä¼ļåĽłä¸ºä¸Ģæ¬¡åĲµæŀ¶å°±æķ£çļĦ": 608,
      "¥å¿«ä¹Ĳ": 609,
      "©¿è¶Ĭ": 610,
      "ªģ": 611,
      "ç¢": 612,
      "çł": 613,
      "ç©¿è¶Ĭ": 614,
      "çªģ": 615,
      "äºİ": 616,
      "ä¸ĢæŃ¥": 617,
      "å®ī": 618,
      "åħ¥": 619,
      "æĹ¥å¿«ä¹Ĳ": 620,
      "ä½ľæģ¯": 621,
      "éĩįçĤ¹": 622,
      "çİ¯": 623,
      "§åĪ¶": 624,
      "¨¡": 625,
      "¨Ģ": 626,
      "ºç¡": 627,
      "æ¨¡": 628,
      "è¨Ģ": 629,
      "ĸèĢ": 630,
      "åĪĩ": 631,
      "æĪĸèĢ": 632,
      "ä¸ĢåĪĩ": 633,
      "ç»ĥ": 634,
      "æİ§åĪ¶": 635,
      "è¯Ńè¨Ģ": 636,
      "ä»İåŁ": 637,
      "æľĢéĩįè¦ģ": 638,
      "å»ºè®®ä»İåŁ": 639,
      "ºç¡Ģ": 640,
      "æĪĸèĢħ": 641,
      "å»ºè®®ä»İåŁºç¡Ģ": 642,
      "¸ħ": 643,
      "»ç»ĵ": 644,
      "¾ĭåı": 645,
      "ä¾ĭåı": 646,
      "æ¸ħ": 647,
      "ŁéĢļ": 648,
      "å¤Ħ": 649,
      "ä»ĸ": 650,
      "çļĦäºĭ": 651,
      "æĢ»ç»ĵ": 652,
      "ç»Ł": 653,
      "åº¦": 654,
      "åĨ³": 655,
      "åĽº": 656,
      "åģļå¥½": 657,
      "æ²ŁéĢļ": 658,
      "å¹³": 659,
      "éĢĤå½": 660,
      "éĿ¢è¯ķ": 661,
      "è¿Ľè¡Į": 662,
      "ä¾ĭåı¥": 663,
      "çļĦäºĭæĥħ": 664,
      "éĢĤå½ĵ": 665,
      "AP": 666,
      "è¯Ħ": 667,
      "å°ļ": 668,
      "åĴĮå°ļ": 669,
      "åº§": 670,
      "åºĻ": 671,
      "æľīåº§": 672,
      "åĬłå": 673,
      "æ·±åº¦": 674,
      "é£İ": 675,
      "å±±": 676,
      "æİ¥åı": 677,
      "çŃī": 678,
      "èĥĮåįķ": 679,
      "èĥĮåįķè¯į": 680,
      "ĲåĬ¨": 681,
      "ļæĮģ": 682,
      "åĲĪ": 683,
      "è¿ĲåĬ¨": 684,
      "ç®¡": 685,
      "ä¼ļçļĦ": 686,
      "æĸĩ": 687,
      "ä»Ĭå¤©å¤©": 688,
      "èĩªå·±çļĦ": 689,
      "çī©èģĶç½ĳ": 690,
      "åĿļæĮģ": 691,
      "çĽ®": 692,
      "é£Ł": 693,
      "å¤įä¹ł": 694,
      "å¤ļè¯»å¤ļ": 695,
      "è¾Ľèĭ¦äºĨ": 696,
      "API": 697,
      "¢ĥ": 698,
      "¿æĦı": 699,
      "å¢ĥ": 700,
      "ï¼ļ": 701,
      "è¿ĳ": 702,
      "æĢİä¹ĪäºĨ": 703,
      "æĢİä¹ĪåĨĻ": 704,
      "è¯´è¯´": 705,
      "æĪĳåľ¨": 706,
      "æķ´": 707,
      "æĦ¿æĦı": 708,
      "äººå·¥": 709,
      "åĨį": 710,
      "æĽ´å¤ļ": 711,
      "å®Įç¾İ": 712,
      "è¿ĻéĩĮ": 713,
      "åĲ¬çĿĢ": 714,
      "èĭ±è¯Ń": 715,
      "è°ĥæķ´": 716,
      "ä»Ĭå¤©å¤©æ°Ķ": 717,
      "è¯´è¯´åĲĹ": 718,
      "æĪĳåľ¨è¿ĻéĩĮ": 719,
      "æĪĳåľ¨è¿ĻéĩĮåĲ¬çĿĢ": 720,
      "¼åĲ": 721,
      "çŁ": 722,
      "Ŀç¦": 723,
      "ä»¬": 724,
      "åĲİ": 725,
      "åĳĹ": 726,
      "åĳ¼åĲ": 727,
      "ä½łåĸľæ¬¢": 728,
      "åı«": 729,
      "åıĳ": 730,
      "ä¸įå¥½": 731,
      "åĴĮæľĭåıĭ": 732,
      "åĽŀ": 733,
      "åĿĹ": 734,
      "æ·±åĳ¼åĲ": 735,
      "æľĢè¿ĳ": 736,
      "åĲĥä»Ģä¹Ī": 737,
      "ç§¯ç´¯": 738,
      "æ·±åº¦åŃ¦ä¹ł": 739,
      "çŁ¥": 740,
      "æ·±åĳ¼åĲ¸": 741,
      "âĢ": 742,
      "çĽ´": 743,
      "éĵ": 744,
      "ä¸ĢçĽ´": 745,
      "èµ·æĿ¥": 746,
      "æ³¨æĦı": 747,
      "è´¦": 748,
      "ä»»åĬ¡": 749,
      "äººå·¥æĻºèĥ½": 750,
      "âĢĶ": 751,
      "éĵ¾": 752,
      "£Ĵ": 753,
      "æ£Ĵ": 754,
      "ŀæİ¥": 755,
      "è¿ŀæİ¥": 756,
      "å®ŀ": 757,
      "èģĮ": 758,
      "å¾Īå¼Ģå¿ĥ": 759,
      "åĩı": 760,
      "æĶ¹": 761,
      "çİ°": 762,
      "è®¾å¤ĩ": 763,
      "åĬ©æīĭ": 764,
      "æħ¢æħ¢": 765,
      "è§īå¾Ĺ": 766,
      "åĮºåĿĹ": 767,
      "ä½łåĸľæ¬¢ä»Ģä¹Ī": 768,
      "æ£ĴäºĨ": 769,
      "»çļĦ": 770,
      "ĭī": 771,
      "ĳå¹": 772,
      "åº·": 773,
      "èĥ½å¸®": 774,
      "å¿ĥæĥħ": 775,
      "ç§ĳå¹": 776,
      "ä»Ĭå¤©è¿ĩ": 777,
      "å¾ĹæĢİä¹Īæł·": 778,
      "éĹ´": 779,
      "è¯»ä¹¦": 780,
      "å¿«å¾Īå¤ļ": 781,
      "åĩºåİ»": 782,
      "èµ°èµ°": 783,
      "æĹ¶éĹ´": 784,
      "åİŁçĲĨ": 785,
      "éĩıåŃĲè®¡ç®Ĺ": 786,
      "éļ¾": 787,
      "ä»Ĭå¤©è¿ĩå¾ĹæĢİä¹Īæł·": 788,
      "åĩºåİ»èµ°èµ°": 789,
      "èħ": 790,
      "è¯Ĩ": 791,
      "æĹł": 792,
      "è®°ä½ı": 793,
      "æī¾åĪ°": 794,
      "è®²ä¸ª": 795,
      "åĲµæŀ¶äºĨ": 796,
      "åįĩèģĮ": 797,
      "çŃĶ": 798,
      "è§ģåĪ°ä½ł": 799,
      "å¾Īé«ĺåħ´è§ģåĪ°ä½ł": 800,
      "åĮºåĿĹéĵ¾": 801,
      "å¿ĥæĥħä¸įå¥½": 802,
      "åĺ": 803,
      "å¦Ĥ": 804,
      "çĥ": 805,
      "äº¤": 806,
      "ä½łèģĬå¤©": 807,
      "ç»Ļ": 808,
      "æķĪ": 809,
      "åĹ¨": 810,
      "å¸¦": 811,
      "æŃĮ": 812,
      "æĶ¾": 813,
      "å¥½å¥½ä¼ĳæģ¯": 814,
      "...": 815,
      "çĥŃ": 816,
      "§ç»": 817,
      "²ç»ı": 818,
      "çĬ": 819,
      "æĺ¯ç¬": 820,
      "ä½łå·": 821,
      "ç»§ç»": 822,
      "å¯¹ä¸į": 823,
      "è¯»å®Į": 824,
      "çĽ¸": 825,
      "æ²¡äºĭ": 826,
      "ä½łå¥½åĳĢ": 827,
      "æĺ¯ç¬¬": 828,
      "ä½łå·²ç»ı": 829,
      "ç»§ç»Ń": 830,
      "çĭ": 831,
      "ä½łä¼ļ": 832,
      "èĥĸ": 833,
      "è°¢è°¢": 834,
      "æĹ©ä¸Ĭå¥½": 835,
      "çĭ¬": 836,
      "ºåĪ©": 837,
      "æĴ": 838,
      "ĩæĴ": 839,
      "ĳè¯Ŀ": 840,
      "ŁéĻħ": 841,
      "æĺŁéĻħ": 842,
      "æĦŁäºº": 843,
      "éľĩæĴ": 844,
      "æĸ°çļĦ": 845,
      "ç¬ĳè¯Ŀ": 846,
      "é¡ºåĪ©": 847,
      "æĺŁéĻħç©¿è¶Ĭ": 848,
      "éľĩæĴ¼": 849,
      "çĶŁ": 850,
      "åĵĪ": 851,
      "æ²¹": 852,
      "åĬłæ²¹": 853,
      "æĻļå®ī": 854,
      "¢æ°Ķ": 855,
      "å®¢æ°Ķ": 856,
      "æĽ´å¥½çļĦ": 857,
      "¡ä¹Ł": 858,
      "èı": 859,
      "ĹéĿ¢": 860,
      "ľåĵ": 861,
      "Ńåĸľ": 862,
      "çļĦæİ¨èįĲ": 863,
      "å®¶": 864,
      "æĿ¡ä¹Ł": 865,
      "æĿ¥ç¢": 866,
      "ä»Ĭå¤©çļĦæİ¨èįĲ": 867,
      "æģŃåĸľ": 868,
      "çī©çĲĨ": 869,
      "åı¯ä»¥è¯ķè¯ķä»Ĭå¤©çļĦæİ¨èįĲ": 870,
      "æĪĸèĢħæĿ¥ç¢": 871,
      "åĴĮæľĭåıĭåĲµæŀ¶äºĨ": 872,
      "èıľåĵ": 873,
      "ĹéĿ¢æĿ¡ä¹Ł": 874,
      "åı¯ä»¥è¯ķè¯ķä»Ĭå¤©çļĦæİ¨èįĲèıľåĵ": 875,
      "æĪĸèĢħæĿ¥ç¢ĹéĿ¢æĿ¡ä¹Ł": 876,
      "åı¯ä»¥è¯ķè¯ķä»Ĭå¤©çļĦæİ¨èįĲèıľåĵģ": 877,
      "æĪĸèĢħæĿ¥ç¢ĹéĿ¢æĿ¡ä¹Łä¸įéĶĻ": 878,
      "ä¸įå®¢æ°Ķ": 879,
      "èĬĤæĹ¥å¿«ä¹Ĳ": 880,
      "ç³»çļĦ": 881,
      "æ²¡åħ³": 882,
      "æ²¡åħ³ç³»çļĦ": 883,
      "ĭåĬĽ": 884,
      "åİĭåĬĽ": 885,
      "æĬ±": 886,
      "¾å¼ı": 887,
      "çļĦä¸Ģä¸ª": 888,
      "æĺ¾å¼ı": 889,
      "ä¸įéľĢè¦ģ": 890,
      "èĩªåĬ¨": 891,
      "åŃ¦ä¹łè§Ħå¾ĭ": 892,
      "åĪĨæĶ¯": 893,
      "ä¸ŃèĩªåĬ¨": 894,
      "ä»İæķ°æį®": 895,
      "æľºåĻ¨åŃ¦ä¹łæĺ¯AI": 896,
      "èĢĮä¸įéľĢè¦ģ": 897,
      "è®©è®¡ç®Ĺæľºä»İæķ°æį®": 898,
      "çļĦä¸Ģä¸ªåĪĨæĶ¯": 899,
      "æĺ¾å¼ıç¼ĸç¨ĭ": 900,
      "ä¸ŃèĩªåĬ¨åŃ¦ä¹łè§Ħå¾ĭ": 901,
      "æľºåĻ¨åŃ¦ä¹łæĺ¯AIçļĦä¸Ģä¸ªåĪĨæĶ¯": 902,
      "èĢĮä¸įéľĢè¦ģæĺ¾å¼ıç¼ĸç¨ĭ": 903,
      "è®©è®¡ç®Ĺæľºä»İæķ°æį®ä¸ŃèĩªåĬ¨åŃ¦ä¹łè§Ħå¾ĭ": 904,
      "£ä»»": 905,
      "¥ļ": 906,
      "©åĴĮ": 907,
      "«åĩº": 908,
      "¬èĥĮ": 909,
      "°æĸ°": 910,
      "²åĬ¨": 911,
      "µæ¯Ķ": 912,
      "¶çĽ": 913,
      "¸å¿ĥ": 914,
      "»è®°": 915,
      "¿æĭ": 916,
      "æ¦Ĥ": 917,
      "æ¥ļ": 918,
      "Ģį": 919,
      "ħæĽ´å¤ļ": 920,
      "ä¸»åĬ¨": 921,
      "äº«åĩº": 922,
      "å¥½åĳĢ": 923,
      "æĺ¯æľºåĻ¨åŃ¦ä¹ł": 924,
      "å¤ļåģļ": 925,
      "å¤ļæĢ»ç»ĵ": 926,
      "å¿µæ¯Ķ": 927,
      "ä¼°æĸ°": 928,
      "è¦ģåĪĨ": 929,
      "æī¿æĭ": 930,
      "åĨ²åĬ¨": 931,
      "æľºä¼ļçļĦ": 932,
      "åįĪ": 933,
      "æŃ»è®°": 934,
      "é¢ĺå¤ļæĢ»ç»ĵ": 935,
      "æł¸å¿ĥ": 936,
      "æĶ¶çĽ": 937,
      "æĽ´éĩįè¦ģ": 938,
      "æĥ³æ¸ħ": 939,
      "èģĬèģĬ": 940,
      "è®©ä½łçļĦ": 941,
      "è®©å¿«ä¹Ĳ": 942,
      "å¤ªå¥½äºĨ": 943,
      "çĲĨè§£æ¦Ĥ": 944,
      "éĻ©åĴĮ": 945,
      "çľĭåĪ°": 946,
      "æĬĢèĥ½": 947,
      "å¼Ģå¿ĥçļĦäºĭæĥħ": 948,
      "ç¡¬èĥĮ": 949,
      "è´£ä»»": 950,
      "è¢«çľĭåĪ°": 951,
      "åİŁåĽł": 952,
      "èĸª": 953,
      "ä¸įè¦ģåĨ²åĬ¨": 954,
      "æĪĲæŀľè¢«çľĭåĪ°": 955,
      "æıĲåįĩæł¸å¿ĥ": 956,
      "è·³æ§½åİŁåĽł": 957,
      "åĨ·éĿĻä¸ĭæĿ¥å¥½å¥½èģĬèģĬ": 958,
      "åĨ³å®ļ": 959,
      "è¯Ħä¼°æĸ°": 960,
      "åĬłåĢį": 961,
      "é£İéĻ©åĴĮ": 962,
      "æ¥ļè·³æ§½åİŁåĽł": 963,
      "ħæĽ´å¤ļè´£ä»»": 964,
      "ä¸»åĬ¨æī¿æĭ": 965,
      "äº«åĩºæĿ¥": 966,
      "å¤ļåģļé¢ĺå¤ļæĢ»ç»ĵ": 967,
      "å¿µæ¯ĶæŃ»è®°": 968,
      "è¦ģåĪĨäº«åĩºæĿ¥": 969,
      "æľºä¼ļçļĦé£İéĻ©åĴĮ": 970,
      "æĶ¶çĽĬ": 971,
      "æĥ³æ¸ħæ¥ļè·³æ§½åİŁåĽł": 972,
      "è®©ä½łçļĦæĪĲæŀľè¢«çľĭåĪ°": 973,
      "è®©å¿«ä¹ĲåĬłåĢį": 974,
      "çĲĨè§£æ¦Ĥå¿µæ¯ĶæŃ»è®°": 975,
      "å¼Ģå¿ĥçļĦäºĭæĥħè¦ģåĪĨäº«åĩºæĿ¥": 976,
      "ç¡¬èĥĮæĽ´éĩįè¦ģ": 977,
      "ä¸įè¦ģåĨ²åĬ¨åĨ³å®ļ": 978,
      "æıĲåįĩæł¸å¿ĥæĬĢèĥ½": 979,
      "è¯Ħä¼°æĸ°æľºä¼ļçļĦé£İéĻ©åĴĮ": 980,
      "ä¸»åĬ¨æī¿æĭħæĽ´å¤ļè´£ä»»": 981,
      "çĲĨè§£æ¦Ĥå¿µæ¯ĶæŃ»è®°ç¡¬èĥĮæĽ´éĩįè¦ģ": 982,
      "è¯Ħä¼°æĸ°æľºä¼ļçļĦé£İéĻ©åĴĮæĶ¶çĽĬ": 983,
      "We": 984,
      "bå¼Ģ": 985,
      "°æľįåĬ¡": 986,
      "µģ": 987,
      "¹åħ": 988,
      "ºĲ": 989,
      "¿æ³": 990,
      "æµģ": 991,
      "æºĲ": 992,
      "ĦæºĲ": 993,
      "īéľĢ": 994,
      "ĲåĴĮ": 995,
      "ĵåŃ¦": 996,
      "ĽçĶ¨": 997,
      "ä¹°æľįåĬ¡": 998,
      "çļĦç¼ĸç¨ĭ": 999,
      "æĺĵåŃ¦": 1000,
      "æĺ¯åı¯ä»¥": 1001,
      "ä¸įçĶ¨": 1002,
      "ä¸ªæĸ¹": 1003,
      "æīį": 1004,
      "èµĦæºĲ": 1005,
      "æŀĲåĴĮ": 1006,
      "è®¡ç®ĹèµĦæºĲ": 1007,
      "åĪĨæŀĲåĴĮ": 1008,
      "åı¯ä»¥ä»İ": 1009,
      "èĩªå·±ä¹°æľįåĬ¡": 1010,
      "å¹¿æ³": 1011,
      "æĮīéľĢ": 1012,
      "ä¸ŃåįĪ": 1013,
      "åĬłèĸª": 1014,
      "éĿ¢åħ¥": 1015,
      "æķ°æį®åĪĨæŀĲåĴĮ": 1016,
      "ç®Ģåįķ": 1017,
      "ä½¿çĶ¨è®¡ç®ĹèµĦæºĲ": 1018,
      "åŁ¹åħ": 1019,
      "ä¸Ģç§įæµģ": 1020,
      "èĩªä¿¡æĺ¯åı¯ä»¥": 1021,
      "è¡ĮçļĦç¼ĸç¨ĭ": 1022,
      "å°±æĺ¯éĢļè¿ĩäºĴèģĶç½ĳ": 1023,
      "Pythonæĺ¯ä¸Ģç§įæµģ": 1024,
      "åĩłä¸ªæĸ¹": 1025,
      "äºĳè®¡ç®Ĺå°±æĺ¯éĢļè¿ĩäºĴèģĶç½ĳ": 1026,
      "äºİAI": 1027,
      "ç§ĳå¹»": 1028,
      "Webå¼Ģ": 1029,
      "ĽçĶ¨äºİAI": 1030,
      "ä¸įçĶ¨èĩªå·±ä¹°æľįåĬ¡": 1031,
      "åı¯ä»¥ä»İåĩłä¸ªæĸ¹": 1032,
      "å¹¿æ³ĽçĶ¨äºİAI": 1033,
      "æĮīéľĢä½¿çĶ¨": 1034,
      "éĿ¢åħ¥æīĭ": 1035,
      "æķ°æį®åĪĨæŀĲåĴĮWebå¼Ģ": 1036,
      "ç®ĢåįķæĺĵåŃ¦": 1037,
      "åŁ¹åħ»çļĦ": 1038,
      "èĩªä¿¡æĺ¯åı¯ä»¥åŁ¹åħ»çļĦ": 1039,
      "è¡ĮçļĦç¼ĸç¨ĭè¯Ńè¨Ģ": 1040,
      "Pythonæĺ¯ä¸Ģç§įæµģè¡ĮçļĦç¼ĸç¨ĭè¯Ńè¨Ģ": 1041,
      "äºĳè®¡ç®Ĺå°±æĺ¯éĢļè¿ĩäºĴèģĶç½ĳä½¿çĶ¨è®¡ç®ĹèµĦæºĲ": 1042,
      "ä¸įçĶ¨èĩªå·±ä¹°æľįåĬ¡åĻ¨": 1043,
      "åı¯ä»¥ä»İåĩłä¸ªæĸ¹éĿ¢åħ¥æīĭ": 1044,
      "æķ°æį®åĪĨæŀĲåĴĮWebå¼Ģåıĳ": 1045,
      "¡åīį": 1046,
      "¥åŀĭ": 1047,
      "±çİ¯": 1048,
      "´èĸ": 1049,
      "¸è§ģ": 1050,
      "¹éĴŁ": 1051,
      "½åĬĽ": 1052,
      "½çĦ¶": 1053,
      "ĤçļĦ": 1054,
      "Ĥç¥": 1055,
      "Ħå¼": 1056,
      "ĨæĪĳ": 1057,
      "Ĩå¤ĩ": 1058,
      "ľçļĦ": 1059,
      "ľæĿ¥": 1060,
      "ŀç»ı": 1061,
      "Łè¿": 1062,
      "å¤Łè¿": 1063,
      "ä½ĨæĪĳ": 1064,
      "çļĦä¸Ģç§į": 1065,
      "åĪĴ": 1066,
      "æĺ¯åī§": 1067,
      "åĬŀ": 1068,
      "åı¥åŀĭ": 1069,
      "å°½åĬĽ": 1070,
      "å¤ļå±": 1071,
      "å¤ļç»ĥ": 1072,
      "åĴĮåĽŀ": 1073,
      "ç»ľæĿ¥": 1074,
      "æĪĳæĺ¯AI": 1075,
      "æĿ¾": 1076,
      "æĿĤçļĦ": 1077,
      "ä¹łåĩł": 1078,
      "åľ¨çļĦ": 1079,
      "åľ¨è¯Ń": 1080,
      "çĲĨå¤į": 1081,
      "ä¼ļå°½åĬĽ": 1082,
      "è®¡åĪĴ": 1083,
      "åĩĨå¤ĩ": 1084,
      "çīĩ": 1085,
      "åģļçľŁ": 1086,
      "ä»Ĭå¤©å¾Īå¼Ģå¿ĥ": 1087,
      "å¸¸è§ģ": 1088,
      "é¢ĺæī¾": 1089,
      "éĹ¹éĴŁ": 1090,
      "æĥħæĦŁ": 1091,
      "æĥħåĲĹ": 1092,
      "æĥħçīĩ": 1093,
      "æĦŁè§ī": 1094,
      "ä¸ŃçĲĨè§£": 1095,
      "å®ļä½ľæģ¯": 1096,
      "å®ļè®¡åĪĴ": 1097,
      "æıĲåīį": 1098,
      "è¿ĺæĺ¯åī§": 1099,
      "æķ°åŃ¦": 1100,
      "ç½ĳç»ľæĿ¥": 1101,
      "åĸľåī§": 1102,
      "ä¸Ģä¸ªå¤Łè¿": 1103,
      "æīĭæľº": 1104,
      "çĲĨè§£åĴĮåĽŀ": 1105,
      "æķ°æį®æ¨¡": 1106,
      "æĹ¶æ·±åĳ¼åĲ¸": 1107,
      "ç±»åŀĭ": 1108,
      "ä½łçļĦæĥħæĦŁ": 1109,
      "çľĭæīĭæľº": 1110,
      "å»ºè®®åĽº": 1111,
      "çĿ¡åīį": 1112,
      "åºĶä½łçļĦæĥħæĦŁ": 1113,
      "è®¾ä¸Ģä¸ªå¤Łè¿": 1114,
      "æĹ©èµ·": 1115,
      "ä½¿çĶ¨å¤ļå±": 1116,
      "è§ĦåĪĻ": 1117,
      "åĪ¶å®ļè®¡åĪĴ": 1118,
      "è¯Ńæ³ķè§ĦåĪĻ": 1119,
      "å¤ļè¯»ä¾ĭåı¥": 1120,
      "å°ĳçľĭæīĭæľº": 1121,
      "æĹ©ä¸Ĭè®¾ä¸Ģä¸ªå¤Łè¿": 1122,
      "èĻ½çĦ¶": 1123,
      "çł´èĸ": 1124,
      "çªģçł´èĸ": 1125,
      "éĩįçĤ¹çªģçł´èĸ": 1126,
      "å»ºè®®ä»İåŁºç¡Ģåı¥åŀĭ": 1127,
      "å¤ĦçĲĨå¤į": 1128,
      "éĿ¢è¯ķæĹ¶æ·±åĳ¼åĲ¸": 1129,
      "å¢ĥä¸ŃçĲĨè§£": 1130,
      "æ·±åº¦åŃ¦ä¹łæĺ¯æľºåĻ¨åŃ¦ä¹ł": 1131,
      "ä½łåĸľæ¬¢ä»Ģä¹Īç±»åŀĭ": 1132,
      "æĶ¾æĿ¾": 1133,
      "æīįèĥ½": 1134,
      "±çİ¯èĬĤ": 1135,
      "Ĥç¥ŀç»ı": 1136,
      "Ħå¼±çİ¯èĬĤ": 1137,
      "ľçļĦéĹ¹éĴŁ": 1138,
      "ä½ĨæĪĳä¼ļå°½åĬĽ": 1139,
      "å¤ļç»ĥä¹łåĩł": 1140,
      "æĿĤçļĦæķ°æį®æ¨¡": 1141,
      "åľ¨è¯Ńå¢ĥä¸ŃçĲĨè§£": 1142,
      "åĩĨå¤ĩå¸¸è§ģ": 1143,
      "åģļçľŁé¢ĺæī¾": 1144,
      "å®ļä½ľæģ¯æĹ¶éĹ´": 1145,
      "æıĲåīįåĩĨå¤ĩå¸¸è§ģ": 1146,
      "è¿ĺæĺ¯åī§æĥħçīĩ": 1147,
      "ç½ĳç»ľæĿ¥å¤ĦçĲĨå¤į": 1148,
      "åĸľåī§è¿ĺæĺ¯åī§æĥħçīĩ": 1149,
      "çĲĨè§£åĴĮåĽŀåºĶä½łçļĦæĥħæĦŁ": 1150,
      "å»ºè®®åĽºå®ļä½ľæģ¯æĹ¶éĹ´": 1151,
      "çĿ¡åīįå°ĳçľĭæīĭæľº": 1152,
      "ä½¿çĶ¨å¤ļå±Ĥç¥ŀç»ı": 1153,
      "æĹ©ä¸Ĭè®¾ä¸Ģä¸ªå¤Łè¿ľçļĦéĹ¹éĴŁ": 1154,
      "èĻ½çĦ¶æĪĳæĺ¯AI": 1155,
      "éĩįçĤ¹çªģçł´èĸĦå¼±çİ¯èĬĤ": 1156,
      "å»ºè®®ä»İåŁºç¡Ģåı¥åŀĭå¼Ģå§ĭ": 1157,
      "éĿ¢è¯ķæĹ¶æ·±åĳ¼åĲ¸æĶ¾æĿ¾": 1158,
      "æ·±åº¦åŃ¦ä¹łæĺ¯æľºåĻ¨åŃ¦ä¹łçļĦä¸Ģç§į": 1159,
      "ä½łåĸľæ¬¢ä»Ģä¹Īç±»åŀĭçļĦ": 1160,
      "ä½ĨæĪĳä¼ļå°½åĬĽçĲĨè§£åĴĮåĽŀåºĶä½łçļĦæĥħæĦŁ": 1161,
      "å¤ļç»ĥä¹łåĩłæ¬¡": 1162,
      "æĿĤçļĦæķ°æį®æ¨¡å¼ı": 1163,
      "åľ¨è¯Ńå¢ĥä¸ŃçĲĨè§£è¯Ńæ³ķè§ĦåĪĻ": 1164,
      "åģļçľŁé¢ĺæī¾æĦŁè§ī": 1165,
      "æıĲåīįåĩĨå¤ĩå¸¸è§ģéĹ®é¢ĺ": 1166,
      "ç½ĳç»ľæĿ¥å¤ĦçĲĨå¤įæĿĤçļĦæķ°æį®æ¨¡å¼ı": 1167,
      "ä½¿çĶ¨å¤ļå±Ĥç¥ŀç»ıç½ĳç»ľæĿ¥å¤ĦçĲĨå¤įæĿĤçļĦæķ°æį®æ¨¡å¼ı": 1168,
      "25": 1169,
      "¡é": 1170,
      "¢é": 1171,
      "¥®": 1172,
      "ªè": 1173,
      "ªçİ¯": 1174,
      "«ä½": 1175,
      "²Ĺ": 1176,
      "¶ç³»": 1177,
      "¶ä»ĸ": 1178,
      "ºè°ĥ": 1179,
      "º«ä½": 1180,
      "½¯ä»": 1181,
      "åĥ": 1182,
      "å²Ĺ": 1183,
      "çķ": 1184,
      "èº«ä½": 1185,
      "è½¯ä»": 1186,
      "ģæĺ": 1187,
      "ģå¹³": 1188,
      "Ĥåľ": 1189,
      "Ħç§į": 1190,
      "Ħå·¥ä½ľ": 1191,
      "ħå®": 1192,
      "ĩè¡": 1193,
      "Īå¯¹ä¸į": 1194,
      "ĮĦå·¥ä½ľ": 1195,
      "įè°ĥæķ´": 1196,
      "İäºĨ": 1197,
      "ıå¤©": 1198,
      "ıä¸Ģä¸ª": 1199,
      "ıç¼ĸç¨ĭ": 1200,
      "ĵæ³¨": 1201,
      "ĵæľĢéĩįè¦ģ": 1202,
      "ĺŁ": 1203,
      "ĽçĤ¹": 1204,
      "ä¸ĵæ³¨": 1205,
      "ä½įè°ĥæķ´": 1206,
      "åĲĦç§į": 1207,
      "åĪĽ": 1208,
      "å¥½åĽ": 1209,
      "å¥½æĸ¹": 1210,
      "æĺ¯åºĶ": 1211,
      "æĺ¯å¥½æĸ¹": 1212,
      "åĳĺ": 1213,
      "æĢģå¹³": 1214,
      "ä½łåĴĮ": 1215,
      "å¾ªçİ¯": 1216,
      "å¤ļè¯´": 1217,
      "å¤ļåĲ¬": 1218,
      "åĴĮéĢĤ": 1219,
      "åĴĮæİ§åĪ¶": 1220,
      "å¼ł": 1221,
      "æĪĳèĥ½å¸®": 1222,
      "åħ¶ä»ĸ": 1223,
      "åºıç¼ĸç¨ĭ": 1224,
      "æľīçĤ¹": 1225,
      "åĨħå®": 1226,
      "çĲĨåĴĮæİ§åĪ¶": 1227,
      "åŃ¦ä¹łåĴĮéĢĤ": 1228,
      "å°±åĥ": 1229,
      "å¿ĥæĢģå¹³": 1230,
      "åĽĽçĤ¹": 1231,
      "åİĨ": 1232,
      "çĶ¨ç¨ĭ": 1233,
      "å¸Ĥåľ": 1234,
      "æĪĲæľ¬": 1235,
      "éĢĤéĩı": 1236,
      "éĴĪå¯¹ä¸į": 1237,
      "éĩıåĮĸ": 1238,
      "è®©åĲĦç§į": 1239,
      "ä¹Łæĺ¯å¥½æĸ¹": 1240,
      "è¿ĻåĽĽçĤ¹": 1241,
      "æ¯ıå¤©": 1242,
      "åĩºéĩįçĤ¹": 1243,
      "åĿĩè¡": 1244,
      "æī¾å¥½åĽ": 1245,
      "ä½łçļĦåĲĹ": 1246,
      "çľĭèĭ±": 1247,
      "è®²æķħäºĭ": 1248,
      "æĻºèĥ½åĮĸ": 1249,
      "ç®Ģæ´": 1250,
      "åºĶèĥ½åĬĽ": 1251,
      "å¸®ä½łåĴĮ": 1252,
      "åĲĮå²Ĺ": 1253,
      "å°±æĺ¯è®©åĲĦç§į": 1254,
      "åĪĨéĴŁä¼ĳæģ¯": 1255,
      "ä¿ĿæĮģåŃ¦ä¹łåĴĮéĢĤ": 1256,
      "è®°å¾ĹéĢĤå½ĵ": 1257,
      "çĶµå½±ä¹Łæĺ¯å¥½æĸ¹": 1258,
      "æľīä»Ģä¹ĪæĪĳèĥ½å¸®": 1259,
      "åı¯ä»¥è¯ķè¯ķçķ": 1260,
      "è§Ħå¾ĭä½ľæģ¯": 1261,
      "æľįåĬ¡åĳĺ": 1262,
      "éĢļè¿ĩäºĴèģĶç½ĳè¿ŀæİ¥": 1263,
      "çłĶ": 1264,
      "çªģåĩºéĩįçĤ¹": 1265,
      "æİ§åĪ¶æĪĲæľ¬": 1266,
      "ç»Łæ²ŁéĢļ": 1267,
      "åģļå¥½å¸Ĥåľ": 1268,
      "æİ¥åı£": 1269,
      "ç®¡çĲĨåĴĮæİ§åĪ¶": 1270,
      "æĸĩçĶµå½±ä¹Łæĺ¯å¥½æĸ¹": 1271,
      "çī©èģĶç½ĳå°±æĺ¯è®©åĲĦç§į": 1272,
      "åĿļæĮģèĥĮåįķè¯į": 1273,
      "å¤ļè¯»å¤ļåĨĻ": 1274,
      "APIæĺ¯åºĶ": 1275,
      "å®ŀçİ°": 1276,
      "è®¾å¤ĩéĢļè¿ĩäºĴèģĶç½ĳè¿ŀæİ¥": 1277,
      "¡é¥®": 1278,
      "¢éĺŁ": 1279,
      "ªèĮĦå·¥ä½ľ": 1280,
      "¶ç³»ç»Łæ²ŁéĢļ": 1281,
      "ºè°ĥçłĶ": 1282,
      "èº«ä½ĵæľĢéĩįè¦ģ": 1283,
      "è½¯ä»¶ç³»ç»Łæ²ŁéĢļ": 1284,
      "ģæĺİäºĨ": 1285,
      "ıä¸Ģä¸ªæľįåĬ¡åĳĺ": 1286,
      "ä½įè°ĥæķ´åĨħå®": 1287,
      "å¾ªçİ¯è¿Ľè¡Į": 1288,
      "å¤ļè¯´å¤ļè¯»å¤ļåĨĻ": 1289,
      "å¤ļåĲ¬å¤ļè¯´å¤ļè¯»å¤ļåĨĻ": 1290,
      "åħ¶ä»ĸè½¯ä»¶ç³»ç»Łæ²ŁéĢļ": 1291,
      "åºıç¼ĸç¨ĭæİ¥åı£": 1292,
      "æľīçĤ¹ç´¯": 1293,
      "å°±åĥıä¸Ģä¸ªæľįåĬ¡åĳĺ": 1294,
      "å¿ĥæĢģå¹³åĴĮ": 1295,
      "çĶ¨ç¨ĭåºıç¼ĸç¨ĭæİ¥åı£": 1296,
      "éĢĤéĩıè¿ĲåĬ¨": 1297,
      "éĴĪå¯¹ä¸įåĲĮå²Ĺ": 1298,
      "éĩıåĮĸæĪĲæŀľ": 1299,
      "è¿ĻåĽĽçĤ¹æľĢéĩįè¦ģ": 1300,
      "æ¯ıå¤©åĿļæĮģèĥĮåįķè¯į": 1301,
      "åĿĩè¡¡é¥®": 1302,
      "æī¾å¥½åĽ¢éĺŁ": 1303,
      "çľĭèĭ±æĸĩçĶµå½±ä¹Łæĺ¯å¥½æĸ¹": 1304,
      "æĻºèĥ½åĮĸç®¡çĲĨåĴĮæİ§åĪ¶": 1305,
      "ç®Ģæ´ģæĺİäºĨ": 1306,
      "å¸®ä½łåĴĮåħ¶ä»ĸè½¯ä»¶ç³»ç»Łæ²ŁéĢļ": 1307,
      "ä¿ĿæĮģåŃ¦ä¹łåĴĮéĢĤåºĶèĥ½åĬĽ": 1308,
      "è®°å¾ĹéĢĤå½ĵä¼ĳæģ¯": 1309,
      "æľīä»Ģä¹ĪæĪĳèĥ½å¸®ä½łçļĦåĲĹ": 1310,
      "åı¯ä»¥è¯ķè¯ķçķªèĮĦå·¥ä½ľ": 1311,
      "åģļå¥½å¸Ĥåľºè°ĥçłĶ": 1312,
      "çī©èģĶç½ĳå°±æĺ¯è®©åĲĦç§įè®¾å¤ĩéĢļè¿ĩäºĴèģĶç½ĳè¿ŀæİ¥": 1313,
      "APIæĺ¯åºĶçĶ¨ç¨ĭåºıç¼ĸç¨ĭæİ¥åı£": 1314,
      "å®ŀçİ°æĻºèĥ½åĮĸç®¡çĲĨåĴĮæİ§åĪ¶": 1315,
      "ä½įè°ĥæķ´åĨħå®¹": 1316,
      "éĴĪå¯¹ä¸įåĲĮå²Ĺä½įè°ĥæķ´åĨħå®¹": 1317,
      "åĿĩè¡¡é¥®é£Ł": 1318,
      "çľĭèĭ±æĸĩçĶµå½±ä¹Łæĺ¯å¥½æĸ¹æ³ķ": 1319,
      "åı¯ä»¥è¯ķè¯ķçķªèĮĦå·¥ä½ľæ³ķ": 1320,
      "çī©èģĶç½ĳå°±æĺ¯è®©åĲĦç§įè®¾å¤ĩéĢļè¿ĩäºĴèģĶç½ĳè¿ŀæİ¥èµ·æĿ¥": 1321,
      "Co": 1322,
      "Le": 1323,
      "de": 1324,
      "et": 1325,
      "¨éĢ": 1326,
      "¬åŃ¦ä¹ł": 1327,
      "·é¢ĺ": 1328,
      "¹çĽ®": 1329,
      "ºä¸Ĭ": 1330,
      "ģåĴĮå°ļ": 1331,
      "ħæĭ": 1332,
      "īæĭ": 1333,
      "Ĭéĩį": 1334,
      "Įæĸ¹": 1335,
      "Ľå°ı": 1336,
      "Łäººç±»": 1337,
      "łç»Ł": 1338,
      "äºĽå°ı": 1339,
      "çļĦæĬĢæľ¯": 1340,
      "è®ºä¸Ĭ": 1341,
      "åĪ·é¢ĺ": 1342,
      "æĺ¯è®©è®¡ç®Ĺæľº": 1343,
      "äºĨåĨį": 1344,
      "åıĮæĸ¹": 1345,
      "å°Ĭéĩį": 1346,
      "æĢİä¹ĪåĬŀ": 1347,
      "æĢİä¹ĪæĹ©èµ·": 1348,
      "ä¸ªèĢ": 1349,
      "åŃ¦åİŁçĲĨ": 1350,
      "ä¼łç»Ł": 1351,
      "è¦ģä¸įè¦ģ": 1352,
      "å¾Īå¥½çļĦ": 1353,
      "æľīä¸ªèĢ": 1354,
      "åľ¨åŃ¦ä¹ł": 1355,
      "åľ¨ç»Ļ": 1356,
      "çĲĨè®ºä¸Ĭ": 1357,
      "ç®Ĺæ³ķ": 1358,
      "æİ¨çĲĨ": 1359,
      "çĶ¨éĩıåŃĲ": 1360,
      "çĶ¨Le": 1361,
      "åģļäºĽå°ı": 1362,
      "æİ¨èįĲä¸ª": 1363,
      "æİ¨èįĲçĶ¨Le": 1364,
      "éĹ¨éĢ": 1365,
      "åĮħæĭ": 1366,
      "æĦŁçŁ¥": 1367,
      "æĦŁæĥħåĲĹ": 1368,
      "åĬĽåŃ¦åİŁçĲĨ": 1369,
      "éĢĤåĲĪ": 1370,
      "æĭŁäººç±»": 1371,
      "æĥ³æĥ³": 1372,
      "ä»İåīį": 1373,
      "çİĩ": 1374,
      "å°ıåĴĮå°ļ": 1375,
      "éĩĮæľīåº§": 1376,
      "éĩĮæľīä¸ªèĢ": 1377,
      "ä¹Ĳäºİ": 1378,
      "è·Ŀç¦": 1379,
      "æĻºèĥ½çļĦæĬĢæľ¯": 1380,
      "ç®ĢåİĨ": 1381,
      "æ¯Ķä¼łç»Ł": 1382,
      "åĬ©äºº": 1383,
      "éĥ½å¹³": 1384,
      "è®¡ç®Ĺæľºå¿«å¾Īå¤ļ": 1385,
      "éĿĻäºĨåĨį": 1386,
      "æŃ¥ä¸Ń": 1387,
      "è¯Ńæ³ķå¼Ģå§ĭ": 1388,
      "è¿ĽæŃ¥ä¸Ń": 1389,
      "Pythonæĺ¯å¾Īå¥½çļĦ": 1390,
      "ä¿ĿæĮģéĢĤå½ĵ": 1391,
      "è¿ĺä¸įéĶĻåĳĢ": 1392,
      "è¿ĺä¸įéĶĻåĳ¢": 1393,
      "çĦ¶åĲİ": 1394,
      "åĪ«å¤ªéļ¾": 1395,
      "åĪ©çĶ¨éĩıåŃĲ": 1396,
      "é¡¹çĽ®": 1397,
      "æıĲåįĩç®Ĺæ³ķ": 1398,
      "åĨ·éĿĻä¸ĭæĿ¥å¥½å¥½æĥ³æĥ³": 1399,
      "åħ¥éĹ¨éĢ": 1400,
      "æ¨¡æĭŁäººç±»": 1401,
      "ç»ĥæīĭ": 1402,
      "å»ºè®®ä»İåŁºç¡Ģè¯Ńæ³ķå¼Ģå§ĭ": 1403,
      "ä»ĸäºº": 1404,
      "åģļå¥½èĩªå·±çļĦ": 1405,
      "è¿Ľè¡Įè®¡ç®Ĺ": 1406,
      "åºĻéĩĮæľīä¸ªèĢ": 1407,
      "æľīåº§å±±": 1408,
      "å±±éĩĮæľīåº§": 1409,
      "çŃīèĥ½åĬĽ": 1410,
      "çŃīåıĮæĸ¹": 1411,
      "æĦ¿æĦıè¯´è¯´åĲĹ": 1412,
      "ä»Ĭå¤©å¤©æ°Ķè¿ĺä¸įéĶĻåĳ¢": 1413,
      "ä¸ĢçĽ´åľ¨åŃ¦ä¹ł": 1414,
      "äººå·¥æĻºèĥ½æĺ¯è®©è®¡ç®Ĺæľº": 1415,
      "éĩıåŃĲè®¡ç®ĹåĪ©çĶ¨éĩıåŃĲ": 1416,
      "Code": 1417,
      "etCode": 1418,
      "ģåĴĮå°ļåľ¨ç»Ļ": 1419,
      "īæĭ©": 1420,
      "åĪ·é¢ĺæıĲåįĩç®Ĺæ³ķ": 1421,
      "å°Ĭéĩįä»ĸäºº": 1422,
      "çĲĨè®ºä¸Ĭæ¯Ķä¼łç»Ł": 1423,
      "åģļäºĽå°ıé¡¹çĽ®": 1424,
      "æİ¨èįĲçĶ¨LeetCode": 1425,
      "åĮħæĭ¬åŃ¦ä¹ł": 1426,
      "æĦŁçŁ¥çŃīèĥ½åĬĽ": 1427,
      "åĬĽåŃ¦åİŁçĲĨè¿Ľè¡Įè®¡ç®Ĺ": 1428,
      "éĢĤåĲĪåĩºåİ»èµ°èµ°": 1429,
      "ä»İåīįæľīåº§å±±": 1430,
      "å°ıåĴĮå°ļè®²æķħäºĭ": 1431,
      "ä¹ĲäºİåĬ©äºº": 1432,
      "è·Ŀç¦»": 1433,
      "éĥ½å¹³éĿĻäºĨåĨį": 1434,
      "Pythonæĺ¯å¾Īå¥½çļĦåħ¥éĹ¨éĢ": 1435,
      "ä¿ĿæĮģéĢĤå½ĵè·Ŀç¦»": 1436,
      "çĦ¶åĲİåģļäºĽå°ıé¡¹çĽ®": 1437,
      "åĪ«å¤ªéļ¾è¿ĩ": 1438,
      "æ¨¡æĭŁäººç±»æĻºèĥ½çļĦæĬĢæľ¯": 1439,
      "åģļå¥½èĩªå·±çļĦå·¥ä½ľ": 1440,
      "åºĻéĩĮæľīä¸ªèĢģåĴĮå°ļåľ¨ç»Ļ": 1441,
      "å±±éĩĮæľīåº§åºĻ": 1442,
      "çŃīåıĮæĸ¹éĥ½å¹³éĿĻäºĨåĨį": 1443,
      "ä¸ĢçĽ´åľ¨åŃ¦ä¹łè¿ĽæŃ¥ä¸Ń": 1444,
      "äººå·¥æĻºèĥ½æĺ¯è®©è®¡ç®Ĺæľºæ¨¡æĭŁäººç±»æĻºèĥ½çļĦæĬĢæľ¯": 1445,
      "éĩıåŃĲè®¡ç®ĹåĪ©çĶ¨éĩıåŃĲåĬĽåŃ¦åİŁçĲĨè¿Ľè¡Įè®¡ç®Ĺ": 1446,
      "åĪ·é¢ĺæıĲåįĩç®Ĺæ³ķèĥ½åĬĽ": 1447,
      "çĲĨè®ºä¸Ĭæ¯Ķä¼łç»Łè®¡ç®Ĺæľºå¿«å¾Īå¤ļ": 1448,
      "æİ¨èįĲçĶ¨LeetCodeåĪ·é¢ĺæıĲåįĩç®Ĺæ³ķèĥ½åĬĽ": 1449,
      "Pythonæĺ¯å¾Īå¥½çļĦåħ¥éĹ¨éĢīæĭ©": 1450,
      "çĦ¶åĲİåģļäºĽå°ıé¡¹çĽ®ç»ĥæīĭ": 1451,
      "åºĻéĩĮæľīä¸ªèĢģåĴĮå°ļåľ¨ç»Ļå°ıåĴĮå°ļè®²æķħäºĭ": 1452,
      "çŃīåıĮæĸ¹éĥ½å¹³éĿĻäºĨåĨįæ²ŁéĢļ": 1453,
      "¡æĶ¹": 1454,
      "©åĽº": 1455,
      "¯ç": 1456,
      "¯¡æĶ¹": 1457,
      "¶å®Į": 1458,
      "¹è¯į": 1459,
      "ºçĤ¹": 1460,
      "èĪ": 1461,
      "Ġå¤ļ": 1462,
      "ĠåĴĮ": 1463,
      "Ġè®¾": 1464,
      "Ġåħ³": 1465,
      "Ģæ³ķ": 1466,
      "ģåĲ": 1467,
      "ĥå¼ı": 1468,
      "ĥä»¬": 1469,
      "ĩå¹": 1470,
      "ĳä¸Ĭ": 1471,
      "ĴéĢĤ": 1472,
      "ķåľ¨": 1473,
      "Ĺä¸į": 1474,
      "ĺçĤ¹": 1475,
      "Ŀè¯ķ": 1476,
      "Łå¤įä¹ł": 1477,
      "ä¸ļ": 1478,
      "çļĦä»Ģä¹Ī": 1479,
      "çļĦäºº": 1480,
      "çļĦåĪĨ": 1481,
      "çļĦèĩªå·±": 1482,
      "æľŁå¤įä¹ł": 1483,
      "æĺ¯ä¸Ģç§į": 1484,
      "æĺ¯æİ¥åı": 1485,
      "ä½łæľī": 1486,
      "ä½łåı¯ä»¥": 1487,
      "åı¯ç": 1488,
      "å°Ŀè¯ķ": 1489,
      "ä¸įåı¯ç": 1490,
      "æĢİä¹ĪèĥĮåįķè¯į": 1491,
      "æĢİä¹Īæīįèĥ½": 1492,
      "ä¸Ģèµ·": 1493,
      "ä¸ªèĬĤ": 1494,
      "å®ĥä»¬": 1495,
      "åŃ¦çļĦä»Ģä¹Ī": 1496,
      "å¤ļä¸ªèĬĤ": 1497,
      "å¿Ĩ": 1498,
      "ä¼ĺçĤ¹": 1499,
      "åĴĮåĲĮ": 1500,
      "æĪĳå°ı": 1501,
      "å·©åĽº": 1502,
      "åľ¨ä¸Ģèµ·": 1503,
      "å°±æĦŁ": 1504,
      "å¿ĥåĮĸ": 1505,
      "æŀģåĲ": 1506,
      "çĶ¨èģĶ": 1507,
      "äºĭçī©": 1508,
      "è®°å½": 1509,
      "è®°å¿Ĩ": 1510,
      "çĤ¹ä¸Ĭ": 1511,
      "å¸ĥå¼ı": 1512,
      "æł¹è¯į": 1513,
      "æłĩå¹": 1514,
      "èĩªå·±å®Įç¾İ": 1515,
      "æĽ´èĩªä¿¡": 1516,
      "ä¸Ńå¿ĥåĮĸ": 1517,
      "ç¼ºçĤ¹": 1518,
      "ç¼Ģæ³ķ": 1519,
      "æĪĲå®ĥä»¬": 1520,
      "æĪĲå°±æĦŁ": 1521,
      "å®ļå°ı": 1522,
      "å®ļæľŁå¤įä¹ł": 1523,
      "æĥ³æ³ķ": 1524,
      "ç´§": 1525,
      "å¤ªæ£ĴäºĨ": 1526,
      "æĸ°äºĭçī©": 1527,
      "åĩºèĪ": 1528,
      "è¯įæł¹è¯į": 1529,
      "èµ°åĩºèĪ": 1530,
      "åİ»ä¸Ńå¿ĥåĮĸ": 1531,
      "æķ°æį®è¢«": 1532,
      "ç»ĵåĲĪ": 1533,
      "æ³¨èĩªå·±çļĦ": 1534,
      "èĩªä¿¡ä¸įæĺ¯": 1535,
      "èĢĮä¸įæĺ¯": 1536,
      "èĢĮæĺ¯æİ¥åı": 1537,
      "ç§¯æŀģåĲ": 1538,
      "æľ¬æĬĢæľ¯": 1539,
      "è¯Ńè¨ĢåĳĢ": 1540,
      "ä¾ĭåı¥è®°å¿Ĩ": 1541,
      "çĽ®æłĩå¹": 1542,
      "æĢİä¹ĪåĨĻç®ĢåİĨ": 1543,
      "å®Įç¾İçļĦèĩªå·±": 1544,
      "åı«æĪĳå°ı": 1545,
      "åĲĥä»Ģä¹Īå¥½": 1546,
      "ç§¯ç´¯æĪĲå°±æĦŁ": 1547,
      "è´¦æľ¬æĬĢæľ¯": 1548,
      "è§īå¾Ĺèĩªå·±å®Įç¾İ": 1549,
      "åįĩèģĮåĬłèĸª": 1550,
      "åĮºåĿĹéĵ¾æĺ¯ä¸Ģç§į": 1551,
      "æķĪçİĩ": 1552,
      "åĪĽä¸ļ": 1553,
      "å¼łæĢİä¹ĪåĬŀ": 1554,
      "¶å®ĮæĪĲå®ĥä»¬": 1555,
      "Ġå¤ļå°Ŀè¯ķ": 1556,
      "ĠåĴĮç§¯æŀģåĲ": 1557,
      "Ġè®¾å®ļå°ı": 1558,
      "Ġåħ³æ³¨èĩªå·±çļĦ": 1559,
      "ĳä¸ĬçļĦäºº": 1560,
      "ĴéĢĤåĮº": 1561,
      "ķåľ¨å¤ļä¸ªèĬĤ": 1562,
      "Ĺä¸įå®Įç¾İçļĦèĩªå·±": 1563,
      "çļĦåĪĨå¸ĥå¼ı": 1564,
      "ä½łåı¯ä»¥åı«æĪĳå°ı": 1565,
      "ä¸įåı¯ç¯¡æĶ¹": 1566,
      "åŃ¦çļĦä»Ģä¹Īè¯Ńè¨ĢåĳĢ": 1567,
      "ä¼ĺçĤ¹èĢĮä¸įæĺ¯": 1568,
      "çĶ¨èģĶæĥ³æ³ķ": 1569,
      "è®°å½ķåľ¨å¤ļä¸ªèĬĤ": 1570,
      "å®ļæľŁå¤įä¹łå·©åĽº": 1571,
      "è¯įæł¹è¯įç¼Ģæ³ķ": 1572,
      "èµ°åĩºèĪĴéĢĤåĮº": 1573,
      "åİ»ä¸Ńå¿ĥåĮĸçļĦåĪĨå¸ĥå¼ı": 1574,
      "æķ°æį®è¢«è®°å½ķåľ¨å¤ļä¸ªèĬĤ": 1575,
      "ç»ĵåĲĪä¾ĭåı¥è®°å¿Ĩ": 1576,
      "èĩªä¿¡ä¸įæĺ¯è§īå¾Ĺèĩªå·±å®Įç¾İ": 1577,
      "èĢĮæĺ¯æİ¥åıĹä¸įå®Įç¾İçļĦèĩªå·±": 1578,
      "çĽ®æłĩå¹¶å®ĮæĪĲå®ĥä»¬": 1579,
      "åĮºåĿĹéĵ¾æĺ¯ä¸Ģç§įåİ»ä¸Ńå¿ĥåĮĸçļĦåĪĨå¸ĥå¼ı": 1580,
      "Ġå¤ļå°Ŀè¯ķæĸ°äºĭçī©": 1581,
      "ĠåĴĮç§¯æŀģåĲĳä¸ĬçļĦäºº": 1582,
      "Ġè®¾å®ļå°ıçĽ®æłĩå¹¶å®ĮæĪĲå®ĥä»¬": 1583,
      "Ġåħ³æ³¨èĩªå·±çļĦä¼ĺçĤ¹èĢĮä¸įæĺ¯": 1584,
      "ä½łåı¯ä»¥åı«æĪĳå°ıåĬ©æīĭ": 1585,
      "æķ°æį®è¢«è®°å½ķåľ¨å¤ļä¸ªèĬĤçĤ¹ä¸Ĭ": 1586,
      "åĮºåĿĹéĵ¾æĺ¯ä¸Ģç§įåİ»ä¸Ńå¿ĥåĮĸçļĦåĪĨå¸ĥå¼ıè´¦æľ¬æĬĢæľ¯": 1587,
      "ĠåĴĮç§¯æŀģåĲĳä¸ĬçļĦäººåľ¨ä¸Ģèµ·": 1588,
      "Ġåħ³æ³¨èĩªå·±çļĦä¼ĺçĤ¹èĢĮä¸įæĺ¯ç¼ºçĤ¹": 1589,
      "¡Ī": 1590,
      "¥¿è¶Ĭ": 1591,
      "¥åº·": 1592,
      "²åĨį": 1593,
      "´è¿": 1594,
      "ºèĩªå·±": 1595,
      "º²åĨį": 1596,
      "»è¾": 1597,
      "åĭī": 1598,
      "æ¡Ī": 1599,
      "çĮ": 1600,
      "çº²åĨį": 1601,
      "èĦ": 1602,
      "è¥¿è¶Ĭ": 1603,
      "ĦåĴĮ": 1604,
      "ĨæĪĲ": 1605,
      "Īå¼Ģ": 1606,
      "Īåģļ": 1607,
      "Ĭå¤§": 1608,
      "ĸå»": 1609,
      "Ĺå¥½": 1610,
      "Ĺè¶Ĭ": 1611,
      "ľä¸ª": 1612,
      "ľè¥¿è¶Ĭ": 1613,
      "ŁæĪĳ": 1614,
      "łæĿ": 1615,
      "ä¸ľè¥¿è¶Ĭ": 1616,
      "åĪĹå¥½": 1617,
      "æĺ¯æ°": 1618,
      "ä½łæĥ³": 1619,
      "ä½łåı«": 1620,
      "æĢİä¹ĪæıĲ": 1621,
      "æĢİä¹Īåĩı": 1622,
      "ä»Ģä¹Īä¸ľè¥¿è¶Ĭ": 1623,
      "å¼ºèĩªå·±": 1624,
      "æĪĳä»¬": 1625,
      "æĪĳæľĢè¿ĳ": 1626,
      "åħĭ": 1627,
      "åħĪåģļ": 1628,
      "ï¼ŁâĢĶ": 1629,
      "éĢ»è¾": 1630,
      "ä¼ļç»§ç»Ń": 1631,
      "å°±ä¼ļç»§ç»Ń": 1632,
      "éĤ£æĪĳä»¬": 1633,
      "æĿ¥èģĬ": 1634,
      "åģ¥åº·": 1635,
      "æŀĦåĴĮ": 1636,
      "äºĭçĽ¸": 1637,
      "æĬĬå¤§": 1638,
      "æĭĨæĪĲ": 1639,
      "æĭĸå»": 1640,
      "æıĲçº²åĨį": 1641,
      "éĩıé£Ł": 1642,
      "èģĬä»Ģä¹Ī": 1643,
      "ç´łæĿ": 1644,
      "å°ıä»»åĬ¡": 1645,
      "ä¸ĭåİ»": 1646,
      "é«ĺçĥŃ": 1647,
      "è·ŁæĪĳ": 1648,
      "ç»ĵæŀĦåĴĮ": 1649,
      "åĲĥé«ĺçĥŃ": 1650,
      "æ´Ĺè¶Ĭ": 1651,
      "èģĬå¤©åĲ§": 1652,
      "è¯Ńæ³ķæĢİä¹ĪåŃ¦": 1653,
      "åĪĨéĴŁè¯ķè¯ķ": 1654,
      "å°ĳåĲĥé«ĺçĥŃ": 1655,
      "è®°å¾Ĺå¥½å¥½ä¼ĳæģ¯": 1656,
      "åĪ«å¤ªåĭī": 1657,
      "å¾Ģå¾Ģ": 1658,
      "ä½ıåĺ": 1659,
      "ç®¡ä½ıåĺ": 1660,
      "åĿļæĮģè¿ĲåĬ¨": 1661,
      "å¤ļè¯»å¤ļç§¯ç´¯": 1662,
      "æĦ¿æĦıè·ŁæĪĳ": 1663,
      "æ³¨æĦıä»Ģä¹Ī": 1664,
      "æ³¨æĦıç»ĵæŀĦåĴĮ": 1665,
      "ä»»åĬ¡æĭĨæĪĲ": 1666,
      "æħ¢æħ¢æĿ¥": 1667,
      "èħ¿": 1668,
      "çŃĶæ¡Ī": 1669,
      "æķ°åŃ¦æĢİä¹ĪåŃ¦": 1670,
      "åĪĽä¸ļè¦ģ": 1671,
      "´è¿Īå¼Ģ": 1672,
      "çĮľä¸ª": 1673,
      "èĦı": 1674,
      "åĪĹå¥½æıĲçº²åĨį": 1675,
      "æĺ¯æ°´": 1676,
      "ä½łæĥ³èģĬä»Ģä¹Ī": 1677,
      "ä»Ģä¹Īä¸ľè¥¿è¶Ĭæ´Ĺè¶Ĭ": 1678,
      "ï¼ŁâĢĶâĢĶ": 1679,
      "éĢ»è¾ĳ": 1680,
      "å°±ä¼ļç»§ç»Ńä¸ĭåİ»": 1681,
      "éĤ£æĪĳä»¬æĿ¥èģĬ": 1682,
      "æĬĬå¤§ä»»åĬ¡æĭĨæĪĲ": 1683,
      "æĭĸå»¶": 1684,
      "éĩıé£Łçī©": 1685,
      "ç´łæĿĲ": 1686,
      "å°ĳåĲĥé«ĺçĥŃéĩıé£Łçī©": 1687,
      "åĪ«å¤ªåĭīå¼ºèĩªå·±": 1688,
      "å¾Ģå¾Ģå°±ä¼ļç»§ç»Ńä¸ĭåİ»": 1689,
      "ç®¡ä½ıåĺ´è¿Īå¼Ģ": 1690,
      "å¤ļè¯»å¤ļç§¯ç´¯ç´łæĿĲ": 1691,
      "æĦ¿æĦıè·ŁæĪĳè¯´è¯´åĲĹ": 1692,
      "æ³¨æĦıç»ĵæŀĦåĴĮéĢ»è¾ĳ": 1693,
      "çŃĶæ¡Īæĺ¯æ°´": 1694,
      "åĪĹå¥½æıĲçº²åĨįåĨĻ": 1695,
      "ä»Ģä¹Īä¸ľè¥¿è¶Ĭæ´Ĺè¶ĬèĦı": 1696,
      "éĤ£æĪĳä»¬æĿ¥èģĬèģĬå¤©åĲ§": 1697,
      "æĬĬå¤§ä»»åĬ¡æĭĨæĪĲå°ıä»»åĬ¡": 1698,
      "å¾Ģå¾Ģå°±ä¼ļç»§ç»Ńä¸ĭåİ»äºĨ": 1699,
      "ç®¡ä½ıåĺ´è¿Īå¼Ģèħ¿": 1700,
      "¢éľĩæĴ¼": 1701,
      "¥ä¸į": 1702,
      "³èĩªå·±": 1703,
      "èĤ": 1704,
      "ħè¦ģ": 1705,
      "ĪæĦŁäºº": 1706,
      "ıå°±": 1707,
      "ĴåĬ": 1708,
      "Ķè®°": 1709,
      "ĿèĢĥ": 1710,
      "çļĦå¼Ģ": 1711,
      "å¥ıå°±": 1712,
      "å¥½ç´¯": 1713,
      "å¥½æĹł": 1714,
      "æĺ¯ä»Ģä¹Ī": 1715,
      "æĢ¥ä¸į": 1716,
      "æĢĿèĢĥ": 1717,
      "åıĪæĦŁäºº": 1718,
      "ä¸įå¿": 1719,
      "æĢİä¹ĪåįĩèģĮåĬłèĸª": 1720,
      "åĴĮéľĢè¦ģ": 1721,
      "åĴĮä½łèģĬå¤©": 1722,
      "æĪĳåĸľæ¬¢": 1723,
      "è¦ģçĤ¹": 1724,
      "è¦ģåĴĮéľĢè¦ģ": 1725,
      "æĹ¢éľĩæĴ¼": 1726,
      "äººè§£": 1727,
      "æľīä½łçļĦ": 1728,
      "æľīåĴĮä½łèģĬå¤©": 1729,
      "åŃ¦ä¹łæĸ°": 1730,
      "ä¼ļæĢĿèĢĥ": 1731,
      "çī¢": 1732,
      "åģļç¬": 1733,
      "è®°è´¦": 1734,
      "ä»Ĭå¤©çī¹": 1735,
      "çĤ¹å¥½çļĦ": 1736,
      "åĪĨæ¸ħ": 1737,
      "ä¸ĬçļĦäºĭæĥħ": 1738,
      "è°ľ": 1739,
      "ä½ľæĸĩ": 1740,
      "åĪ«å¼Ģå¿ĥ": 1741,
      "åĪ«äººè§£": 1742,
      "æĽ´çī¢": 1743,
      "éĴ±": 1744,
      "æĥ³è¦ģåĴĮéľĢè¦ģ": 1745,
      "è¿ĺæľīåĴĮä½łèģĬå¤©": 1746,
      "å®Įä¼ļæĢĿèĢĥ": 1747,
      "è¿Ļæł·": 1748,
      "é«ĺæķĪçİĩ": 1749,
      "èĬĤå¥ıå°±": 1750,
      "çľĭå®Įä¼ļæĢĿèĢĥ": 1751,
      "æ¯Ķå¦Ĥ": 1752,
      "åĲĥçĤ¹å¥½çļĦ": 1753,
      "å·¥ä½ľä¸ĬçļĦäºĭæĥħ": 1754,
      "åĬ©åĪ«äººè§£": 1755,
      "å¸®åĬ©åĪ«äººè§£": 1756,
      "éĹ®é¢ĺè¯»ä¹¦": 1757,
      "æľįæĭĸå»¶": 1758,
      "å°±æĺ¯æľīçĤ¹ç´¯": 1759,
      "æĢİä¹ĪåŃ¦èĭ±è¯Ń": 1760,
      "å°ĳä¸įå¿": 1761,
      "è®°å¾ĹæĽ´çī¢": 1762,
      "è¾Ľèĭ¦ä¸Ģå¤©": 1763,
      "çĿĢéĹ®é¢ĺè¯»ä¹¦": 1764,
      "çĶµå½±åĳĹ": 1765,
      "ç¥Ŀç¦": 1766,
      "æĢ»ç»ĵè¦ģçĤ¹": 1767,
      "åĨ³éĹ®é¢ĺ": 1768,
      "æĢİä¹ĪåĨĻä½ľæĸĩ": 1769,
      "åĲİæĢ»ç»ĵè¦ģçĤ¹": 1770,
      "çŁ¥è¯Ĩ": 1771,
      "åĩıå°ĳä¸įå¿": 1772,
      "æħ¢æħ¢è°ĥæķ´": 1773,
      "æī¾åĪ°èĬĤå¥ıå°±": 1774,
      "è®²ä¸ªæķħäºĭ": 1775,
      "å¸¦çĿĢéĹ®é¢ĺè¯»ä¹¦": 1776,
      "çĬĴåĬ": 1777,
      "è¯»å®ĮåĲİæĢ»ç»ĵè¦ģçĤ¹": 1778,
      "æĺ¯ç¬¬ä¸ĢæŃ¥": 1779,
      "ä½łæľīæĦŁæĥħåĲĹ": 1780,
      "åĴĮåĲĮäºĭçĽ¸": 1781,
      "ä½łåı«ä»Ģä¹Ī": 1782,
      "æĢİä¹ĪåĩıèĤ": 1783,
      "æĪĳæľĢè¿ĳåľ¨": 1784,
      "åħĭæľįæĭĸå»¶": 1785,
      "çĮľä¸ªè°ľ": 1786,
      "³èĩªå·±åĲ§": 1787,
      "ħè¦ģçļĦå¼Ģ": 1788,
      "æĢ¥ä¸įæĿ¥": 1789,
      "æĪĳåĸľæ¬¢åŃ¦ä¹łæĸ°": 1790,
      "æĹ¢éľĩæĴ¼åıĪæĦŁäºº": 1791,
      "æľīä½łçļĦç¥Ŀç¦": 1792,
      "åģļç¬Ķè®°": 1793,
      "è®°è´¦æĺ¯ç¬¬ä¸ĢæŃ¥": 1794,
      "ä»Ĭå¤©çī¹åĪ«å¼Ģå¿ĥ": 1795,
      "åĪĨæ¸ħæĥ³è¦ģåĴĮéľĢè¦ģ": 1796,
      "è¿Ļæł·è®°å¾ĹæĽ´çī¢": 1797,
      "çľĭå®Įä¼ļæĢĿèĢĥå¾Īå¤ļ": 1798,
      "æ¯Ķå¦Ĥåĳ¢": 1799,
      "åĲĥçĤ¹å¥½çļĦçĬĴåĬ": 1800,
      "å·¥ä½ľä¸ĬçļĦäºĭæĥħæĢ¥ä¸įæĿ¥": 1801,
      "å¸®åĬ©åĪ«äººè§£åĨ³éĹ®é¢ĺ": 1802,
      "è¾Ľèĭ¦ä¸Ģå¤©äºĨ": 1803,
      "åĩıå°ĳä¸įå¿ħè¦ģçļĦå¼Ģ": 1804,
      "æī¾åĪ°èĬĤå¥ıå°±å¥½äºĨ": 1805,
      "æĢİä¹ĪåĩıèĤ¥": 1806,
      "æĪĳåĸľæ¬¢åŃ¦ä¹łæĸ°çŁ¥è¯Ĩ": 1807,
      "æľīä½łçļĦç¥Ŀç¦ı": 1808,
      "åĲĥçĤ¹å¥½çļĦçĬĴåĬ³èĩªå·±åĲ§": 1809,
      "åĩıå°ĳä¸įå¿ħè¦ģçļĦå¼ĢæĶ¯": 1810,
      "¤¾": 1811,
      "¤è¯Ĩ": 1812,
      "¤çĭ¬": 1813,
      "¦ĸ": 1814,
      "¨çĶµå½±": 1815,
      "±åĲĮ": 1816,
      "¹è¯Ħ": 1817,
      "ç¤¾": 1818,
      "é¦ĸ": 1819,
      "ĤåĬł": 1820,
      "ħäºº": 1821,
      "ĭå¾ĭ": 1822,
      "ĭæĹł": 1823,
      "ıæĹ¶": 1824,
      "ļå¾": 1825,
      "è¯ļå¾": 1826,
      "ä¹ĭæĹł": 1827,
      "è®¤è¯Ĩ": 1828,
      "æĺ¯ä¸Ģä¸ª": 1829,
      "æĢķ": 1830,
      "ä½łæĺ¯": 1831,
      "ä½łåĲ¬": 1832,
      "ä½łä¸įæĺ¯": 1833,
      "åıĤåĬł": 1834,
      "åŃ¤çĭ¬": 1835,
      "æĢİä¹Īä¿ĿæĮģ": 1836,
      "æĢİä¹Īè¯»ä¹¦": 1837,
      "åŃ¦ç¼ĸç¨ĭ": 1838,
      "å¤ļåıĤåĬł": 1839,
      "åĴĮåħ´": 1840,
      "æĪĳä¸ĢçĽ´": 1841,
      "æĪĳæĺ¯ä¸Ģä¸ª": 1842,
      "åħ±åĲĮ": 1843,
      "æĹĭå¾ĭ": 1844,
      "å¾Īç¾İ": 1845,
      "å¾Īæ£ĴäºĨ": 1846,
      "å¾ĪåŃ¤çĭ¬": 1847,
      "æī¹è¯Ħ": 1848,
      "æľīæĦı": 1849,
      "æľīåĪĻ": 1850,
      "è¯Ŀé¢ĺ": 1851,
      "å°±å¥½": 1852,
      "éĤ£å°±å¥½": 1853,
      "å¿ĥéĩĮ": 1854,
      "æİ¨èįĲé¦ĸ": 1855,
      "æİ¨èįĲä½łåĲ¬": 1856,
      "åĪ«æĢķ": 1857,
      "èµ·é£İ": 1858,
      "ä¸Ģä¸ªäºº": 1859,
      "è¶£": 1860,
      "è¯įä¹Łå¾Ī": 1861,
      "AIèģĬå¤©": 1862,
      "éĥ¨çĶµå½±": 1863,
      "çľŁè¯ļå¾": 1864,
      "éľĢè¦ģéļ": 1865,
      "æ´»åĬ¨": 1866,
      "éĥ½åľ¨": 1867,
      "è¢«æī¹è¯Ħ": 1868,
      "åĪĻåĬłå": 1869,
      "åĪ«å¤ªå¾Ģ": 1870,
      "å¾Īé«ĺåħ´è®¤è¯Ĩ": 1871,
      "æľīä»Ģä¹ĪéľĢè¦ģéļ": 1872,
      "éĿ¢è¯ķç´§": 1873,
      "æĶ¹ä¹ĭæĹł": 1874,
      "è§īå¾Ĺå¾ĪåŃ¤çĭ¬": 1875,
      "æī¾åĪ°åħ±åĲĮ": 1876,
      "äº¤æľĭåıĭ": 1877,
      "äº¤æ´»åĬ¨": 1878,
      "æŃĮè¯įä¹Łå¾Ī": 1879,
      "ä½łå·²ç»ıå¾Īæ£ĴäºĨ": 1880,
      "è¦ģä¸įè¦ģè·³æ§½": 1881,
      "åĴĮåĲĮäºĭçĽ¸å¤Ħ": 1882,
      "çĮľä¸ªè°ľè¯Ń": 1883,
      "ç¤¾äº¤æ´»åĬ¨": 1884,
      "ıæĹ¶è¯´": 1885,
      "ä½łä¸įæĺ¯ä¸Ģä¸ªäºº": 1886,
      "å¤ļåıĤåĬłç¤¾äº¤æ´»åĬ¨": 1887,
      "åĴĮåħ´è¶£": 1888,
      "æĪĳä¸ĢçĽ´éĥ½åľ¨": 1889,
      "æĪĳæĺ¯ä¸Ģä¸ªAIèģĬå¤©": 1890,
      "æĹĭå¾ĭå¾Īç¾İ": 1891,
      "æľīæĦıå¢ĥ": 1892,
      "æľīåĪĻæĶ¹ä¹ĭæĹł": 1893,
      "è¯Ŀé¢ĺåĴĮåħ´è¶£": 1894,
      "å¿ĥéĩĮåİ»": 1895,
      "æİ¨èįĲé¦ĸæŃĮ": 1896,
      "èµ·é£İäºĨ": 1897,
      "çľŁè¯ļå¾ħäºº": 1898,
      "è¢«æī¹è¯ĦäºĨ": 1899,
      "åĪĻåĬłåĭī": 1900,
      "åĪ«å¤ªå¾Ģå¿ĥéĩĮåİ»": 1901,
      "å¾Īé«ĺåħ´è®¤è¯Ĩä½ł": 1902,
      "æľīä»Ģä¹ĪéľĢè¦ģéļıæĹ¶è¯´": 1903,
      "æī¾åĪ°åħ±åĲĮè¯Ŀé¢ĺåĴĮåħ´è¶£": 1904,
      "æŃĮè¯įä¹Łå¾ĪæľīæĦıå¢ĥ": 1905,
      "æĪĳæĺ¯ä¸Ģä¸ªAIèģĬå¤©åĬ©æīĭ": 1906,
      "æľīåĪĻæĶ¹ä¹ĭæĹłåĪĻåĬłåĭī": 1907,
      "¦èĻ": 1908,
      "ªæĺ¯": 1909,
      "ªä½łèģĬå¤©": 1910,
      "°åĪ°": 1911,
      "°å¸¦": 1912,
      "·åĳ": 1913,
      "ģéĴ±": 1914,
      "īæĪĳ": 1915,
      "Ĭè¯": 1916,
      "ŃåŃ¦ä¹ł": 1917,
      "è¯·åĳ": 1918,
      "å¥½èµ·æĿ¥": 1919,
      "åıªæĺ¯": 1920,
      "ä¸įæĸ": 1921,
      "ä¸įé¡ºåĪ©": 1922,
      "æĢİä¹Īå¤įä¹ł": 1923,
      "ä»Ģä¹Īéĥ½": 1924,
      "ä»Ģä¹Īèħ": 1925,
      "ä¸Ģå®ļ": 1926,
      "è¯´éĶĻ": 1927,
      "æĪĳåı¯ä»¥": 1928,
      "æĪĳä¹Ł": 1929,
      "æĪĳè¯´éĶĻ": 1930,
      "å¾Īå¥½äºĨ": 1931,
      "æľīä¸Ģå¤©": 1932,
      "åľ¨ä¸įæĸ": 1933,
      "ä¼ļæĽ´å¥½çļĦ": 1934,
      "ä¼ļå¥½èµ·æĿ¥": 1935,
      "å°±èĥĸ": 1936,
      "åģļå¾Ĺ": 1937,
      "çľģéĴ±": 1938,
      "ä»Ĭå¤©å¥½ç´¯": 1939,
      "åı¯ä»¥èģĬ": 1940,
      "è°ģ": 1941,
      "ä»Ģä¹Īæĺ¯äºĳè®¡ç®Ĺ": 1942,
      "ä»Ģä¹Īæĺ¯çī©èģĶç½ĳ": 1943,
      "ä»Ģä¹Īæĺ¯äººå·¥æĻºèĥ½": 1944,
      "æıĲå»ºè®®": 1945,
      "è¿ĺç³»": 1946,
      "èģĬåķĬ": 1947,
      "è¿Ļåıªæĺ¯": 1948,
      "æ¬¡ä¸Ģå®ļ": 1949,
      "ä¸ĭæ¬¡ä¸Ģå®ļ": 1950,
      "éĻªä½łèģĬå¤©": 1951,
      "è®²ç¬ĳè¯Ŀ": 1952,
      "çĦ¦èĻ": 1953,
      "éĥ½ä¼ļå¥½èµ·æĿ¥": 1954,
      "æŀľæĪĳè¯´éĶĻ": 1955,
      "ä¸Ģæ¬¡èĢĥè¯ķ": 1956,
      "å¼Ģå§ĭäºĨ": 1957,
      "ä¸Ģå¤©å¼Ģå§ĭäºĨ": 1958,
      "ç¢°åĪ°": 1959,
      "ä¸ĢåĪĩéĥ½ä¼ļå¥½èµ·æĿ¥": 1960,
      "åĽŀçŃĶ": 1961,
      "å¦ĤæŀľæĪĳè¯´éĶĻ": 1962,
      "æ²¡äºĭæ²¡äºĭ": 1963,
      "ä½łå·²ç»ıåģļå¾Ĺ": 1964,
      "ä½łä¼ļåģļ": 1965,
      "èĥĸå°±èĥĸ": 1966,
      "æĸ°çļĦä¸Ģå¤©å¼Ģå§ĭäºĨ": 1967,
      "çĶŁæĹ¥å¿«ä¹Ĳ": 1968,
      "æİ¨èįĲä¸ªçĶµå½±åĳĹ": 1969,
      "æĢİä¹Īæīįèĥ½æĽ´èĩªä¿¡": 1970,
      "åĪĽä¸ļè¦ģæ³¨æĦıä»Ģä¹Ī": 1971,
      "ä½łæĺ¯è°ģ": 1972,
      "°å¸¦åķĬ": 1973,
      "Ĭè¯īæĪĳ": 1974,
      "ŃåŃ¦ä¹łä¸Ń": 1975,
      "è¯·åĳĬè¯īæĪĳ": 1976,
      "ä»Ģä¹Īéĥ½åı¯ä»¥èģĬ": 1977,
      "ä»Ģä¹Īèħ°å¸¦åķĬ": 1978,
      "æĪĳåı¯ä»¥éĻªä½łèģĬå¤©": 1979,
      "æĪĳä¹Łåľ¨ä¸įæĸ": 1980,
      "è¿ĺç³»ä»Ģä¹Īèħ°å¸¦åķĬ": 1981,
      "è¿Ļåıªæĺ¯ä¸Ģæ¬¡èĢĥè¯ķ": 1982,
      "ä¸ĭæ¬¡ä¸Ģå®ļä¼ļæĽ´å¥½çļĦ": 1983,
      "çĦ¦èĻĳ": 1984,
      "ç¢°åĪ°äºĨ": 1985,
      "ä¸ĢåĪĩéĥ½ä¼ļå¥½èµ·æĿ¥çļĦ": 1986,
      "åĽŀçŃĶéĹ®é¢ĺ": 1987,
      "å¦ĤæŀľæĪĳè¯´éĶĻäºĨ": 1988,
      "ä½łå·²ç»ıåģļå¾Ĺå¾Īå¥½äºĨ": 1989,
      "èĥĸå°±èĥĸåĳĹ": 1990,
      "æĪĳä¹Łåľ¨ä¸įæĸŃåŃ¦ä¹łä¸Ń": 1991,
      "Gå¿«å¾Īå¤ļ": 1992,
      "Gæĺ¯ç¬¬": 1993,
      "¢¦": 1994,
      "£ç§": 1995,
      "¨æľ": 1996,
      "«å¹": 1997,
      "¬å¼ı": 1998,
      "±¡": 1999,
      "²åĺ": 2000,
      "æ¢¦": 2001,
      "è±¡": 2002,
      "Ĩè§": 2003,
      "Ĵçĭ¬": 2004,
      "Ķä»": 2005,
      "ķæľī": 2006,
      "äºĶä»": 2007,
      "å¥½éļ¾": 2008,
      "å¥½çĦ¦èĻĳ": 2009,
      "å¥½æ¢¦": 2010,
      "åĳ¨æľ": 2011,
      "ä½łä¹Łå¾Ī": 2012,
      "åı²": 2013,
      "æĢİä¹Īåħĭæľįæĭĸå»¶": 2014,
      "æĢİä¹Īäº¤æľĭåıĭ": 2015,
      "æĢİä¹ĪçľģéĴ±": 2016,
      "ä¸Ģä¸ĭ": 2017,
      "ä¸ªå¥½æ¢¦": 2018,
      "å¤ļèģĶ": 2019,
      "è§Ĩè§": 2020,
      "åħ¬å¼ı": 2021,
      "èĩªçĦ¶": 2022,
      "åľ¨å®¶": 2023,
      "ä¼ļå¯¹": 2024,
      "å°±è®°ä½ı": 2025,
      "å¿ĥåĳ¢": 2026,
      "åģļä¸ªå¥½æ¢¦": 2027,
      "æİ¨èįĲéĥ¨çĶµå½±": 2028,
      "åı¯ä»¥åĩºåİ»èµ°èµ°": 2029,
      "ä»Ģä¹Īæĺ¯æľºåĻ¨åŃ¦ä¹ł": 2030,
      "ä»Ģä¹Īæĺ¯API": 2031,
      "éĶĻåĲĹ": 2032,
      "æĮģæĽ´å¤ļ": 2033,
      "éĢļä¿¡": 2034,
      "çĲĨè§£åİŁçĲĨ": 2035,
      "æĹ¶è¿ŀæİ¥": 2036,
      "ç®Ģåı²": 2037,
      "ç³»å®ŀ": 2038,
      "å±ķæľī": 2039,
      "å·¥ä½ľä¸įé¡ºåĪ©": 2040,
      "æ²¡èĢĥ": 2041,
      "éľĢè¦ģçĲĨè§£åİŁçĲĨ": 2042,
      "åĲĮæĹ¶è¿ŀæİ¥": 2043,
      "äººç±»åıĳ": 2044,
      "äººç±»ç®Ģåı²": 2045,
      "Pythonæĺ¯ä»Ģä¹Ī": 2046,
      "æĶ¯æĮģæĽ´å¤ļ": 2047,
      "»åĬ¨éĢļä¿¡": 2048,
      "æľ¬ä¹¦": 2049,
      "æĻļä¸Ĭ": 2050,
      "éĻħçİ°": 2051,
      "æĪĸèĢħåľ¨å®¶": 2052,
      "èĭ±è¯Ńè¯Ńæ³ķæĢİä¹ĪåŃ¦": 2053,
      "ä»Ĭå¤©å¤©æ°ĶæĢİä¹Īæł·": 2054,
      "æľĢè¿ĳæĢİä¹Īæł·": 2055,
      "è®¾å¤ĩåĲĮæĹ¶è¿ŀæİ¥": 2056,
      "å¥½å¥½ä¼ĳæģ¯ä¸Ģä¸ĭ": 2057,
      "çĥŃå¿ĥåĳ¢": 2058,
      "çĬ¯": 2059,
      "è¯»å®Įä¼ļå¯¹": 2060,
      "ä½łä¼ļçĬ¯": 2061,
      "æĸ°çļĦçĲĨè§£": 2062,
      "åĵĪåĵĪ": 2063,
      "çī©çĲĨéľĢè¦ģçĲĨè§£åİŁçĲĨ": 2064,
      "ä¸įå®¢æ°ĶåĳĢ": 2065,
      "ä¸ŃåįĪåĲĥä»Ģä¹Īå¥½": 2066,
      "æĢİä¹ĪæıĲé«ĺæķĪçİĩ": 2067,
      "å¥½æĹłèģĬåķĬ": 2068,
      "æĪĳæľĢè¿ĳåľ¨åŃ¦ç¼ĸç¨ĭ": 2069,
      "Gæĺ¯ç¬¬äºĶä»": 2070,
      "£ç§»åĬ¨éĢļä¿¡": 2071,
      "«å¹²åĺ": 2072,
      "Ĵçĭ¬çī¹": 2073,
      "åĳ¨æľ«å¹²åĺ": 2074,
      "ä½łä¹Łå¾ĪçĥŃå¿ĥåĳ¢": 2075,
      "å¤ļèģĶç³»å®ŀ": 2076,
      "è§Ĩè§Ĵçĭ¬çī¹": 2077,
      "åħ¬å¼ıèĩªçĦ¶": 2078,
      "å°±è®°ä½ıäºĨ": 2079,
      "å±ķæľīæĸ°çļĦçĲĨè§£": 2080,
      "äººç±»åıĳå±ķæľīæĸ°çļĦçĲĨè§£": 2081,
      "æĶ¯æĮģæĽ´å¤ļè®¾å¤ĩåĲĮæĹ¶è¿ŀæİ¥": 2082,
      "éĻħçİ°è±¡": 2083,
      "æĪĸèĢħåľ¨å®¶å¥½å¥½ä¼ĳæģ¯ä¸Ģä¸ĭ": 2084,
      "è¯»å®Įä¼ļå¯¹äººç±»åıĳå±ķæľīæĸ°çļĦçĲĨè§£": 2085,
      "Gæĺ¯ç¬¬äºĶä»£ç§»åĬ¨éĢļä¿¡": 2086,
      "åĳ¨æľ«å¹²åĺĽ": 2087,
      "å¤ļèģĶç³»å®ŀéĻħçİ°è±¡": 2088,
      "åħ¬å¼ıèĩªçĦ¶å°±è®°ä½ıäºĨ": 2089,
      "Gæĺ¯ç¬¬äºĶä»£ç§»åĬ¨éĢļä¿¡æĬĢæľ¯": 2090,
      "¸ç¦": 2091,
      "ıå®ī": 2092,
      "Ŀä½ł": 2093,
      "æĺ¯ä½ł": 2094,
      "æĪĳå¾Īå¼Ģå¿ĥ": 2095,
      "ä»Ĭå¤©å¿ĥæĥħä¸įå¥½": 2096,
      "å¾ĹçļĦ": 2097,
      "å¹¸ç¦": 2098,
      "è¿Ļæĺ¯ä½ł": 2099,
      "åºĶå¾ĹçļĦ": 2100,
      "ç¥Ŀä½ł": 2101,
      "èĢĥè¯ķæĢİä¹Īå¤įä¹ł": 2102,
      "åĪ°ä½łæĪĳå¾Īå¼Ģå¿ĥ": 2103,
      "ä¸ĢåĪĩé¡ºåĪ©": 2104,
      "èĥ½å¸®åĪ°ä½łæĪĳå¾Īå¼Ģå¿ĥ": 2105,
      "è®²ä¸ªç¬ĳè¯Ŀ": 2106,
      "åįĩèģĮäºĨ": 2107,
      "ç»§ç»ŃåĬłæ²¹": 2108,
      "è°¢è°¢ä½ł": 2109,
      "æģŃåĸľæģŃåĸľ": 2110,
      "æĢİä¹Īä¿ĿæĮģåģ¥åº·": 2111,
      "éĿ¢è¯ķç´§å¼łæĢİä¹ĪåĬŀ": 2112,
      "æ²¡èĢĥå¥½": 2113,
      "ä½łä¼ļçĬ¯éĶĻåĲĹ": 2114,
      "ıå®īåº·": 2115,
      "å¹¸ç¦ıå®īåº·": 2116,
      "è¿Ļæĺ¯ä½łåºĶå¾ĹçļĦ": 2117,
      "ç¥Ŀä½łä¸ĢåĪĩé¡ºåĪ©": 2118,
      "«æ´": 2119,
      "°å¯": 2120,
      "±æģ": 2121,
      "ºåħ": 2122,
      "»æĦ": 2123,
      "»æī¾": 2124,
      "¼æ": 2125,
      "¼Ķ": 2126,
      "¼å¾Ĺ": 2127,
      "åĢ": 2128,
      "Īä¸ĢåĪĩ": 2129,
      "ĭäºĨ": 2130,
      "ĺç©¿è¶Ĭ": 2131,
      "ŀå¯": 2132,
      "ŃçļĦ": 2133,
      "è¯ºåħ": 2134,
      "å¤±æģ": 2135,
      "çļĦæĺ¯": 2136,
      "å¥½å¤§": 2137,
      "äºĨçĶŁ": 2138,
      "ä½łåĢ": 2139,
      "åŃĺç©¿è¶Ĭ": 2140,
      "æĢİä¹ĪåĴĮåĲĮäºĭçĽ¸å¤Ħ": 2141,
      "æĪĳçĽ¸": 2142,
      "ä¼ļæ²": 2143,
      "éĤ£æİ¨èįĲ": 2144,
      "åĽŃçļĦ": 2145,
      "æİ¨èįĲæľ¬ä¹¦": 2146,
      "èĩªå·±å¤ª": 2147,
      "ä»Ģä¹Īæĺ¯æ·±åº¦åŃ¦ä¹ł": 2148,
      "åĪ«ç»Ļ": 2149,
      "æĸ°å®¶": 2150,
      "ä¿¡ä½ł": 2151,
      "è®²çļĦæĺ¯": 2152,
      "æķħäºĭä¹Łå¾Ī": 2153,
      "äººç±»ä¸º": 2154,
      "ãĢĭï¼ģ": 2155,
      "èĻ«æ´": 2156,
      "çī¹æķĪ": 2157,
      "å¤§åİĭåĬĽ": 2158,
      "ä¸ĢæŃ¥æĿ¥": 2159,
      "ä¸ĢæŃ¥ä¸ĢæŃ¥æĿ¥": 2160,
      "æĹ¶éĹ´ä¼ļæ²": 2161,
      "æĽ´å¥½çļĦäºº": 2162,
      "çī©çĲĨå¥½éļ¾": 2163,
      "åİĭåĬĽå¥½å¤§": 2164,
      "æĬ±ä½ł": 2165,
      "æĬ±æĬ±ä½ł": 2166,
      "æĻļä¸ĬåĲĥä»Ģä¹Ī": 2167,
      "°å¯¼æ": 2168,
      "»æĦĪä¸ĢåĪĩ": 2169,
      "»æī¾æĸ°å®¶": 2170,
      "¼ĶçļĦ": 2171,
      "¼å¾ĹæĽ´å¥½çļĦäºº": 2172,
      "ŀå¯»æī¾æĸ°å®¶": 2173,
      "è¯ºåħ°å¯¼æ": 2174,
      "å¤±æģĭäºĨ": 2175,
      "äºĨçĶŁåŃĺç©¿è¶Ĭ": 2176,
      "ä½łåĢ¼å¾ĹæĽ´å¥½çļĦäºº": 2177,
      "æĪĳçĽ¸ä¿¡ä½ł": 2178,
      "åĽŃçļĦæķħäºĭ": 2179,
      "èĩªå·±å¤ªå¤§åİĭåĬĽ": 2180,
      "åĪ«ç»Ļèĩªå·±å¤ªå¤§åİĭåĬĽ": 2181,
      "è®²çļĦæĺ¯äººç±»ä¸º": 2182,
      "æķħäºĭä¹Łå¾ĪæĦŁäºº": 2183,
      "èĻ«æ´ŀå¯»æī¾æĸ°å®¶": 2184,
      "çī¹æķĪéľĩæĴ¼": 2185,
      "æĹ¶éĹ´ä¼ļæ²»æĦĪä¸ĢåĪĩ": 2186,
      "è¯ºåħ°å¯¼æ¼ĶçļĦ": 2187,
      "äºĨçĶŁåŃĺç©¿è¶ĬèĻ«æ´ŀå¯»æī¾æĸ°å®¶": 2188,
      "è®²çļĦæĺ¯äººç±»ä¸ºäºĨçĶŁåŃĺç©¿è¶ĬèĻ«æ´ŀå¯»æī¾æĸ°å®¶": 2189,
      "æĹ¶éĹ´ä¼ļæ²»æĦĪä¸ĢåĪĩçļĦ": 2190,
      "è®²çļĦæĺ¯äººç±»ä¸ºäºĨçĶŁåŃĺç©¿è¶ĬèĻ«æ´ŀå¯»æī¾æĸ°å®¶åĽŃçļĦæķħäºĭ": 2191,
      "Gæĺ¯ä»Ģä¹Ī": 2192,
      "ä»Ģä¹Īæĺ¯éĩıåŃĲè®¡ç®Ĺ": 2193,
      "ä»Ģä¹Īæĺ¯åĮºåĿĹéĵ¾": 2194,
      "èĢĥè¯ķæ²¡èĢĥå¥½": 2195,
      "ç§ĳå¹»çļĦ": 2196,
      "ä½łä¼ļåģļä»Ģä¹Ī": 2197,
      "åľ¨å¿ĥ": 2198,
      "åľ¨åĲĹ": 2199,
      "äºĭåĲĹ": 2200,
      "åĪ«æĶ¾": 2201,
      "æľīä»Ģä¹ĪäºĭåĲĹ": 2202,
      "å¯¹ä¸įèµ·": 2203,
      "åľ¨çļĦåľ¨çļĦ": 2204,
      "åľ¨å¿ĥä¸Ĭ": 2205,
      "åĪ«æĶ¾åľ¨å¿ĥä¸Ĭ": 2206,
      "ä»Ģæĺ¯": 2207,
      "ĭåĲµæŀ¶äºĨ": 2208,
      "ä»Ĭå¤©å¾Īå¼Ģå¿ĥåĳĢ": 2209,
      "æŀ¶äºĨ": 2210,
      "åĴĮæľĭåıĭæŀ¶äºĨ": 2211,
      "å¿ĥæĥħä¸įå¥½åĲ§": 2212,
      "åĴĮæľĭåıĭåĲµæŀ¶äºĨåĳ¢": 2213,
      "æĢİä¹ĪæĹ©èµ·åĵ¦": 2214,
      "æķ°åŃ¦æĢİä¹ĪåŃ¦åĳĢ": 2215,
      "æĢİä¹ĪåĨĻä½ľæĸĩåĳ¢": 2216,
      "ä½łæľīæĦŁæĥħåĲĹåĲ§": 2217,
      "æľĭåĲµæŀ¶äºĨ": 2218,
      "æĢİå¤įä¹ł": 2219,
      "æĢİåĴĮåĲĮäºĭçĽ¸å¤Ħ": 2220,
      "åĴĮæľĭåĲµæŀ¶äºĨ": 2221,
      "ä»Ģä¹Īæĺ¯æľº": 2222,
      "ä»Ģä¹Īæĺ¯åĻ¨åŃ¦ä¹ł": 2223,
      "ä¸ŃåĲĥä»Ģä¹Īå¥½": 2224,
      "onæĺ¯ä»Ģä¹Ī": 2225,
      "Pythn": 2226,
      "ä½łå¥½åĲ§": 2227,
      "èĢĥè¯ķæĢİå¤įä¹ł": 2228,
      "æĻļå®īåĳĢ": 2229,
      "ä¸ŃåįĪåĲĥ": 2230,
      "æĢİä¹ĪæĹ©èµ·åķĬ": 2231,
      "æĢİä¹ĪèĥĮåįķè¯įåĵ¦": 2232,
      "æĢİä¹ĪåĨĻç®ĢåİĨåĳ¢": 2233,
      "æĢİä¹ĪåįĩèģĮåĬłèĸªåĳ¢": 2234,
      "å°±æĺ¯æľīçĤ¹ç´¯åĳĢ": 2235,
      "å°±æĺ¯æľīçĤ¹ç´¯åķĬ": 2236,
      "æĢİä¹ĪåŃ¦èĭ±è¯ŃåĲ§": 2237,
      "æĢİä¹ĪåŃ¦èĭ±è¯Ńåĵ¦": 2238,
      "æĢİä¹ĪåĨĻä½ľæĸĩåķĬ": 2239,
      "è§īå¾Ĺå¾ĪåŃ¤çĭ¬åĳĢ": 2240,
      "è¦ģä¸įè¦ģè·³æ§½åĵ¦": 2241,
      "ä»Ģä¹Īæĺ¯äººå·¥æĻºèĥ½åķĬ": 2242,
      "æİ¨èįĲä¸ªçĶµå½±åĳĹåĳĢ": 2243,
      "åĪĽä¸ļè¦ģæ³¨æĦıä»Ģä¹Īåĳ¢": 2244,
      "åĪĽä¸ļè¦ģæ³¨æĦıä»Ģä¹ĪåĲ§": 2245,
      "æĢİä¹Īåħĭæľįæĭĸå»¶åĵ¦": 2246,
      "Pythonæĺ¯ä»Ģä¹Īåĳ¢": 2247,
      "æĪĳæľĢè¿ĳåľ¨åŃ¦ç¼ĸç¨ĭåĳĢ": 2248,
      "è°¢è°¢ä½łåĲ§": 2249,
      "Pth": 2250,
      "ä¹Īæĺ¯": 2251,
      "åıĭåĲµæŀ¶äºĨ": 2252,
      "æĢİåŃ¦": 2253,
      "æĢİæł·": 2254,
      "ä»Ģä¹Īåĳ¢": 2255,
      "åĴĮåıĭåĲµæŀ¶äºĨ": 2256,
      "å¿ĥä¸įå¥½": 2257,
      "è®¡ç®ĹåķĬ": 2258,
      "ä»Ģä¹Īæĺ¯æ·±": 2259,
      "ä»Ģä¹Īæĺ¯åŃĲ": 2260,
      "ä»Ģä¹Īæĺ¯æ·±åº¦": 2261,
      "è¿ĺä¸į": 2262,
      "éĿ¢ç´§": 2263,
      "Pyh": 2264,
      "Pyt": 2265,
      "åĲµäºĨ": 2266,
      "ä½łå¥½åĵ¦": 2267,
      "çĶµåĳĹ": 2268,
      "éĿ¢è¯ķå¼łæĢİä¹ĪåĬŀ": 2269,
      "åĴĮæľĭåıĭåĲµæŀ¶": 2270,
      "åĴĮæľĭåıĭåĲµäºĨ": 2271,
      "æľĢè¿ĳæĢİä¹Ī": 2272,
      "å¿ĥæĥħä¸įå¥½åķĬ": 2273,
      "åĹ¨åĳĢ": 2274,
      "åĹ¨åĲ§": 2275,
      "ä½łå¥½åĳĢåĲ§": 2276,
      "ä½łå¥½åĳĢåĵ¦": 2277,
      "æĹ©ä¸Ĭå¥½åĳ¢": 2278,
      "æĹ©ä¸Ĭå¥½åķĬ": 2279,
      "åĴĮæľĭåıĭåĲµæŀ¶äºĨåĳĢ": 2280,
      "åĴĮæľĭåıĭåĲµæŀ¶äºĨåĲ§": 2281,
      "åĴĮæľĭåıĭåĲµæŀ¶äºĨåķĬ": 2282,
      "ä¸įå®¢æ°ĶåķĬ": 2283,
      "èĬĤæĹ¥å¿«ä¹ĲåĳĢ": 2284,
      "ä¸ŃåįĪåĲĥä»Ģä¹Ī": 2285,
      "ä»Ĭå¤©å¾Īå¼Ģå¿ĥåĳ¢": 2286,
      "ä»Ĭå¤©å¾Īå¼Ģå¿ĥåĲ§": 2287,
      "ä»Ĭå¤©å¾Īå¼Ģå¿ĥåķĬ": 2288,
      "ä»Ĭå¤©å¾Īå¼Ģå¿ĥåĵ¦": 2289,
      "æīįèĥ½æĽ´èĩªä¿¡": 2290,
      "æĢİä¹ĪæĹ©èµ·åĳĢ": 2291,
      "æĢİä¹ĪæĹ©èµ·åĳ¢": 2292,
      "æİ¨èįĲä¸ªçĶµåĳĹ": 2293,
      "æĢİä¹ĪèĥĮåįķè¯įåĳ¢": 2294,
      "æĢİä¹Īæīįèĥ½èĩªä¿¡": 2295,
      "æĢİä¹ĪåĨĻç®ĢåİĨåĲ§": 2296,
      "æĢİä¹ĪåĨĻç®ĢåİĨåĵ¦": 2297,
      "æķ°åŃ¦æĢİä¹ĪåŃ¦åĲ§": 2298,
      "æķ°åŃ¦æĢİä¹ĪåŃ¦åķĬ": 2299,
      "æĢİä¹ĪåįĩèģĮåĬłèĸªåĲ§": 2300,
      "è®²ä¸ªæķħäºĭåĳ¢": 2301,
      "è®²ä¸ªæķħäºĭåķĬ": 2302,
      "è®²ä¸ªæķħäºĭåĵ¦": 2303,
      "ä½łæľīæĦŁæĥħåĲĹåķĬ": 2304,
      "ä½łåı«ä»Ģä¹ĪåĲ§": 2305,
      "ä½łåı«ä»Ģä¹ĪåķĬ": 2306,
      "æĢİä¹ĪåĩıèĤ¥åĳĢ": 2307,
      "æĢİä¹ĪåĩıèĤ¥åĳ¢": 2308,
      "æĢİä¹ĪåĩıèĤ¥åĵ¦": 2309,
      "æĢİä¹Īä¿ĿæĮģåº·": 2310,
      "æĢİä¹Īè¯»ä¹¦åĳĢ": 2311,
      "æĢİä¹Īè¯»ä¹¦åķĬ": 2312,
      "è§īå¾Ĺå¾ĪåŃ¤çĭ¬åĲ§": 2313,
      "è¦ģä¸įè¦ģè·³æ§½åĳĢ": 2314,
      "è¦ģä¸įè¦ģè·³æ§½åķĬ": 2315,
      "çĮľä¸ªè°ľè¯ŃåĲ§": 2316,
      "æİ¨èįĲé¦ĸæŃĮåĲ§": 2317,
      "æİ¨èįĲé¦ĸæŃĮåĵ¦": 2318,
      "è¢«æī¹è¯ĦäºĨåĲ§": 2319,
      "è¢«æī¹è¯ĦäºĨåķĬ": 2320,
      "è¢«æī¹è¯ĦäºĨåĵ¦": 2321,
      "ä»Ĭå¤©å¥½ç´¯åĳ¢": 2322,
      "ä»Ĭå¤©å¥½ç´¯åĵ¦": 2323,
      "ä»Ģä¹Īæĺ¯äºĳè®¡ç®ĹåķĬ": 2324,
      "ä»Ģä¹Īæĺ¯çī©èģĶç½ĳåĳ¢": 2325,
      "æ²¡äºĭæ²¡äºĭåĲ§": 2326,
      "æ²¡äºĭæ²¡äºĭåķĬ": 2327,
      "çĶŁæĹ¥å¿«ä¹ĲåĲ§": 2328,
      "çĶŁæĹ¥å¿«ä¹Ĳåĵ¦": 2329,
      "æİ¨èįĲä¸ªçĶµå½±åĳĹåĲ§": 2330,
      "æĢİä¹Īæīįèĥ½æĽ´èĩªä¿¡åĳĢ": 2331,
      "æĢİä¹Īæīįèĥ½æĽ´èĩªä¿¡åĲ§": 2332,
      "ä½łæĺ¯è°ģåĳ¢": 2333,
      "å¥½çĦ¦èĻĳåķĬ": 2334,
      "æĢİä¹Īåħĭæľįæĭĸå»¶åĳĢ": 2335,
      "æĢİä¹Īäº¤æľĭåıĭåĲ§": 2336,
      "æĢİä¹ĪçľģéĴ±åĳĢ": 2337,
      "æİ¨èįĲéĥ¨çĶµå½±åĵ¦": 2338,
      "ä»Ģä¹Īæĺ¯æľºåĻ¨åŃ¦ä¹łåĵ¦": 2339,
      "ä»Ģä¹Īæĺ¯APIåĳĢ": 2340,
      "ä»Ģä¹Īæĺ¯APIåķĬ": 2341,
      "å·¥ä½ľä¸įé¡ºåĪ©åĳ¢": 2342,
      "Pythonæĺ¯ä»Ģä¹Īåĵ¦": 2343,
      "èĭ±è¯Ńè¯Ńæ³ķæĢİä¹ĪåŃ¦åĳĢ": 2344,
      "èĭ±è¯Ńè¯Ńæ³ķæĢİä¹ĪåŃ¦åĲ§": 2345,
      "ä»Ĭå¤©å¤©æ°ĶæĢİä¹Īæł·åķĬ": 2346,
      "æľĢè¿ĳæĢİä¹Īæł·åĳĢ": 2347,
      "æľĢè¿ĳæĢİä¹Īæł·åĳ¢": 2348,
      "ä¸ŃåįĪåĲĥä»Ģä¹Īå¥½åķĬ": 2349,
      "ä¸ŃåįĪåĲĥä»Ģä¹Īå¥½åĵ¦": 2350,
      "æĢİä¹ĪæıĲé«ĺæķĪçİĩåĳĢ": 2351,
      "å¥½æĹłèģĬåķĬåĳĢ": 2352,
      "å¥½æĹłèģĬåķĬåĳ¢": 2353,
      "æĪĳæľĢè¿ĳåľ¨åŃ¦ç¼ĸç¨ĭåĳ¢": 2354,
      "åĳ¨æľ«å¹²åĺĽåĳ¢": 2355,
      "ä»Ĭå¤©å¿ĥæĥħä¸įå¥½åĳĢ": 2356,
      "åįĩèģĮäºĨåķĬ": 2357,
      "éĿ¢è¯ķç´§å¼łæĢİä¹ĪåĬŀåĳ¢": 2358,
      "æĢİä¹ĪåĴĮåĲĮäºĭçĽ¸å¤Ħåĵ¦": 2359,
      "æİ¨èįĲæľ¬ä¹¦åĲ§": 2360,
      "ä»Ģä¹Īæĺ¯æ·±åº¦åŃ¦ä¹łåĵ¦": 2361,
      "æĻļä¸ĬåĲĥä»Ģä¹ĪåĳĢ": 2362,
      "èĢĥè¯ķæ²¡èĢĥå¥½åĵ¦": 2363,
      "ä»Ģä¹Īæĺ¯æľºåŃ¦ä¹ł": 2364,
      "ä»Ģä¹Īæĺ¯æ·±åŃ¦ä¹ł": 2365,
      "éĿ¢ç´§å¼łæĢİä¹ĪåĬŀ": 2366,
      "Gæĺ¯": 2367,
      "ä»Ĭ": 2368,
      "ä¹Īå¥½": 2369,
      "ä¹ĪåŃ¦": 2370,
      "ä¹Īæł·": 2371,
      "ä¹ĪåĬŀ": 2372,
      "ä¹Īæīįèĥ½æĽ´èĩªä¿¡": 2373,
      "æĺ¯æľīçĤ¹ç´¯": 2374,
      "ä½łæĦŁæĥħåĲĹ": 2375,
      "æĢİä¿ĿæĮģ": 2376,
      "æĢİåįĩèģĮåĬłèĸª": 2377,
      "æĢİåħĭæľįæĭĸå»¶": 2378,
      "æĢİäº¤æľĭåıĭ": 2379,
      "ä»Ģå¥½": 2380,
      "ä»ĢåĳĢ": 2381,
      "ä»Ģæĺ¯æľºåĻ¨åŃ¦ä¹ł": 2382,
      "æĢİä¹ĪåĳĢ": 2383,
      "æĢİä¹Īåįĩ": 2384,
      "æĢİä¹Īä¿Ŀ": 2385,
      "æĢİä¹Īèĭ±è¯Ń": 2386,
      "æĢİä¹ĪèģĮ": 2387,
      "æĢİä¹ĪåĴĮåĲĮ": 2388,
      "æĢİä¹ĪéĴ±": 2389,
      "ä»Ģä¹Īå¥½": 2390,
      "ä»Ģä¹ĪåķĬ": 2391,
      "ä»Ģä¹Īäºĳè®¡ç®Ĺ": 2392,
      "ä»Ģä¹ĪAPI": 2393,
      "ä»Ģä¹Īæ·±åº¦åŃ¦ä¹ł": 2394,
      "åŃ¦æĢİä¹ĪåŃ¦": 2395,
      "å¤©å¥½ç´¯": 2396,
      "è¦ģè¦ģ": 2397,
      "è¦ģæ³¨æĦıä»Ģä¹Ī": 2398,
      "å°±æľīçĤ¹ç´¯": 2399,
      "è¯ŃæĢİä¹ĪåŃ¦": 2400,
      "è¯Ńè¯Ńæ³ķæĢİä¹ĪåŃ¦": 2401,
      "ä»Ĭå¤©å¾Ī": 2402,
      "ä»Ĭå¤©å¿ĥä¸įå¥½": 2403,
      "ä»Ģä¹Īæĺ¯çī©": 2404,
      "ä»Ģä¹Īæĺ¯éĩıåŃĲ": 2405,
      "ä»Ģä¹Īæĺ¯äººå·¥": 2406,
      "ä»Ģä¹Īæĺ¯åĿĹ": 2407,
      "ä»Ģä¹Īæĺ¯åĮºåĿĹ": 2408,
      "æıĲé«ĺæķĪçİĩ": 2409,
      "èĢĥæĢİä¹Īå¤įä¹ł": 2410,
      "èĢĥæ²¡èĢĥå¥½": 2411,
      "æ³¨ä»Ģä¹Ī": 2412,
      "æ¯Ķåĳ¢": 2413,
      "Pythonåĳ¢": 2414,
      "Pythonåĵ¦": 2415,
      "ä½łå¥½åķĬ": 2416,
      "èĭ±è¯Ńæ³ķæĢİä¹ĪåŃ¦": 2417,
      "å½±åĳĹ": 2418,
      "èĢĥè¯ķæĢİä¹Ī": 2419,
      "æĻļåĲĥä»Ģä¹Ī": 2420,
      "è·³åķĬ": 2421,
      "çī©èģĶç½ĳåķĬ": 2422,
      "èĭ±è¯Ńè¯Ńæ³ķ": 2423,
      "èĭ±è¯Ńè¯ŃæĢİä¹ĪåŃ¦": 2424,
      "ä»Ĭå¤©å¤©æ°ĶæĢİæł·": 2425,
      "ä½łåĸľæ¬¢ä¹Ī": 2426,
      "ä½łåĸľæ¬¢ä»Ģä¹ĪåĳĢ": 2427,
      "ä½łåĸľæ¬¢ä»Ģä¹ĪåĲ§": 2428,
      "ä½łåĸľæ¬¢ä»Ģä¹ĪåķĬ": 2429,
      "ä½łåĸľæ¬¢ä»Ģä¹Īåĵ¦": 2430,
      "è®²ä¸ªäºĭ": 2431,
      "å¿ĥæĥħä¸įå¥½åĳ¢": 2432,
      "å¿ĥæĥħä¸įå¥½åĵ¦": 2433,
      "åĹ¨åĳ¢": 2434,
      "åĹ¨åķĬ": 2435,
      "åĹ¨åĵ¦": 2436,
      "ä½łå¥½åĳĢåĳ¢": 2437,
      "ä½łå¥½åĳĢåķĬ": 2438,
      "æĹ©ä¸Ĭå¥½åĲ§": 2439,
      "æĹ©ä¸Ĭå¥½åĵ¦": 2440,
      "æĻļå®īåĳ¢": 2441,
      "æĻļå®īåĲ§": 2442,
      "æĻļå®īåĵ¦": 2443,
      "åĴĮæľĭåıĭåĲµæŀ¶äºĨåĵ¦": 2444,
      "ä¸įå®¢æ°ĶåĲ§": 2445,
      "ä¸įå®¢æ°Ķåĵ¦": 2446,
      "èĬĤæĹ¥å¿«ä¹Ĳåĳ¢": 2447,
      "èĬĤæĹ¥å¿«ä¹ĲåĲ§": 2448,
      "ä¸ŃåįĪä»Ģä¹Īå¥½": 2449,
      "æķ°åŃ¦æĢİåŃ¦": 2450,
      "åĪĽè¦ģæ³¨æĦıä»Ģä¹Ī": 2451,
      "å¼łä¹ĪåĬŀ": 2452,
      "è¦ģä¸įè¦ģæ§½": 2453,
      "è¦ģä¸įè¦ģè·³åķĬ": 2454,
      "æİ¨èįĲä¸ªå½±åĳĹ": 2455,
      "ä½łæľīæĥħåĲĹ": 2456,
      "æĢİä¹ĪèĥĮåįķè¯įåĳĢ": 2457,
      "æĢİä¹ĪèĥĮåįķè¯įåĲ§": 2458,
      "æĢİä¹ĪèĥĮåįķè¯įåķĬ": 2459,
      "æĢİä¹ĪåĨĻç®ĢåİĨåĳĢ": 2460,
      "æĢİä¹ĪåĨĻç®ĢåİĨåķĬ": 2461,
      "æĢİä¹ĪæıĲé«ĺ": 2462,
      "æĢİä¹ĪæıĲæķĪçİĩ": 2463,
      "æķ°åŃ¦æĢİä¹ĪåŃ¦åĳ¢": 2464,
      "æķ°åŃ¦æĢİä¹ĪåŃ¦åĵ¦": 2465,
      "åĪĽä¸ļè¦ģæ³¨ä»Ģä¹Ī": 2466,
      "å¥½æĹłåķĬ": 2467,
      "æĢİä¹ĪåįĩèģĮåĬłèĸªåĳĢ": 2468,
      "æĢİä¹ĪåįĩèģĮåĬłèĸªåĵ¦": 2469,
      "å°±æĺ¯æľīçĤ¹ç´¯åĳ¢": 2470,
      "æĢİä¹ĪåŃ¦èĭ±è¯ŃåĳĢ": 2471,
      "æĢİä¹ĪåŃ¦èĭ±è¯ŃåķĬ": 2472,
      "æĢİä¹ĪåĨĻä½ľæĸĩåĳĢ": 2473,
      "æĢİä¹ĪåĨĻä½ľæĸĩåĵ¦": 2474,
      "è®²ä¸ªæķħäºĭåĳĢ": 2475,
      "è®²ä¸ªæķħäºĭåĲ§": 2476,
      "ä½łæľīæĦŁæĥħåĲĹåĳĢ": 2477,
      "ä½łæľīæĦŁæĥħåĲĹåĳ¢": 2478,
      "ä½łåı«ä»Ģä¹Īåĳ¢": 2479,
      "ä½łåı«ä»Ģä¹Īåĵ¦": 2480,
      "æĪĳæľĢè¿ĳåľ¨ç¼ĸç¨ĭ": 2481,
      "æĢİä¹ĪåĩıèĤ¥åķĬ": 2482,
      "æĢİä¹Īè¯»ä¹¦åĳ¢": 2483,
      "æĢİä¹Īè¯»ä¹¦åĲ§": 2484,
      "éĿ¢è¯ķç´§å¼łä¹ĪåĬŀ": 2485,
      "è§īå¾Ĺå¾ĪåŃ¤çĭ¬åĳ¢": 2486,
      "è§īå¾Ĺå¾ĪåŃ¤çĭ¬åĵ¦": 2487,
      "çĮľä¸ªè°ľè¯ŃåĳĢ": 2488,
      "çĮľä¸ªè°ľè¯Ńåĳ¢": 2489,
      "çĮľä¸ªè°ľè¯ŃåķĬ": 2490,
      "çĮľä¸ªè°ľè¯Ńåĵ¦": 2491,
      "æİ¨èįĲé¦ĸæŃĮåĳĢ": 2492,
      "æİ¨èįĲé¦ĸæŃĮåķĬ": 2493,
      "è¢«æī¹è¯ĦäºĨåĳ¢": 2494,
      "ä»Ĭå¤©å¥½ç´¯åĳĢ": 2495,
      "ä»Ĭå¤©å¥½ç´¯åķĬ": 2496,
      "ä»Ģä¹Īæĺ¯äºĳè®¡ç®ĹåĳĢ": 2497,
      "ä»Ģä¹Īæĺ¯äºĳè®¡ç®Ĺåĳ¢": 2498,
      "ä»Ģä¹Īæĺ¯äºĳè®¡ç®Ĺåĵ¦": 2499,
      "ä»Ģä¹Īæĺ¯çī©èģĶç½ĳåĳĢ": 2500,
      "ä»Ģä¹Īæĺ¯çī©èģĶç½ĳåķĬ": 2501,
      "ä»Ģä¹Īæĺ¯çī©èģĶç½ĳåĵ¦": 2502,
      "ä»Ģä¹Īæĺ¯äººå·¥æĻºèĥ½åĳ¢": 2503,
      "ä»Ģä¹Īæĺ¯äººå·¥æĻºèĥ½åĲ§": 2504,
      "ä»Ģä¹Īæĺ¯äººå·¥æĻºèĥ½åĵ¦": 2505,
      "æ²¡äºĭæ²¡äºĭåĳĢ": 2506,
      "æ²¡äºĭæ²¡äºĭåĵ¦": 2507,
      "ä½łä¼ļåģļä¹Ī": 2508,
      "ä½łä¼ļåģļä»ĢåĳĢ": 2509,
      "çĶŁæĹ¥å¿«ä¹ĲåĳĢ": 2510,
      "çĶŁæĹ¥å¿«ä¹Ĳåĳ¢": 2511,
      "æİ¨èįĲä¸ªçĶµå½±åĳĹåĳ¢": 2512,
      "æİ¨èįĲä¸ªçĶµå½±åĳĹåĵ¦": 2513,
      "æĢİä¹Īæīįèĥ½æĽ´èĩªä¿¡åĳ¢": 2514,
      "æĢİä¹Īæīįèĥ½æĽ´èĩªä¿¡åĵ¦": 2515,
      "ä½łæĺ¯è°ģåĳĢ": 2516,
      "ä½łæĺ¯è°ģåķĬ": 2517,
      "ä½łæĺ¯è°ģåĵ¦": 2518,
      "å¥½çĦ¦èĻĳåĳĢ": 2519,
      "å¥½çĦ¦èĻĳåĳ¢": 2520,
      "å¥½çĦ¦èĻĳåĲ§": 2521,
      "æĢİä¹Īäº¤æľĭåıĭåĳĢ": 2522,
      "æĢİä¹Īäº¤æľĭåıĭåĳ¢": 2523,
      "æĢİä¹ĪçľģéĴ±åĳ¢": 2524,
      "æĢİä¹ĪçľģéĴ±åĵ¦": 2525,
      "æİ¨èįĲéĥ¨çĶµå½±åĳĢ": 2526,
      "æİ¨èįĲéĥ¨çĶµå½±åĳ¢": 2527,
      "æİ¨èįĲéĥ¨çĶµå½±åķĬ": 2528,
      "ä»Ģä¹Īæĺ¯æľºåĻ¨åŃ¦ä¹łåĳĢ": 2529,
      "ä»Ģä¹Īæĺ¯æľºåĻ¨åŃ¦ä¹łåĳ¢": 2530,
      "ä»Ģä¹Īæĺ¯æľºåĻ¨åŃ¦ä¹łåĲ§": 2531,
      "ä»Ģä¹Īæĺ¯APIåĲ§": 2532,
      "å·¥ä½ľä¸įé¡ºåĪ©åĳĢ": 2533,
      "å·¥ä½ľä¸įé¡ºåĪ©åĲ§": 2534,
      "å·¥ä½ľä¸įé¡ºåĪ©åĵ¦": 2535,
      "Pythonæĺ¯ä»Ģä¹ĪåķĬ": 2536,
      "èĭ±è¯Ńè¯Ńæ³ķæĢİä¹ĪåŃ¦åķĬ": 2537,
      "ä»Ĭå¤©å¤©æ°ĶæĢİä¹Īæł·åĳĢ": 2538,
      "ä»Ĭå¤©å¤©æ°ĶæĢİä¹Īæł·åĳ¢": 2539,
      "ä»Ĭå¤©å¤©æ°ĶæĢİä¹Īæł·åĲ§": 2540,
      "æľĢè¿ĳæĢİä¹Īæł·åĵ¦": 2541,
      "ä¸ŃåįĪåĲĥä»Ģä¹Īå¥½åĳ¢": 2542,
      "ä¸ŃåįĪåĲĥä»Ģä¹Īå¥½åĲ§": 2543,
      "æĢİä¹ĪæıĲé«ĺæķĪçİĩåĳ¢": 2544,
      "æĢİä¹ĪæıĲé«ĺæķĪçİĩåĲ§": 2545,
      "æĢİä¹ĪæıĲé«ĺæķĪçİĩåĵ¦": 2546,
      "åĳ¨æľ«å¹²åĺĽåĳĢ": 2547,
      "åĳ¨æľ«å¹²åĺĽåķĬ": 2548,
      "ä»Ĭå¤©å¿ĥæĥħä¸įå¥½åĳ¢": 2549,
      "ä»Ĭå¤©å¿ĥæĥħä¸įå¥½åĲ§": 2550,
      "èĢĥè¯ķæĢİä¹Īå¤įä¹łåĳĢ": 2551,
      "èĢĥè¯ķæĢİä¹Īå¤įä¹łåĳ¢": 2552,
      "èĢĥè¯ķæĢİä¹Īå¤įä¹łåĲ§": 2553,
      "èĢĥè¯ķæĢİä¹Īå¤įä¹łåķĬ": 2554,
      "è®²ä¸ªç¬ĳè¯ĿåĳĢ": 2555,
      "è®²ä¸ªç¬ĳè¯Ŀåĳ¢": 2556,
      "è®²ä¸ªç¬ĳè¯ĿåĲ§": 2557,
      "è®²ä¸ªç¬ĳè¯Ŀåĵ¦": 2558,
      "åįĩèģĮäºĨåĳĢ": 2559,
      "è°¢è°¢ä½łåķĬ": 2560,
      "æĢİä¹Īä¿ĿæĮģåģ¥åº·åĳĢ": 2561,
      "æĢİä¹Īä¿ĿæĮģåģ¥åº·åĳ¢": 2562,
      "æĢİä¹Īä¿ĿæĮģåģ¥åº·åķĬ": 2563,
      "æĢİä¹Īä¿ĿæĮģåģ¥åº·åĵ¦": 2564,
      "éĿ¢è¯ķç´§å¼łæĢİä¹ĪåĬŀåĲ§": 2565,
      "éĿ¢è¯ķç´§å¼łæĢİä¹ĪåĬŀåķĬ": 2566,
      "ä½łä¼ļçĬ¯éĶĻåĲĹåĳĢ": 2567,
      "ä½łä¼ļçĬ¯éĶĻåĲĹåĲ§": 2568,
      "ä½łä¼ļçĬ¯éĶĻåĲĹåķĬ": 2569,
      "ä½łä¼ļçĬ¯éĶĻåĲĹåĵ¦": 2570,
      "æĢİä¹ĪåĴĮåĲĮäºĭçĽ¸å¤Ħåĳ¢": 2571,
      "æİ¨èįĲæľ¬ä¹¦åĳ¢": 2572,
      "ä»Ģä¹Īæĺ¯æ·±åº¦åŃ¦ä¹łåĳĢ": 2573,
      "çī©çĲĨå¥½éļ¾åĳ¢": 2574,
      "çī©çĲĨå¥½éļ¾åĲ§": 2575,
      "åİĭåĬĽå¥½å¤§åĲ§": 2576,
      "åİĭåĬĽå¥½å¤§åĵ¦": 2577,
      "æĻļä¸ĬåĲĥä»Ģä¹ĪåĲ§": 2578,
      "å¤±æģĭäºĨåĳ¢": 2579,
      "å¤±æģĭäºĨåķĬ": 2580,
      "å¤±æģĭäºĨåĵ¦": 2581,
      "Gæĺ¯ä»Ģä¹ĪåĳĢ": 2582,
      "Gæĺ¯ä»Ģä¹ĪåķĬ": 2583,
      "ä»Ģä¹Īæĺ¯éĩıåŃĲè®¡ç®ĹåĳĢ": 2584,
      "ä»Ģä¹Īæĺ¯éĩıåŃĲè®¡ç®Ĺåĳ¢": 2585,
      "ä»Ģä¹Īæĺ¯éĩıåŃĲè®¡ç®ĹåķĬ": 2586,
      "ä»Ģä¹Īæĺ¯åĮºåĿĹéĵ¾åĵ¦": 2587,
      "èĢĥè¯ķæ²¡èĢĥå¥½åĲ§": 2588,
      "ç§ĳå¹»çļĦåĲ§": 2589,
      "ç§ĳå¹»çļĦåĵ¦": 2590,
      "ä½łä¼ļåģļä»Ģä¹Īåĳ¢": 2591,
      "ä½łä¼ļåģļä»Ģä¹ĪåķĬ": 2592,
      "åľ¨åĲĹåĳ¢": 2593,
      "å¯¹ä¸įèµ·åĳ¢": 2594,
      "å¯¹ä¸įèµ·åĲ§": 2595,
      "ä»Ģæĺ¯äºĳè®¡ç®Ĺ": 2596,
      "ä»Ģæĺ¯API": 2597,
      "ä»Ģæĺ¯éĩıåŃĲè®¡ç®Ĺ": 2598,
      "Pythnæĺ¯ä»Ģä¹Ī": 2599,
      "ä¸ŃåįĪåĲĥä¹Īå¥½": 2600,
      "ä¸ŃåįĪåĲĥä»Ģå¥½": 2601,
      "Pthon": 2602,
      "ä¹Īæĺ¯äºĳè®¡ç®Ĺ": 2603,
      "ä»Ģä¹Īæĺ¯åŃĲè®¡ç®ĹåķĬ": 2604,
      "ä»Ģä¹Īæĺ¯æ·±åº¦ä¹ł": 2605,
      "Pyhon": 2606,
      "Pytonæĺ¯ä»Ģä¹Ī": 2607,
      "åĴĮæľĭåıĭåĲµæŀ¶åķĬ": 2608,
      "ä¸ŃåįĪåĲĥä»Ģä¹Īå¥½åĳĢ": 2609,
      "æĢİä¿ĿæĮģåģ¥åº·": 2610,
      "æĢİä¹ĪåįĩåĬłèĸª": 2611,
      "æĢİä¹Īä¿Ŀåģ¥åº·": 2612,
      "æĢİä¹ĪèģĮåĬłèĸª": 2613,
      "è¦ģè¦ģè·³æ§½": 2614,
      "ä»Ģä¹Īæĺ¯äººå·¥èĥ½": 2615,
      "ä»Ģä¹Īæĺ¯åĿĹéĵ¾": 2616
    },
    "merges": [
      [
        "ï",
        "¼"
      ],
      [
        "ï¼",
        "Į"
      ],
      [
        "ä",
        "¸"
      ],
      [
        "è",
        "¯"
      ],
      [
        "ä",
        "¹"
      ],
      [
        "½",
        "ŀ"
      ],
      [
        "ï",
        "½ŀ"
      ],
      [
        "ä",
        "º"
      ],
      [
        "å",
        "¤"
      ],
      [
        "ä",
        "»"
      ],
      [
        "ä¹",
        "Ī"
      ],
      [
        "ä",
        "½"
      ],
      [
        "ç",
        "ļ"
      ],
      [
        "çļ",
        "Ħ"
      ],
      [
        "æ",
        "ľ"
      ],
      [
        "æ",
        "ĺ"
      ],
      [
        "è",
        "®"
      ],
      [
        "å",
        "Ĳ"
      ],
      [
        "å",
        "¥"
      ],
      [
        "å",
        "Ī"
      ],
      [
        "å¥",
        "½"
      ],
      [
        "æĺ",
        "¯"
      ],
      [
        "å",
        "ĳ"
      ],
      [
        "æ",
        "Ģ"
      ],
      [
        "äº",
        "Ĩ"
      ],
      [
        "ä½",
        "ł"
      ],
      [
        "å",
        "¾"
      ],
      [
        "å",
        "Ĭ"
      ],
      [
        "å",
        "ı"
      ],
      [
        "è",
        "¿"
      ],
      [
        "æĢ",
        "İ"
      ],
      [
        "å",
        "Ń"
      ],
      [
        "ã",
        "Ģ"
      ],
      [
        "å",
        "°"
      ],
      [
        "æ",
        "Ī"
      ],
      [
        "ä¸",
        "į"
      ],
      [
        "ä»",
        "Ģ"
      ],
      [
        "æĢİ",
        "ä¹Ī"
      ],
      [
        "ä»Ģ",
        "ä¹Ī"
      ],
      [
        "ä¸",
        "Ģ"
      ],
      [
        "ä¸",
        "ª"
      ],
      [
        "å",
        "®"
      ],
      [
        "åŃ",
        "¦"
      ],
      [
        "å¤",
        "ļ"
      ],
      [
        "å",
        "¿"
      ],
      [
        "ï¼",
        "ģ"
      ],
      [
        "ä",
        "¼"
      ],
      [
        "å¤",
        "©"
      ],
      [
        "å",
        "Ĵ"
      ],
      [
        "åĴ",
        "Į"
      ],
      [
        "é",
        "ĩ"
      ],
      [
        "è",
        "ģ"
      ],
      [
        "å",
        "¼"
      ],
      [
        "ç",
        "»"
      ],
      [
        "è¯",
        "´"
      ],
      [
        "ç",
        "®"
      ],
      [
        "è",
        "§"
      ],
      [
        "è",
        "ĥ"
      ],
      [
        "æĪ",
        "ĳ"
      ],
      [
        "æ",
        "İ"
      ],
      [
        "å",
        "·"
      ],
      [
        "æ",
        "Ŀ"
      ],
      [
        "¦",
        "ģ"
      ],
      [
        "è",
        "¦ģ"
      ],
      [
        "ä¹",
        "ł"
      ],
      [
        "æ",
        "ķ"
      ],
      [
        "åĳ",
        "Ģ"
      ],
      [
        "ç",
        "Ķ"
      ],
      [
        "å",
        "ħ"
      ],
      [
        "æ",
        "Ħ"
      ],
      [
        "æ",
        "Ĺ"
      ],
      [
        "å",
        "ľ"
      ],
      [
        "å¾",
        "Ī"
      ],
      [
        "æ",
        "³"
      ],
      [
        "æ",
        "ĥ"
      ],
      [
        "ï¼",
        "Ł"
      ],
      [
        "é",
        "Ģ"
      ],
      [
        "å",
        "º"
      ],
      [
        "äº",
        "º"
      ],
      [
        "æ",
        "ī"
      ],
      [
        "è",
        "ĩ"
      ],
      [
        "èĩ",
        "ª"
      ],
      [
        "å",
        "¯"
      ],
      [
        "æľ",
        "ī"
      ],
      [
        "åľ",
        "¨"
      ],
      [
        "å",
        "Ĩ"
      ],
      [
        "Ĭ",
        "å¤©"
      ],
      [
        "ç",
        "Ĳ"
      ],
      [
        "è¯",
        "ķ"
      ],
      [
        "è¯",
        "Ŀ"
      ],
      [
        "çĲ",
        "Ĩ"
      ],
      [
        "åĳ",
        "¢"
      ],
      [
        "åŃ¦",
        "ä¹ł"
      ],
      [
        "ä¼",
        "ļ"
      ],
      [
        "å°",
        "±"
      ],
      [
        "å",
        "ĵ"
      ],
      [
        "é",
        "Ĥ"
      ],
      [
        "éĤ",
        "£"
      ],
      [
        "å¯",
        "¹"
      ],
      [
        "èĥ",
        "½"
      ],
      [
        "æ",
        "ĸ"
      ],
      [
        "å¿",
        "ĥ"
      ],
      [
        "æĿ",
        "¥"
      ],
      [
        "è",
        "µ"
      ],
      [
        "è®",
        "¡"
      ],
      [
        "ãĢ",
        "ģ"
      ],
      [
        "å",
        "Ĺ"
      ],
      [
        "ç®",
        "Ĺ"
      ],
      [
        "è",
        "Ģ"
      ],
      [
        "å",
        "ģ"
      ],
      [
        "æ",
        "ŀ"
      ],
      [
        "åĲ",
        "§"
      ],
      [
        "å",
        "ĩ"
      ],
      [
        "å",
        "ķ"
      ],
      [
        "å",
        "Ľ"
      ],
      [
        "åķ",
        "Ĭ"
      ],
      [
        "æİ",
        "¨"
      ],
      [
        "å",
        "İ"
      ],
      [
        "å¼",
        "Ģ"
      ],
      [
        "çĶ",
        "¨"
      ],
      [
        "ç",
        "§"
      ],
      [
        "ç",
        "ī"
      ],
      [
        "è®¡",
        "ç®Ĺ"
      ],
      [
        "äº",
        "ĭ"
      ],
      [
        "åģ",
        "ļ"
      ],
      [
        "è®",
        "°"
      ],
      [
        "è¯Ŀ",
        "è¯´"
      ],
      [
        "è¯",
        "Ń"
      ],
      [
        "ç",
        "ľ"
      ],
      [
        "¯",
        "ä»"
      ],
      [
        "è¯",
        "¶"
      ],
      [
        "åĹ",
        "¯"
      ],
      [
        "æľ",
        "º"
      ],
      [
        "ç",
        "Ĥ"
      ],
      [
        "ä»",
        "Ĭå¤©"
      ],
      [
        "çĤ",
        "¹"
      ],
      [
        "è",
        "į"
      ],
      [
        "èį",
        "Ĳ"
      ],
      [
        "æİ¨",
        "èįĲ"
      ],
      [
        "éĤ£",
        "ä¸ª"
      ],
      [
        "å¯¹",
        "äºĨ"
      ],
      [
        "åĵ",
        "¦"
      ],
      [
        "å¾",
        "Ĺ"
      ],
      [
        "å",
        "¸"
      ],
      [
        "åĪ",
        "Ĩ"
      ],
      [
        "å",
        "į"
      ],
      [
        "Ľ",
        "´"
      ],
      [
        "æ",
        "Ń"
      ],
      [
        "æ³",
        "ķ"
      ],
      [
        "åı",
        "¯ä»"
      ],
      [
        "åı¯ä»",
        "¥"
      ],
      [
        "æ",
        "ģ"
      ],
      [
        "é",
        "Ŀ"
      ],
      [
        "æ",
        "²"
      ],
      [
        "ä¸",
        "Ĭ"
      ],
      [
        "¢",
        "ĺ"
      ],
      [
        "è",
        "°"
      ],
      [
        "é",
        "¢ĺ"
      ],
      [
        "ä",
        "¿"
      ],
      [
        "æ",
        "¬"
      ],
      [
        "æ",
        "ł"
      ],
      [
        "æ",
        "Ķ"
      ],
      [
        "é",
        "Ĺ"
      ],
      [
        "ãĢ",
        "Ĥ"
      ],
      [
        "å·",
        "±"
      ],
      [
        "èĩª",
        "å·±"
      ],
      [
        "ä»Ģä¹Ī",
        "æĺ¯"
      ],
      [
        "å",
        "¹"
      ],
      [
        "åĬ",
        "¨"
      ],
      [
        "æĥ",
        "ħ"
      ],
      [
        "ĭ",
        "åı"
      ],
      [
        "å",
        "Į"
      ],
      [
        "æ",
        "Į"
      ],
      [
        "ä½",
        "ľ"
      ],
      [
        "æĦ",
        "Ł"
      ],
      [
        "åĪ",
        "«"
      ],
      [
        "åĬ",
        "Ľ"
      ],
      [
        "éĩ",
        "į"
      ],
      [
        "æ",
        "Ľ´"
      ],
      [
        "ä¸",
        "Ń"
      ],
      [
        "è¯",
        "»"
      ],
      [
        "é",
        "ľ"
      ],
      [
        "æ",
        "Ļ"
      ],
      [
        "ç",
        "¼"
      ],
      [
        "æĪ",
        "Ĳ"
      ],
      [
        "éĢ",
        "Ĥ"
      ],
      [
        "æ",
        "Ĭ"
      ],
      [
        "å®",
        "ļ"
      ],
      [
        "æ",
        "ĭ"
      ],
      [
        "é",
        "Ĵ"
      ],
      [
        "åĪ",
        "°"
      ],
      [
        "æ",
        "ı"
      ],
      [
        "æı",
        "Ĳ"
      ],
      [
        "è",
        "ĭ"
      ],
      [
        "åĲ",
        "Ĺ"
      ],
      [
        "èģ",
        "Ķ"
      ],
      [
        "æĥ",
        "³"
      ],
      [
        "å",
        "½"
      ],
      [
        "éĩ",
        "ı"
      ],
      [
        "æģ",
        "¯"
      ],
      [
        "é",
        "Ķ"
      ],
      [
        "è¿",
        "ĺ"
      ],
      [
        "èģ",
        "Ĭ"
      ],
      [
        "éĶ",
        "Ļ"
      ],
      [
        "ç",
        "´"
      ],
      [
        "è§",
        "£"
      ],
      [
        "å·",
        "¥"
      ],
      [
        "æĮ",
        "ģ"
      ],
      [
        "è®",
        "©"
      ],
      [
        "å¤",
        "ª"
      ],
      [
        "æķ",
        "°"
      ],
      [
        "ä»",
        "İ"
      ],
      [
        "¨",
        "ĭ"
      ],
      [
        "ç",
        "¨ĭ"
      ],
      [
        "åĬ",
        "ł"
      ],
      [
        "å",
        "ī"
      ],
      [
        "ä¹",
        "Ł"
      ],
      [
        "½",
        "ĳ"
      ],
      [
        "ç",
        "½ĳ"
      ],
      [
        "å®",
        "Į"
      ],
      [
        "çī",
        "©"
      ],
      [
        "è¿",
        "Ļ"
      ],
      [
        "å",
        "ĸ"
      ],
      [
        "èµ",
        "·"
      ],
      [
        "åĸ",
        "ľ"
      ],
      [
        "å¿",
        "«"
      ],
      [
        "æĸ",
        "°"
      ],
      [
        "ä¸Ģ",
        "ä¸ª"
      ],
      [
        "æī",
        "ĭ"
      ],
      [
        "éĢ",
        "ļ"
      ],
      [
        "æ",
        "¯"
      ],
      [
        "ç",
        "İ"
      ],
      [
        "è¿",
        "ĩ"
      ],
      [
        "åĩ",
        "º"
      ],
      [
        "å",
        "»"
      ],
      [
        "å",
        "Ŀ"
      ],
      [
        "æľ",
        "ĭåı"
      ],
      [
        "æľĭåı",
        "ĭ"
      ],
      [
        "å°",
        "ı"
      ],
      [
        "çĲĨ",
        "è§£"
      ],
      [
        "æ¬",
        "¡"
      ],
      [
        "è",
        "¶"
      ],
      [
        "éľ",
        "Ģ"
      ],
      [
        "ç",
        "Ľ"
      ],
      [
        "è¯",
        "į"
      ],
      [
        "éĩ",
        "Į"
      ],
      [
        "éĿ",
        "¢"
      ],
      [
        "ä¸",
        "ĭ"
      ],
      [
        "æĦ",
        "ı"
      ],
      [
        "ä¿",
        "¡"
      ],
      [
        "å",
        "Ļ"
      ],
      [
        "åĻ",
        "¨"
      ],
      [
        "æī",
        "¾"
      ],
      [
        "æ",
        "į"
      ],
      [
        "ä¹",
        "Ĳ"
      ],
      [
        "èµ",
        "°"
      ],
      [
        "åİ",
        "»"
      ],
      [
        "æł",
        "·"
      ],
      [
        "æķ°",
        "æį"
      ],
      [
        "æķ°æį",
        "®"
      ],
      [
        "£",
        "çļĦ"
      ],
      [
        "«",
        "ĺ"
      ],
      [
        "é",
        "«ĺ"
      ],
      [
        "æĹ",
        "¶"
      ],
      [
        "A",
        "I"
      ],
      [
        "ĸ",
        "ç¨ĭ"
      ],
      [
        "ç¼",
        "ĸç¨ĭ"
      ],
      [
        "æ",
        "°"
      ],
      [
        "è",
        "Ĭ"
      ],
      [
        "ä¸į",
        "éĶĻ"
      ],
      [
        "èĬ",
        "Ĥ"
      ],
      [
        "è",
        "¡"
      ],
      [
        "èĢ",
        "ĥ"
      ],
      [
        "æŀ",
        "¶"
      ],
      [
        "ç§",
        "į"
      ],
      [
        "±",
        "»"
      ],
      [
        "ç",
        "±»"
      ],
      [
        "è",
        "·"
      ],
      [
        "é",
        "ĥ"
      ],
      [
        "é",
        "Ļ"
      ],
      [
        "ä½ł",
        "çļĦ"
      ],
      [
        "çľ",
        "ĭ"
      ],
      [
        "èģĶ",
        "ç½ĳ"
      ],
      [
        "P",
        "y"
      ],
      [
        "è®",
        "²"
      ],
      [
        "åĲ",
        "µ"
      ],
      [
        "çľ",
        "Ł"
      ],
      [
        "éĴ",
        "Ł"
      ],
      [
        "o",
        "n"
      ],
      [
        "t",
        "h"
      ],
      [
        "·",
        "±"
      ],
      [
        "æ",
        "·±"
      ],
      [
        "æľ",
        "Ģ"
      ],
      [
        "åĬ",
        "¡"
      ],
      [
        "å¼",
        "ı"
      ],
      [
        "åĲµ",
        "æŀ¶"
      ],
      [
        "º",
        "è®"
      ],
      [
        "º",
        "èĥ½"
      ],
      [
        "ç",
        "¬"
      ],
      [
        "é",
        "£"
      ],
      [
        "åį",
        "ĩ"
      ],
      [
        "æĻ",
        "ºèĥ½"
      ],
      [
        "å»",
        "ºè®"
      ],
      [
        "è¶",
        "Ĭ"
      ],
      [
        "å»ºè®",
        "®"
      ],
      [
        "ç»",
        "ĵ"
      ],
      [
        "ç®",
        "Ģ"
      ],
      [
        "æ³",
        "¨"
      ],
      [
        "åĨ",
        "Ļ"
      ],
      [
        "³",
        "»"
      ],
      [
        "ç",
        "Ŀ"
      ],
      [
        "ç",
        "³»"
      ],
      [
        "åº",
        "Ķ"
      ],
      [
        "æĬ",
        "Ģ"
      ],
      [
        "æ¯",
        "Ķ"
      ],
      [
        "Py",
        "th"
      ],
      [
        "å",
        "±"
      ],
      [
        "è®",
        "¾"
      ],
      [
        "åĲ",
        "ĥ"
      ],
      [
        "å¥½",
        "å¥½"
      ],
      [
        "å¼Ģ",
        "å¿ĥ"
      ],
      [
        "ç´",
        "¯"
      ],
      [
        "åĲ",
        "¬"
      ],
      [
        "æİ",
        "¥"
      ],
      [
        "è",
        "¾"
      ],
      [
        "ĳ",
        "æģ¯"
      ],
      [
        "ä¼",
        "ĳæģ¯"
      ],
      [
        "æĹ",
        "©"
      ],
      [
        "å·¥",
        "ä½ľ"
      ],
      [
        "ç",
        "Ń"
      ],
      [
        "æ²",
        "¡"
      ],
      [
        "åĬ",
        "©"
      ],
      [
        "å¸",
        "®"
      ],
      [
        "éľĢ",
        "è¦ģ"
      ],
      [
        "Pyth",
        "on"
      ],
      [
        "®",
        "é¢ĺ"
      ],
      [
        "ç",
        "Ħ"
      ],
      [
        "éĹ",
        "®é¢ĺ"
      ],
      [
        "æ",
        "ħ"
      ],
      [
        "åĲ",
        "Į"
      ],
      [
        "æħ",
        "¢"
      ],
      [
        "æ",
        "´"
      ],
      [
        "å¿«",
        "ä¹Ĳ"
      ],
      [
        "¿",
        "çĶ¨"
      ],
      [
        "ä½",
        "¿çĶ¨"
      ],
      [
        "èģ",
        "Ĭå¤©"
      ],
      [
        "è§",
        "Ħ"
      ],
      [
        "åĽ",
        "ł"
      ],
      [
        "åĻ¨",
        "åŃ¦ä¹ł"
      ],
      [
        "æ°",
        "Ķ"
      ],
      [
        "éĥ",
        "½"
      ],
      [
        "æĢİä¹Ī",
        "æł·"
      ],
      [
        "åħ",
        "´"
      ],
      [
        "è¯ķ",
        "è¯ķ"
      ],
      [
        ".",
        "."
      ],
      [
        "ç",
        "¡"
      ],
      [
        "å¥½",
        "çļĦ"
      ],
      [
        "éĩį",
        "è¦ģ"
      ],
      [
        "å",
        "Ł"
      ],
      [
        "ä½ł",
        "å¥½"
      ],
      [
        "è®¡ç®Ĺ",
        "æľº"
      ],
      [
        "ħ",
        "äºĭ"
      ],
      [
        "åĪ",
        "¶"
      ],
      [
        "ä¸Ģ",
        "ç§į"
      ],
      [
        "èĥ",
        "Į"
      ],
      [
        "æķ",
        "ħäºĭ"
      ],
      [
        "èĩª",
        "ä¿¡"
      ],
      [
        "æĸ",
        "¹"
      ],
      [
        "æľº",
        "åĻ¨åŃ¦ä¹ł"
      ],
      [
        "éĿ",
        "Ļ"
      ],
      [
        "åī",
        "į"
      ],
      [
        "è¡",
        "Į"
      ],
      [
        "èĢ",
        "Į"
      ],
      [
        "åį",
        "ķ"
      ],
      [
        "æŃ",
        "¥"
      ],
      [
        "å¤",
        "į"
      ],
      [
        "å¾",
        "ĭ"
      ],
      [
        "äºº",
        "ç±»"
      ],
      [
        "è¯Ń",
        "æ³ķ"
      ],
      [
        "è°",
        "¢"
      ],
      [
        "èĭ",
        "±"
      ],
      [
        "¿",
        "è¶Ĭ"
      ],
      [
        "æľ",
        "į"
      ],
      [
        "è¿",
        "Ľ"
      ],
      [
        "ãĢ",
        "Ĭ"
      ],
      [
        "ãĢ",
        "ĭ"
      ],
      [
        "å¤ļ",
        "è¯»"
      ],
      [
        "å°±",
        "æĺ¯"
      ],
      [
        "èĥ½",
        "åĬĽ"
      ],
      [
        "ä¿",
        "Ŀ"
      ],
      [
        "åĮ",
        "ĸ"
      ],
      [
        "è",
        "´"
      ],
      [
        "ä»",
        "»"
      ],
      [
        "æŀ",
        "ľ"
      ],
      [
        "åĪĨ",
        "éĴŁ"
      ],
      [
        "¢",
        "«"
      ],
      [
        "è",
        "¢«"
      ],
      [
        "åŃ",
        "Ĳ"
      ],
      [
        "ä¸Ģ",
        "æ¬¡"
      ],
      [
        "è°",
        "ĥ"
      ],
      [
        "Python",
        "æĺ¯"
      ],
      [
        "ä¿Ŀ",
        "æĮģ"
      ],
      [
        "æĢİä¹Ī",
        "åŃ¦"
      ],
      [
        "çĶ",
        "µ"
      ],
      [
        "åİ",
        "Ł"
      ],
      [
        "è¿ĺ",
        "ä¸įéĶĻ"
      ],
      [
        "§",
        "ĭ"
      ],
      [
        "å",
        "§ĭ"
      ],
      [
        "å¤",
        "ĩ"
      ],
      [
        "å°",
        "ĳ"
      ],
      [
        "è§",
        "ī"
      ],
      [
        "å¼Ģ",
        "å§ĭ"
      ],
      [
        "å½",
        "±"
      ],
      [
        "¦",
        "Ĥ"
      ],
      [
        "Ľ",
        "èĭ"
      ],
      [
        "ä¸",
        "º"
      ],
      [
        "å¥½",
        "äºĨ"
      ],
      [
        "ç§",
        "¯"
      ],
      [
        "è®°",
        "å¾Ĺ"
      ],
      [
        "æĶ",
        "¯"
      ],
      [
        "éĩı",
        "åŃĲ"
      ],
      [
        "è¾",
        "Ľèĭ"
      ],
      [
        "çĦ",
        "¶"
      ],
      [
        "è¾Ľèĭ",
        "¦"
      ],
      [
        "è§",
        "ģ"
      ],
      [
        "æ¬",
        "¢"
      ],
      [
        "åĮ",
        "º"
      ],
      [
        "çĿ",
        "Ģ"
      ],
      [
        "çĶµ",
        "å½±"
      ],
      [
        "»",
        "åĬ¨"
      ],
      [
        "¾",
        "İ"
      ],
      [
        "ç",
        "¾İ"
      ],
      [
        "æľ",
        "¬"
      ],
      [
        "åĪ",
        "Ļ"
      ],
      [
        "ä¸į",
        "æĺ¯"
      ],
      [
        "åĪ«",
        "å¤ª"
      ],
      [
        "åĸľ",
        "æ¬¢"
      ],
      [
        "æľ",
        "¯"
      ],
      [
        "ç»",
        "ı"
      ],
      [
        "æĬĢ",
        "æľ¯"
      ],
      [
        "ç",
        "¥"
      ],
      [
        "å¾",
        "Ģ"
      ],
      [
        "æĹ©",
        "ä¸Ĭ"
      ],
      [
        "ä½",
        "ı"
      ],
      [
        "å¾Ī",
        "å¤ļ"
      ],
      [
        "ç",
        "¦"
      ],
      [
        "é",
        "ļ"
      ],
      [
        "åĪ",
        "©"
      ],
      [
        "è",
        "Ļ"
      ],
      [
        "é",
        "¡"
      ],
      [
        "å¾Ī",
        "é«ĺ"
      ],
      [
        "å¾Īé«ĺ",
        "åħ´"
      ],
      [
        "ä¹",
        "¦"
      ],
      [
        "èĢĥ",
        "è¯ķ"
      ],
      [
        "ä¸Ģ",
        "å¤©"
      ],
      [
        "æľī",
        "ä»Ģä¹Ī"
      ],
      [
        "åı¯ä»¥",
        "è¯ķè¯ķ"
      ],
      [
        "ãĢĭ",
        "ï¼Į"
      ],
      [
        "åĪ°",
        "ä½ł"
      ],
      [
        "æĺ¯",
        "AI"
      ],
      [
        "§",
        "½"
      ],
      [
        "æ",
        "§½"
      ],
      [
        "è",
        "ĸ"
      ],
      [
        "åħ",
        "³"
      ],
      [
        "æĻ",
        "ļ"
      ],
      [
        "è·",
        "³"
      ],
      [
        "è§Ħ",
        "å¾ĭ"
      ],
      [
        "äº",
        "ĳ"
      ],
      [
        "ä¸į",
        "è¦ģ"
      ],
      [
        "åĩ",
        "ł"
      ],
      [
        "çī",
        "¹"
      ],
      [
        "æĪĲ",
        "æŀľ"
      ],
      [
        "è®©",
        "è®¡ç®Ĺæľº"
      ],
      [
        "éĻ",
        "ħ"
      ],
      [
        "·",
        "éĿĻ"
      ],
      [
        "å",
        "ŀ"
      ],
      [
        "Ĵ",
        "èģĶç½ĳ"
      ],
      [
        "äº",
        "ĴèģĶç½ĳ"
      ],
      [
        "å¤",
        "§"
      ],
      [
        "ä¸į",
        "ä¼ļ"
      ],
      [
        "æķ",
        "£çļĦ"
      ],
      [
        "åĨ",
        "·éĿĻ"
      ],
      [
        "å°±",
        "æķ£çļĦ"
      ],
      [
        "æĿ¥",
        "å¥½å¥½"
      ],
      [
        "æŃ",
        "£çļĦ"
      ],
      [
        "æıĲ",
        "åįĩ"
      ],
      [
        "åī",
        "§"
      ],
      [
        "ä¹Ł",
        "å¾Ī"
      ],
      [
        "éĢļ",
        "è¿ĩ"
      ],
      [
        "æľĭåıĭ",
        "ä¸įä¼ļ"
      ],
      [
        "ä¸ĭ",
        "æĿ¥å¥½å¥½"
      ],
      [
        "çľŁ",
        "æŃ£çļĦ"
      ],
      [
        "åĲµæŀ¶",
        "å°±æķ£çļĦ"
      ],
      [
        "åĽł",
        "ä¸º"
      ],
      [
        "æľį",
        "åĬ¡"
      ],
      [
        "ä¸Ģæ¬¡",
        "åĲµæŀ¶å°±æķ£çļĦ"
      ],
      [
        "è·³",
        "æ§½"
      ],
      [
        "äºĳ",
        "è®¡ç®Ĺ"
      ],
      [
        "åŀ",
        "ĭ"
      ],
      [
        "åĨ·éĿĻ",
        "ä¸ĭæĿ¥å¥½å¥½"
      ],
      [
        "éĢļè¿ĩ",
        "äºĴèģĶç½ĳ"
      ],
      [
        "æľĭåıĭä¸įä¼ļ",
        "åĽłä¸º"
      ],
      [
        "çľŁæŃ£çļĦ",
        "æľĭåıĭä¸įä¼ļåĽłä¸º"
      ],
      [
        "çľŁæŃ£çļĦæľĭåıĭä¸įä¼ļåĽłä¸º",
        "ä¸Ģæ¬¡åĲµæŀ¶å°±æķ£çļĦ"
      ],
      [
        "¥",
        "å¿«ä¹Ĳ"
      ],
      [
        "©",
        "¿è¶Ĭ"
      ],
      [
        "ª",
        "ģ"
      ],
      [
        "ç",
        "¢"
      ],
      [
        "ç",
        "ł"
      ],
      [
        "ç",
        "©¿è¶Ĭ"
      ],
      [
        "ç",
        "ªģ"
      ],
      [
        "äº",
        "İ"
      ],
      [
        "ä¸Ģ",
        "æŃ¥"
      ],
      [
        "å®",
        "ī"
      ],
      [
        "åħ",
        "¥"
      ],
      [
        "æĹ",
        "¥å¿«ä¹Ĳ"
      ],
      [
        "ä½ľ",
        "æģ¯"
      ],
      [
        "éĩį",
        "çĤ¹"
      ],
      [
        "çİ",
        "¯"
      ],
      [
        "§",
        "åĪ¶"
      ],
      [
        "¨",
        "¡"
      ],
      [
        "¨",
        "Ģ"
      ],
      [
        "º",
        "ç¡"
      ],
      [
        "æ",
        "¨¡"
      ],
      [
        "è",
        "¨Ģ"
      ],
      [
        "ĸ",
        "èĢ"
      ],
      [
        "åĪ",
        "ĩ"
      ],
      [
        "æĪ",
        "ĸèĢ"
      ],
      [
        "ä¸Ģ",
        "åĪĩ"
      ],
      [
        "ç»",
        "ĥ"
      ],
      [
        "æİ",
        "§åĪ¶"
      ],
      [
        "è¯Ń",
        "è¨Ģ"
      ],
      [
        "ä»İ",
        "åŁ"
      ],
      [
        "æľĢ",
        "éĩįè¦ģ"
      ],
      [
        "å»ºè®®",
        "ä»İåŁ"
      ],
      [
        "ºç¡",
        "Ģ"
      ],
      [
        "æĪĸèĢ",
        "ħ"
      ],
      [
        "å»ºè®®ä»İåŁ",
        "ºç¡Ģ"
      ],
      [
        "¸",
        "ħ"
      ],
      [
        "»",
        "ç»ĵ"
      ],
      [
        "¾",
        "ĭåı"
      ],
      [
        "ä",
        "¾ĭåı"
      ],
      [
        "æ",
        "¸ħ"
      ],
      [
        "Ł",
        "éĢļ"
      ],
      [
        "å¤",
        "Ħ"
      ],
      [
        "ä»",
        "ĸ"
      ],
      [
        "çļĦ",
        "äºĭ"
      ],
      [
        "æĢ",
        "»ç»ĵ"
      ],
      [
        "ç»",
        "Ł"
      ],
      [
        "åº",
        "¦"
      ],
      [
        "åĨ",
        "³"
      ],
      [
        "åĽ",
        "º"
      ],
      [
        "åģļ",
        "å¥½"
      ],
      [
        "æ²",
        "ŁéĢļ"
      ],
      [
        "å¹",
        "³"
      ],
      [
        "éĢĤ",
        "å½"
      ],
      [
        "éĿ¢",
        "è¯ķ"
      ],
      [
        "è¿Ľ",
        "è¡Į"
      ],
      [
        "ä¾ĭåı",
        "¥"
      ],
      [
        "çļĦäºĭ",
        "æĥħ"
      ],
      [
        "éĢĤå½",
        "ĵ"
      ],
      [
        "A",
        "P"
      ],
      [
        "è¯",
        "Ħ"
      ],
      [
        "å°",
        "ļ"
      ],
      [
        "åĴĮ",
        "å°ļ"
      ],
      [
        "åº",
        "§"
      ],
      [
        "åº",
        "Ļ"
      ],
      [
        "æľī",
        "åº§"
      ],
      [
        "åĬł",
        "å"
      ],
      [
        "æ·±",
        "åº¦"
      ],
      [
        "é£",
        "İ"
      ],
      [
        "å±",
        "±"
      ],
      [
        "æİ¥",
        "åı"
      ],
      [
        "çŃ",
        "ī"
      ],
      [
        "èĥĮ",
        "åįķ"
      ],
      [
        "èĥĮåįķ",
        "è¯į"
      ],
      [
        "Ĳ",
        "åĬ¨"
      ],
      [
        "ļ",
        "æĮģ"
      ],
      [
        "åĲ",
        "Ī"
      ],
      [
        "è¿",
        "ĲåĬ¨"
      ],
      [
        "ç®",
        "¡"
      ],
      [
        "ä¼ļ",
        "çļĦ"
      ],
      [
        "æĸ",
        "ĩ"
      ],
      [
        "ä»Ĭå¤©",
        "å¤©"
      ],
      [
        "èĩªå·±",
        "çļĦ"
      ],
      [
        "çī©",
        "èģĶç½ĳ"
      ],
      [
        "åĿ",
        "ļæĮģ"
      ],
      [
        "çĽ",
        "®"
      ],
      [
        "é£",
        "Ł"
      ],
      [
        "å¤į",
        "ä¹ł"
      ],
      [
        "å¤ļè¯»",
        "å¤ļ"
      ],
      [
        "è¾Ľèĭ¦",
        "äºĨ"
      ],
      [
        "AP",
        "I"
      ],
      [
        "¢",
        "ĥ"
      ],
      [
        "¿",
        "æĦı"
      ],
      [
        "å",
        "¢ĥ"
      ],
      [
        "ï¼",
        "ļ"
      ],
      [
        "è¿",
        "ĳ"
      ],
      [
        "æĢİä¹Ī",
        "äºĨ"
      ],
      [
        "æĢİä¹Ī",
        "åĨĻ"
      ],
      [
        "è¯´",
        "è¯´"
      ],
      [
        "æĪĳ",
        "åľ¨"
      ],
      [
        "æķ",
        "´"
      ],
      [
        "æĦ",
        "¿æĦı"
      ],
      [
        "äºº",
        "å·¥"
      ],
      [
        "åĨ",
        "į"
      ],
      [
        "æĽ´",
        "å¤ļ"
      ],
      [
        "å®Į",
        "ç¾İ"
      ],
      [
        "è¿Ļ",
        "éĩĮ"
      ],
      [
        "åĲ¬",
        "çĿĢ"
      ],
      [
        "èĭ±",
        "è¯Ń"
      ],
      [
        "è°ĥ",
        "æķ´"
      ],
      [
        "ä»Ĭå¤©å¤©",
        "æ°Ķ"
      ],
      [
        "è¯´è¯´",
        "åĲĹ"
      ],
      [
        "æĪĳåľ¨",
        "è¿ĻéĩĮ"
      ],
      [
        "æĪĳåľ¨è¿ĻéĩĮ",
        "åĲ¬çĿĢ"
      ],
      [
        "¼",
        "åĲ"
      ],
      [
        "ç",
        "Ł"
      ],
      [
        "Ŀ",
        "ç¦"
      ],
      [
        "ä»",
        "¬"
      ],
      [
        "åĲ",
        "İ"
      ],
      [
        "åĳ",
        "Ĺ"
      ],
      [
        "åĳ",
        "¼åĲ"
      ],
      [
        "ä½ł",
        "åĸľæ¬¢"
      ],
      [
        "åı",
        "«"
      ],
      [
        "åı",
        "ĳ"
      ],
      [
        "ä¸į",
        "å¥½"
      ],
      [
        "åĴĮ",
        "æľĭåıĭ"
      ],
      [
        "åĽ",
        "ŀ"
      ],
      [
        "åĿ",
        "Ĺ"
      ],
      [
        "æ·±",
        "åĳ¼åĲ"
      ],
      [
        "æľĢ",
        "è¿ĳ"
      ],
      [
        "åĲĥ",
        "ä»Ģä¹Ī"
      ],
      [
        "ç§¯",
        "ç´¯"
      ],
      [
        "æ·±åº¦",
        "åŃ¦ä¹ł"
      ],
      [
        "çŁ",
        "¥"
      ],
      [
        "æ·±åĳ¼åĲ",
        "¸"
      ],
      [
        "â",
        "Ģ"
      ],
      [
        "ç",
        "Ľ´"
      ],
      [
        "é",
        "ĵ"
      ],
      [
        "ä¸Ģ",
        "çĽ´"
      ],
      [
        "èµ·",
        "æĿ¥"
      ],
      [
        "æ³¨",
        "æĦı"
      ],
      [
        "è´",
        "¦"
      ],
      [
        "ä»»",
        "åĬ¡"
      ],
      [
        "äººå·¥",
        "æĻºèĥ½"
      ],
      [
        "âĢ",
        "Ķ"
      ],
      [
        "éĵ",
        "¾"
      ],
      [
        "£",
        "Ĵ"
      ],
      [
        "æ",
        "£Ĵ"
      ],
      [
        "ŀ",
        "æİ¥"
      ],
      [
        "è¿",
        "ŀæİ¥"
      ],
      [
        "å®",
        "ŀ"
      ],
      [
        "èģ",
        "Į"
      ],
      [
        "å¾Ī",
        "å¼Ģå¿ĥ"
      ],
      [
        "åĩ",
        "ı"
      ],
      [
        "æĶ",
        "¹"
      ],
      [
        "çİ",
        "°"
      ],
      [
        "è®¾",
        "å¤ĩ"
      ],
      [
        "åĬ©",
        "æīĭ"
      ],
      [
        "æħ¢",
        "æħ¢"
      ],
      [
        "è§ī",
        "å¾Ĺ"
      ],
      [
        "åĮº",
        "åĿĹ"
      ],
      [
        "ä½łåĸľæ¬¢",
        "ä»Ģä¹Ī"
      ],
      [
        "æ£Ĵ",
        "äºĨ"
      ],
      [
        "»",
        "çļĦ"
      ],
      [
        "ĭ",
        "ī"
      ],
      [
        "ĳ",
        "å¹"
      ],
      [
        "åº",
        "·"
      ],
      [
        "èĥ½",
        "å¸®"
      ],
      [
        "å¿ĥ",
        "æĥħ"
      ],
      [
        "ç§",
        "ĳå¹"
      ],
      [
        "ä»Ĭå¤©",
        "è¿ĩ"
      ],
      [
        "å¾Ĺ",
        "æĢİä¹Īæł·"
      ],
      [
        "éĹ",
        "´"
      ],
      [
        "è¯»",
        "ä¹¦"
      ],
      [
        "å¿«",
        "å¾Īå¤ļ"
      ],
      [
        "åĩº",
        "åİ»"
      ],
      [
        "èµ°",
        "èµ°"
      ],
      [
        "æĹ¶",
        "éĹ´"
      ],
      [
        "åİŁ",
        "çĲĨ"
      ],
      [
        "éĩıåŃĲ",
        "è®¡ç®Ĺ"
      ],
      [
        "éļ",
        "¾"
      ],
      [
        "ä»Ĭå¤©è¿ĩ",
        "å¾ĹæĢİä¹Īæł·"
      ],
      [
        "åĩºåİ»",
        "èµ°èµ°"
      ],
      [
        "è",
        "ħ"
      ],
      [
        "è¯",
        "Ĩ"
      ],
      [
        "æĹ",
        "ł"
      ],
      [
        "è®°",
        "ä½ı"
      ],
      [
        "æī¾",
        "åĪ°"
      ],
      [
        "è®²",
        "ä¸ª"
      ],
      [
        "åĲµæŀ¶",
        "äºĨ"
      ],
      [
        "åįĩ",
        "èģĮ"
      ],
      [
        "çŃ",
        "Ķ"
      ],
      [
        "è§ģ",
        "åĪ°ä½ł"
      ],
      [
        "å¾Īé«ĺåħ´",
        "è§ģåĪ°ä½ł"
      ],
      [
        "åĮºåĿĹ",
        "éĵ¾"
      ],
      [
        "å¿ĥæĥħ",
        "ä¸įå¥½"
      ],
      [
        "å",
        "ĺ"
      ],
      [
        "å",
        "¦Ĥ"
      ],
      [
        "ç",
        "ĥ"
      ],
      [
        "äº",
        "¤"
      ],
      [
        "ä½ł",
        "èģĬå¤©"
      ],
      [
        "ç»",
        "Ļ"
      ],
      [
        "æķ",
        "Ī"
      ],
      [
        "åĹ",
        "¨"
      ],
      [
        "å¸",
        "¦"
      ],
      [
        "æŃ",
        "Į"
      ],
      [
        "æĶ",
        "¾"
      ],
      [
        "å¥½å¥½",
        "ä¼ĳæģ¯"
      ],
      [
        "..",
        "."
      ],
      [
        "çĥ",
        "Ń"
      ],
      [
        "§",
        "ç»"
      ],
      [
        "²",
        "ç»ı"
      ],
      [
        "ç",
        "Ĭ"
      ],
      [
        "æĺ¯",
        "ç¬"
      ],
      [
        "ä½ł",
        "å·"
      ],
      [
        "ç»",
        "§ç»"
      ],
      [
        "å¯¹",
        "ä¸į"
      ],
      [
        "è¯»",
        "å®Į"
      ],
      [
        "çĽ",
        "¸"
      ],
      [
        "æ²¡",
        "äºĭ"
      ],
      [
        "ä½łå¥½",
        "åĳĢ"
      ],
      [
        "æĺ¯ç¬",
        "¬"
      ],
      [
        "ä½łå·",
        "²ç»ı"
      ],
      [
        "ç»§ç»",
        "Ń"
      ],
      [
        "ç",
        "ĭ"
      ],
      [
        "ä½ł",
        "ä¼ļ"
      ],
      [
        "èĥ",
        "ĸ"
      ],
      [
        "è°¢",
        "è°¢"
      ],
      [
        "æĹ©ä¸Ĭ",
        "å¥½"
      ],
      [
        "çĭ",
        "¬"
      ],
      [
        "º",
        "åĪ©"
      ],
      [
        "æ",
        "Ĵ"
      ],
      [
        "ĩ",
        "æĴ"
      ],
      [
        "ĳ",
        "è¯Ŀ"
      ],
      [
        "Ł",
        "éĻħ"
      ],
      [
        "æĺ",
        "ŁéĻħ"
      ],
      [
        "æĦŁ",
        "äºº"
      ],
      [
        "éľ",
        "ĩæĴ"
      ],
      [
        "æĸ°",
        "çļĦ"
      ],
      [
        "ç¬",
        "ĳè¯Ŀ"
      ],
      [
        "é¡",
        "ºåĪ©"
      ],
      [
        "æĺŁéĻħ",
        "ç©¿è¶Ĭ"
      ],
      [
        "éľĩæĴ",
        "¼"
      ],
      [
        "çĶ",
        "Ł"
      ],
      [
        "åĵ",
        "Ī"
      ],
      [
        "æ²",
        "¹"
      ],
      [
        "åĬł",
        "æ²¹"
      ],
      [
        "æĻļ",
        "å®ī"
      ],
      [
        "¢",
        "æ°Ķ"
      ],
      [
        "å®",
        "¢æ°Ķ"
      ],
      [
        "æĽ´",
        "å¥½çļĦ"
      ],
      [
        "¡",
        "ä¹Ł"
      ],
      [
        "è",
        "ı"
      ],
      [
        "Ĺ",
        "éĿ¢"
      ],
      [
        "ľ",
        "åĵ"
      ],
      [
        "Ń",
        "åĸľ"
      ],
      [
        "çļĦ",
        "æİ¨èįĲ"
      ],
      [
        "å®",
        "¶"
      ],
      [
        "æĿ",
        "¡ä¹Ł"
      ],
      [
        "æĿ¥",
        "ç¢"
      ],
      [
        "ä»Ĭå¤©",
        "çļĦæİ¨èįĲ"
      ],
      [
        "æģ",
        "Ńåĸľ"
      ],
      [
        "çī©",
        "çĲĨ"
      ],
      [
        "åı¯ä»¥è¯ķè¯ķ",
        "ä»Ĭå¤©çļĦæİ¨èįĲ"
      ],
      [
        "æĪĸèĢħ",
        "æĿ¥ç¢"
      ],
      [
        "åĴĮæľĭåıĭ",
        "åĲµæŀ¶äºĨ"
      ],
      [
        "èı",
        "ľåĵ"
      ],
      [
        "ĹéĿ¢",
        "æĿ¡ä¹Ł"
      ],
      [
        "åı¯ä»¥è¯ķè¯ķä»Ĭå¤©çļĦæİ¨èįĲ",
        "èıľåĵ"
      ],
      [
        "æĪĸèĢħæĿ¥ç¢",
        "ĹéĿ¢æĿ¡ä¹Ł"
      ],
      [
        "åı¯ä»¥è¯ķè¯ķä»Ĭå¤©çļĦæİ¨èįĲèıľåĵ",
        "ģ"
      ],
      [
        "æĪĸèĢħæĿ¥ç¢ĹéĿ¢æĿ¡ä¹Ł",
        "ä¸įéĶĻ"
      ],
      [
        "ä¸į",
        "å®¢æ°Ķ"
      ],
      [
        "èĬĤ",
        "æĹ¥å¿«ä¹Ĳ"
      ],
      [
        "ç³»",
        "çļĦ"
      ],
      [
        "æ²¡",
        "åħ³"
      ],
      [
        "æ²¡åħ³",
        "ç³»çļĦ"
      ],
      [
        "ĭ",
        "åĬĽ"
      ],
      [
        "åİ",
        "ĭåĬĽ"
      ],
      [
        "æĬ",
        "±"
      ],
      [
        "¾",
        "å¼ı"
      ],
      [
        "çļĦ",
        "ä¸Ģä¸ª"
      ],
      [
        "æĺ",
        "¾å¼ı"
      ],
      [
        "ä¸į",
        "éľĢè¦ģ"
      ],
      [
        "èĩª",
        "åĬ¨"
      ],
      [
        "åŃ¦ä¹ł",
        "è§Ħå¾ĭ"
      ],
      [
        "åĪĨ",
        "æĶ¯"
      ],
      [
        "ä¸Ń",
        "èĩªåĬ¨"
      ],
      [
        "ä»İ",
        "æķ°æį®"
      ],
      [
        "æľºåĻ¨åŃ¦ä¹ł",
        "æĺ¯AI"
      ],
      [
        "èĢĮ",
        "ä¸įéľĢè¦ģ"
      ],
      [
        "è®©è®¡ç®Ĺæľº",
        "ä»İæķ°æį®"
      ],
      [
        "çļĦä¸Ģä¸ª",
        "åĪĨæĶ¯"
      ],
      [
        "æĺ¾å¼ı",
        "ç¼ĸç¨ĭ"
      ],
      [
        "ä¸ŃèĩªåĬ¨",
        "åŃ¦ä¹łè§Ħå¾ĭ"
      ],
      [
        "æľºåĻ¨åŃ¦ä¹łæĺ¯AI",
        "çļĦä¸Ģä¸ªåĪĨæĶ¯"
      ],
      [
        "èĢĮä¸įéľĢè¦ģ",
        "æĺ¾å¼ıç¼ĸç¨ĭ"
      ],
      [
        "è®©è®¡ç®Ĺæľºä»İæķ°æį®",
        "ä¸ŃèĩªåĬ¨åŃ¦ä¹łè§Ħå¾ĭ"
      ],
      [
        "£",
        "ä»»"
      ],
      [
        "¥",
        "ļ"
      ],
      [
        "©",
        "åĴĮ"
      ],
      [
        "«",
        "åĩº"
      ],
      [
        "¬",
        "èĥĮ"
      ],
      [
        "°",
        "æĸ°"
      ],
      [
        "²",
        "åĬ¨"
      ],
      [
        "µ",
        "æ¯Ķ"
      ],
      [
        "¶",
        "çĽ"
      ],
      [
        "¸",
        "å¿ĥ"
      ],
      [
        "»",
        "è®°"
      ],
      [
        "¿",
        "æĭ"
      ],
      [
        "æ",
        "¦Ĥ"
      ],
      [
        "æ",
        "¥ļ"
      ],
      [
        "Ģ",
        "į"
      ],
      [
        "ħ",
        "æĽ´å¤ļ"
      ],
      [
        "ä¸",
        "»åĬ¨"
      ],
      [
        "äº",
        "«åĩº"
      ],
      [
        "å¥½",
        "åĳĢ"
      ],
      [
        "æĺ¯",
        "æľºåĻ¨åŃ¦ä¹ł"
      ],
      [
        "å¤ļ",
        "åģļ"
      ],
      [
        "å¤ļ",
        "æĢ»ç»ĵ"
      ],
      [
        "å¿",
        "µæ¯Ķ"
      ],
      [
        "ä¼",
        "°æĸ°"
      ],
      [
        "è¦ģ",
        "åĪĨ"
      ],
      [
        "æī",
        "¿æĭ"
      ],
      [
        "åĨ",
        "²åĬ¨"
      ],
      [
        "æľº",
        "ä¼ļçļĦ"
      ],
      [
        "åį",
        "Ī"
      ],
      [
        "æŃ",
        "»è®°"
      ],
      [
        "é¢ĺ",
        "å¤ļæĢ»ç»ĵ"
      ],
      [
        "æł",
        "¸å¿ĥ"
      ],
      [
        "æĶ",
        "¶çĽ"
      ],
      [
        "æĽ´",
        "éĩįè¦ģ"
      ],
      [
        "æĥ³",
        "æ¸ħ"
      ],
      [
        "èģĬ",
        "èģĬ"
      ],
      [
        "è®©",
        "ä½łçļĦ"
      ],
      [
        "è®©",
        "å¿«ä¹Ĳ"
      ],
      [
        "å¤ª",
        "å¥½äºĨ"
      ],
      [
        "çĲĨè§£",
        "æ¦Ĥ"
      ],
      [
        "éĻ",
        "©åĴĮ"
      ],
      [
        "çľĭ",
        "åĪ°"
      ],
      [
        "æĬĢ",
        "èĥ½"
      ],
      [
        "å¼Ģå¿ĥ",
        "çļĦäºĭæĥħ"
      ],
      [
        "ç¡",
        "¬èĥĮ"
      ],
      [
        "è´",
        "£ä»»"
      ],
      [
        "è¢«",
        "çľĭåĪ°"
      ],
      [
        "åİŁ",
        "åĽł"
      ],
      [
        "èĸ",
        "ª"
      ],
      [
        "ä¸įè¦ģ",
        "åĨ²åĬ¨"
      ],
      [
        "æĪĲæŀľ",
        "è¢«çľĭåĪ°"
      ],
      [
        "æıĲåįĩ",
        "æł¸å¿ĥ"
      ],
      [
        "è·³æ§½",
        "åİŁåĽł"
      ],
      [
        "åĨ·éĿĻä¸ĭæĿ¥å¥½å¥½",
        "èģĬèģĬ"
      ],
      [
        "åĨ³",
        "å®ļ"
      ],
      [
        "è¯Ħ",
        "ä¼°æĸ°"
      ],
      [
        "åĬłå",
        "Ģį"
      ],
      [
        "é£İ",
        "éĻ©åĴĮ"
      ],
      [
        "æ¥ļ",
        "è·³æ§½åİŁåĽł"
      ],
      [
        "ħæĽ´å¤ļ",
        "è´£ä»»"
      ],
      [
        "ä¸»åĬ¨",
        "æī¿æĭ"
      ],
      [
        "äº«åĩº",
        "æĿ¥"
      ],
      [
        "å¤ļåģļ",
        "é¢ĺå¤ļæĢ»ç»ĵ"
      ],
      [
        "å¿µæ¯Ķ",
        "æŃ»è®°"
      ],
      [
        "è¦ģåĪĨ",
        "äº«åĩºæĿ¥"
      ],
      [
        "æľºä¼ļçļĦ",
        "é£İéĻ©åĴĮ"
      ],
      [
        "æĶ¶çĽ",
        "Ĭ"
      ],
      [
        "æĥ³æ¸ħ",
        "æ¥ļè·³æ§½åİŁåĽł"
      ],
      [
        "è®©ä½łçļĦ",
        "æĪĲæŀľè¢«çľĭåĪ°"
      ],
      [
        "è®©å¿«ä¹Ĳ",
        "åĬłåĢį"
      ],
      [
        "çĲĨè§£æ¦Ĥ",
        "å¿µæ¯ĶæŃ»è®°"
      ],
      [
        "å¼Ģå¿ĥçļĦäºĭæĥħ",
        "è¦ģåĪĨäº«åĩºæĿ¥"
      ],
      [
        "ç¡¬èĥĮ",
        "æĽ´éĩįè¦ģ"
      ],
      [
        "ä¸įè¦ģåĨ²åĬ¨",
        "åĨ³å®ļ"
      ],
      [
        "æıĲåįĩæł¸å¿ĥ",
        "æĬĢèĥ½"
      ],
      [
        "è¯Ħä¼°æĸ°",
        "æľºä¼ļçļĦé£İéĻ©åĴĮ"
      ],
      [
        "ä¸»åĬ¨æī¿æĭ",
        "ħæĽ´å¤ļè´£ä»»"
      ],
      [
        "çĲĨè§£æ¦Ĥå¿µæ¯ĶæŃ»è®°",
        "ç¡¬èĥĮæĽ´éĩįè¦ģ"
      ],
      [
        "è¯Ħä¼°æĸ°æľºä¼ļçļĦé£İéĻ©åĴĮ",
        "æĶ¶çĽĬ"
      ],
      [
        "W",
        "e"
      ],
      [
        "b",
        "å¼Ģ"
      ],
      [
        "°",
        "æľįåĬ¡"
      ],
      [
        "µ",
        "ģ"
      ],
      [
        "¹",
        "åħ"
      ],
      [
        "º",
        "Ĳ"
      ],
      [
        "¿",
        "æ³"
      ],
      [
        "æ",
        "µģ"
      ],
      [
        "æ",
        "ºĲ"
      ],
      [
        "Ħ",
        "æºĲ"
      ],
      [
        "ī",
        "éľĢ"
      ],
      [
        "Ĳ",
        "åĴĮ"
      ],
      [
        "ĵ",
        "åŃ¦"
      ],
      [
        "Ľ",
        "çĶ¨"
      ],
      [
        "ä¹",
        "°æľįåĬ¡"
      ],
      [
        "çļĦ",
        "ç¼ĸç¨ĭ"
      ],
      [
        "æĺ",
        "ĵåŃ¦"
      ],
      [
        "æĺ¯",
        "åı¯ä»¥"
      ],
      [
        "ä¸į",
        "çĶ¨"
      ],
      [
        "ä¸ª",
        "æĸ¹"
      ],
      [
        "æī",
        "į"
      ],
      [
        "èµ",
        "ĦæºĲ"
      ],
      [
        "æŀ",
        "ĲåĴĮ"
      ],
      [
        "è®¡ç®Ĺ",
        "èµĦæºĲ"
      ],
      [
        "åĪĨ",
        "æŀĲåĴĮ"
      ],
      [
        "åı¯ä»¥",
        "ä»İ"
      ],
      [
        "èĩªå·±",
        "ä¹°æľįåĬ¡"
      ],
      [
        "å¹",
        "¿æ³"
      ],
      [
        "æĮ",
        "īéľĢ"
      ],
      [
        "ä¸Ń",
        "åįĪ"
      ],
      [
        "åĬł",
        "èĸª"
      ],
      [
        "éĿ¢",
        "åħ¥"
      ],
      [
        "æķ°æį®",
        "åĪĨæŀĲåĴĮ"
      ],
      [
        "ç®Ģ",
        "åįķ"
      ],
      [
        "ä½¿çĶ¨",
        "è®¡ç®ĹèµĦæºĲ"
      ],
      [
        "åŁ",
        "¹åħ"
      ],
      [
        "ä¸Ģç§į",
        "æµģ"
      ],
      [
        "èĩªä¿¡",
        "æĺ¯åı¯ä»¥"
      ],
      [
        "è¡Į",
        "çļĦç¼ĸç¨ĭ"
      ],
      [
        "å°±æĺ¯",
        "éĢļè¿ĩäºĴèģĶç½ĳ"
      ],
      [
        "Pythonæĺ¯",
        "ä¸Ģç§įæµģ"
      ],
      [
        "åĩł",
        "ä¸ªæĸ¹"
      ],
      [
        "äºĳè®¡ç®Ĺ",
        "å°±æĺ¯éĢļè¿ĩäºĴèģĶç½ĳ"
      ],
      [
        "äºİ",
        "AI"
      ],
      [
        "ç§ĳå¹",
        "»"
      ],
      [
        "We",
        "bå¼Ģ"
      ],
      [
        "ĽçĶ¨",
        "äºİAI"
      ],
      [
        "ä¸įçĶ¨",
        "èĩªå·±ä¹°æľįåĬ¡"
      ],
      [
        "åı¯ä»¥ä»İ",
        "åĩłä¸ªæĸ¹"
      ],
      [
        "å¹¿æ³",
        "ĽçĶ¨äºİAI"
      ],
      [
        "æĮīéľĢ",
        "ä½¿çĶ¨"
      ],
      [
        "éĿ¢åħ¥",
        "æīĭ"
      ],
      [
        "æķ°æį®åĪĨæŀĲåĴĮ",
        "Webå¼Ģ"
      ],
      [
        "ç®Ģåįķ",
        "æĺĵåŃ¦"
      ],
      [
        "åŁ¹åħ",
        "»çļĦ"
      ],
      [
        "èĩªä¿¡æĺ¯åı¯ä»¥",
        "åŁ¹åħ»çļĦ"
      ],
      [
        "è¡ĮçļĦç¼ĸç¨ĭ",
        "è¯Ńè¨Ģ"
      ],
      [
        "Pythonæĺ¯ä¸Ģç§įæµģ",
        "è¡ĮçļĦç¼ĸç¨ĭè¯Ńè¨Ģ"
      ],
      [
        "äºĳè®¡ç®Ĺå°±æĺ¯éĢļè¿ĩäºĴèģĶç½ĳ",
        "ä½¿çĶ¨è®¡ç®ĹèµĦæºĲ"
      ],
      [
        "ä¸įçĶ¨èĩªå·±ä¹°æľįåĬ¡",
        "åĻ¨"
      ],
      [
        "åı¯ä»¥ä»İåĩłä¸ªæĸ¹",
        "éĿ¢åħ¥æīĭ"
      ],
      [
        "æķ°æį®åĪĨæŀĲåĴĮWebå¼Ģ",
        "åıĳ"
      ],
      [
        "¡",
        "åīį"
      ],
      [
        "¥",
        "åŀĭ"
      ],
      [
        "±",
        "çİ¯"
      ],
      [
        "´",
        "èĸ"
      ],
      [
        "¸",
        "è§ģ"
      ],
      [
        "¹",
        "éĴŁ"
      ],
      [
        "½",
        "åĬĽ"
      ],
      [
        "½",
        "çĦ¶"
      ],
      [
        "Ĥ",
        "çļĦ"
      ],
      [
        "Ĥ",
        "ç¥"
      ],
      [
        "Ħ",
        "å¼"
      ],
      [
        "Ĩ",
        "æĪĳ"
      ],
      [
        "Ĩ",
        "å¤ĩ"
      ],
      [
        "ľ",
        "çļĦ"
      ],
      [
        "ľ",
        "æĿ¥"
      ],
      [
        "ŀ",
        "ç»ı"
      ],
      [
        "Ł",
        "è¿"
      ],
      [
        "å¤",
        "Łè¿"
      ],
      [
        "ä½",
        "ĨæĪĳ"
      ],
      [
        "çļĦ",
        "ä¸Ģç§į"
      ],
      [
        "åĪ",
        "Ĵ"
      ],
      [
        "æĺ¯",
        "åī§"
      ],
      [
        "åĬ",
        "ŀ"
      ],
      [
        "åı",
        "¥åŀĭ"
      ],
      [
        "å°",
        "½åĬĽ"
      ],
      [
        "å¤ļ",
        "å±"
      ],
      [
        "å¤ļ",
        "ç»ĥ"
      ],
      [
        "åĴĮ",
        "åĽŀ"
      ],
      [
        "ç»",
        "ľæĿ¥"
      ],
      [
        "æĪĳ",
        "æĺ¯AI"
      ],
      [
        "æĿ",
        "¾"
      ],
      [
        "æĿ",
        "ĤçļĦ"
      ],
      [
        "ä¹ł",
        "åĩł"
      ],
      [
        "åľ¨",
        "çļĦ"
      ],
      [
        "åľ¨",
        "è¯Ń"
      ],
      [
        "çĲĨ",
        "å¤į"
      ],
      [
        "ä¼ļ",
        "å°½åĬĽ"
      ],
      [
        "è®¡",
        "åĪĴ"
      ],
      [
        "åĩ",
        "Ĩå¤ĩ"
      ],
      [
        "çī",
        "ĩ"
      ],
      [
        "åģļ",
        "çľŁ"
      ],
      [
        "ä»Ĭå¤©",
        "å¾Īå¼Ģå¿ĥ"
      ],
      [
        "å¸",
        "¸è§ģ"
      ],
      [
        "é¢ĺ",
        "æī¾"
      ],
      [
        "éĹ",
        "¹éĴŁ"
      ],
      [
        "æĥħ",
        "æĦŁ"
      ],
      [
        "æĥħ",
        "åĲĹ"
      ],
      [
        "æĥħ",
        "çīĩ"
      ],
      [
        "æĦŁ",
        "è§ī"
      ],
      [
        "ä¸Ń",
        "çĲĨè§£"
      ],
      [
        "å®ļ",
        "ä½ľæģ¯"
      ],
      [
        "å®ļ",
        "è®¡åĪĴ"
      ],
      [
        "æıĲ",
        "åīį"
      ],
      [
        "è¿ĺ",
        "æĺ¯åī§"
      ],
      [
        "æķ°",
        "åŃ¦"
      ],
      [
        "ç½ĳ",
        "ç»ľæĿ¥"
      ],
      [
        "åĸľ",
        "åī§"
      ],
      [
        "ä¸Ģä¸ª",
        "å¤Łè¿"
      ],
      [
        "æīĭ",
        "æľº"
      ],
      [
        "çĲĨè§£",
        "åĴĮåĽŀ"
      ],
      [
        "æķ°æį®",
        "æ¨¡"
      ],
      [
        "æĹ¶",
        "æ·±åĳ¼åĲ¸"
      ],
      [
        "ç±»",
        "åŀĭ"
      ],
      [
        "ä½łçļĦ",
        "æĥħæĦŁ"
      ],
      [
        "çľĭ",
        "æīĭæľº"
      ],
      [
        "å»ºè®®",
        "åĽº"
      ],
      [
        "çĿ",
        "¡åīį"
      ],
      [
        "åºĶ",
        "ä½łçļĦæĥħæĦŁ"
      ],
      [
        "è®¾",
        "ä¸Ģä¸ªå¤Łè¿"
      ],
      [
        "æĹ©",
        "èµ·"
      ],
      [
        "ä½¿çĶ¨",
        "å¤ļå±"
      ],
      [
        "è§Ħ",
        "åĪĻ"
      ],
      [
        "åĪ¶",
        "å®ļè®¡åĪĴ"
      ],
      [
        "è¯Ńæ³ķ",
        "è§ĦåĪĻ"
      ],
      [
        "å¤ļè¯»",
        "ä¾ĭåı¥"
      ],
      [
        "å°ĳ",
        "çľĭæīĭæľº"
      ],
      [
        "æĹ©ä¸Ĭ",
        "è®¾ä¸Ģä¸ªå¤Łè¿"
      ],
      [
        "èĻ",
        "½çĦ¶"
      ],
      [
        "çł",
        "´èĸ"
      ],
      [
        "çªģ",
        "çł´èĸ"
      ],
      [
        "éĩįçĤ¹",
        "çªģçł´èĸ"
      ],
      [
        "å»ºè®®ä»İåŁºç¡Ģ",
        "åı¥åŀĭ"
      ],
      [
        "å¤Ħ",
        "çĲĨå¤į"
      ],
      [
        "éĿ¢è¯ķ",
        "æĹ¶æ·±åĳ¼åĲ¸"
      ],
      [
        "å¢ĥ",
        "ä¸ŃçĲĨè§£"
      ],
      [
        "æ·±åº¦åŃ¦ä¹ł",
        "æĺ¯æľºåĻ¨åŃ¦ä¹ł"
      ],
      [
        "ä½łåĸľæ¬¢ä»Ģä¹Ī",
        "ç±»åŀĭ"
      ],
      [
        "æĶ¾",
        "æĿ¾"
      ],
      [
        "æīį",
        "èĥ½"
      ],
      [
        "±çİ¯",
        "èĬĤ"
      ],
      [
        "Ĥç¥",
        "ŀç»ı"
      ],
      [
        "Ħå¼",
        "±çİ¯èĬĤ"
      ],
      [
        "ľçļĦ",
        "éĹ¹éĴŁ"
      ],
      [
        "ä½ĨæĪĳ",
        "ä¼ļå°½åĬĽ"
      ],
      [
        "å¤ļç»ĥ",
        "ä¹łåĩł"
      ],
      [
        "æĿĤçļĦ",
        "æķ°æį®æ¨¡"
      ],
      [
        "åľ¨è¯Ń",
        "å¢ĥä¸ŃçĲĨè§£"
      ],
      [
        "åĩĨå¤ĩ",
        "å¸¸è§ģ"
      ],
      [
        "åģļçľŁ",
        "é¢ĺæī¾"
      ],
      [
        "å®ļä½ľæģ¯",
        "æĹ¶éĹ´"
      ],
      [
        "æıĲåīį",
        "åĩĨå¤ĩå¸¸è§ģ"
      ],
      [
        "è¿ĺæĺ¯åī§",
        "æĥħçīĩ"
      ],
      [
        "ç½ĳç»ľæĿ¥",
        "å¤ĦçĲĨå¤į"
      ],
      [
        "åĸľåī§",
        "è¿ĺæĺ¯åī§æĥħçīĩ"
      ],
      [
        "çĲĨè§£åĴĮåĽŀ",
        "åºĶä½łçļĦæĥħæĦŁ"
      ],
      [
        "å»ºè®®åĽº",
        "å®ļä½ľæģ¯æĹ¶éĹ´"
      ],
      [
        "çĿ¡åīį",
        "å°ĳçľĭæīĭæľº"
      ],
      [
        "ä½¿çĶ¨å¤ļå±",
        "Ĥç¥ŀç»ı"
      ],
      [
        "æĹ©ä¸Ĭè®¾ä¸Ģä¸ªå¤Łè¿",
        "ľçļĦéĹ¹éĴŁ"
      ],
      [
        "èĻ½çĦ¶",
        "æĪĳæĺ¯AI"
      ],
      [
        "éĩįçĤ¹çªģçł´èĸ",
        "Ħå¼±çİ¯èĬĤ"
      ],
      [
        "å»ºè®®ä»İåŁºç¡Ģåı¥åŀĭ",
        "å¼Ģå§ĭ"
      ],
      [
        "éĿ¢è¯ķæĹ¶æ·±åĳ¼åĲ¸",
        "æĶ¾æĿ¾"
      ],
      [
        "æ·±åº¦åŃ¦ä¹łæĺ¯æľºåĻ¨åŃ¦ä¹ł",
        "çļĦä¸Ģç§į"
      ],
      [
        "ä½łåĸľæ¬¢ä»Ģä¹Īç±»åŀĭ",
        "çļĦ"
      ],
      [
        "ä½ĨæĪĳä¼ļå°½åĬĽ",
        "çĲĨè§£åĴĮåĽŀåºĶä½łçļĦæĥħæĦŁ"
      ],
      [
        "å¤ļç»ĥä¹łåĩł",
        "æ¬¡"
      ],
      [
        "æĿĤçļĦæķ°æį®æ¨¡",
        "å¼ı"
      ],
      [
        "åľ¨è¯Ńå¢ĥä¸ŃçĲĨè§£",
        "è¯Ńæ³ķè§ĦåĪĻ"
      ],
      [
        "åģļçľŁé¢ĺæī¾",
        "æĦŁè§ī"
      ],
      [
        "æıĲåīįåĩĨå¤ĩå¸¸è§ģ",
        "éĹ®é¢ĺ"
      ],
      [
        "ç½ĳç»ľæĿ¥å¤ĦçĲĨå¤į",
        "æĿĤçļĦæķ°æį®æ¨¡å¼ı"
      ],
      [
        "ä½¿çĶ¨å¤ļå±Ĥç¥ŀç»ı",
        "ç½ĳç»ľæĿ¥å¤ĦçĲĨå¤įæĿĤçļĦæķ°æį®æ¨¡å¼ı"
      ],
      [
        "2",
        "5"
      ],
      [
        "¡",
        "é"
      ],
      [
        "¢",
        "é"
      ],
      [
        "¥",
        "®"
      ],
      [
        "ª",
        "è"
      ],
      [
        "ª",
        "çİ¯"
      ],
      [
        "«",
        "ä½"
      ],
      [
        "²",
        "Ĺ"
      ],
      [
        "¶",
        "ç³»"
      ],
      [
        "¶",
        "ä»ĸ"
      ],
      [
        "º",
        "è°ĥ"
      ],
      [
        "º",
        "«ä½"
      ],
      [
        "½",
        "¯ä»"
      ],
      [
        "å",
        "ĥ"
      ],
      [
        "å",
        "²Ĺ"
      ],
      [
        "ç",
        "ķ"
      ],
      [
        "è",
        "º«ä½"
      ],
      [
        "è",
        "½¯ä»"
      ],
      [
        "ģ",
        "æĺ"
      ],
      [
        "ģ",
        "å¹³"
      ],
      [
        "Ĥ",
        "åľ"
      ],
      [
        "Ħ",
        "ç§į"
      ],
      [
        "Ħ",
        "å·¥ä½ľ"
      ],
      [
        "ħ",
        "å®"
      ],
      [
        "ĩ",
        "è¡"
      ],
      [
        "Ī",
        "å¯¹ä¸į"
      ],
      [
        "Į",
        "Ħå·¥ä½ľ"
      ],
      [
        "į",
        "è°ĥæķ´"
      ],
      [
        "İ",
        "äºĨ"
      ],
      [
        "ı",
        "å¤©"
      ],
      [
        "ı",
        "ä¸Ģä¸ª"
      ],
      [
        "ı",
        "ç¼ĸç¨ĭ"
      ],
      [
        "ĵ",
        "æ³¨"
      ],
      [
        "ĵ",
        "æľĢéĩįè¦ģ"
      ],
      [
        "ĺ",
        "Ł"
      ],
      [
        "Ľ",
        "çĤ¹"
      ],
      [
        "ä¸",
        "ĵæ³¨"
      ],
      [
        "ä½",
        "įè°ĥæķ´"
      ],
      [
        "åĲ",
        "Ħç§į"
      ],
      [
        "åĪ",
        "Ľ"
      ],
      [
        "å¥½",
        "åĽ"
      ],
      [
        "å¥½",
        "æĸ¹"
      ],
      [
        "æĺ¯",
        "åºĶ"
      ],
      [
        "æĺ¯",
        "å¥½æĸ¹"
      ],
      [
        "åĳ",
        "ĺ"
      ],
      [
        "æĢ",
        "ģå¹³"
      ],
      [
        "ä½ł",
        "åĴĮ"
      ],
      [
        "å¾",
        "ªçİ¯"
      ],
      [
        "å¤ļ",
        "è¯´"
      ],
      [
        "å¤ļ",
        "åĲ¬"
      ],
      [
        "åĴĮ",
        "éĢĤ"
      ],
      [
        "åĴĮ",
        "æİ§åĪ¶"
      ],
      [
        "å¼",
        "ł"
      ],
      [
        "æĪĳ",
        "èĥ½å¸®"
      ],
      [
        "åħ",
        "¶ä»ĸ"
      ],
      [
        "åº",
        "ıç¼ĸç¨ĭ"
      ],
      [
        "æľī",
        "çĤ¹"
      ],
      [
        "åĨ",
        "ħå®"
      ],
      [
        "çĲĨ",
        "åĴĮæİ§åĪ¶"
      ],
      [
        "åŃ¦ä¹ł",
        "åĴĮéĢĤ"
      ],
      [
        "å°±",
        "åĥ"
      ],
      [
        "å¿ĥ",
        "æĢģå¹³"
      ],
      [
        "åĽ",
        "ĽçĤ¹"
      ],
      [
        "åİ",
        "Ĩ"
      ],
      [
        "çĶ¨",
        "ç¨ĭ"
      ],
      [
        "å¸",
        "Ĥåľ"
      ],
      [
        "æĪĲ",
        "æľ¬"
      ],
      [
        "éĢĤ",
        "éĩı"
      ],
      [
        "éĴ",
        "Īå¯¹ä¸į"
      ],
      [
        "éĩı",
        "åĮĸ"
      ],
      [
        "è®©",
        "åĲĦç§į"
      ],
      [
        "ä¹Ł",
        "æĺ¯å¥½æĸ¹"
      ],
      [
        "è¿Ļ",
        "åĽĽçĤ¹"
      ],
      [
        "æ¯",
        "ıå¤©"
      ],
      [
        "åĩº",
        "éĩįçĤ¹"
      ],
      [
        "åĿ",
        "ĩè¡"
      ],
      [
        "æī¾",
        "å¥½åĽ"
      ],
      [
        "ä½łçļĦ",
        "åĲĹ"
      ],
      [
        "çľĭ",
        "èĭ±"
      ],
      [
        "è®²",
        "æķħäºĭ"
      ],
      [
        "æĻºèĥ½",
        "åĮĸ"
      ],
      [
        "ç®Ģ",
        "æ´"
      ],
      [
        "åºĶ",
        "èĥ½åĬĽ"
      ],
      [
        "å¸®",
        "ä½łåĴĮ"
      ],
      [
        "åĲĮ",
        "å²Ĺ"
      ],
      [
        "å°±æĺ¯",
        "è®©åĲĦç§į"
      ],
      [
        "åĪĨéĴŁ",
        "ä¼ĳæģ¯"
      ],
      [
        "ä¿ĿæĮģ",
        "åŃ¦ä¹łåĴĮéĢĤ"
      ],
      [
        "è®°å¾Ĺ",
        "éĢĤå½ĵ"
      ],
      [
        "çĶµå½±",
        "ä¹Łæĺ¯å¥½æĸ¹"
      ],
      [
        "æľīä»Ģä¹Ī",
        "æĪĳèĥ½å¸®"
      ],
      [
        "åı¯ä»¥è¯ķè¯ķ",
        "çķ"
      ],
      [
        "è§Ħå¾ĭ",
        "ä½ľæģ¯"
      ],
      [
        "æľįåĬ¡",
        "åĳĺ"
      ],
      [
        "éĢļè¿ĩäºĴèģĶç½ĳ",
        "è¿ŀæİ¥"
      ],
      [
        "çł",
        "Ķ"
      ],
      [
        "çªģ",
        "åĩºéĩįçĤ¹"
      ],
      [
        "æİ§åĪ¶",
        "æĪĲæľ¬"
      ],
      [
        "ç»Ł",
        "æ²ŁéĢļ"
      ],
      [
        "åģļå¥½",
        "å¸Ĥåľ"
      ],
      [
        "æİ¥åı",
        "£"
      ],
      [
        "ç®¡",
        "çĲĨåĴĮæİ§åĪ¶"
      ],
      [
        "æĸĩ",
        "çĶµå½±ä¹Łæĺ¯å¥½æĸ¹"
      ],
      [
        "çī©èģĶç½ĳ",
        "å°±æĺ¯è®©åĲĦç§į"
      ],
      [
        "åĿļæĮģ",
        "èĥĮåįķè¯į"
      ],
      [
        "å¤ļè¯»å¤ļ",
        "åĨĻ"
      ],
      [
        "API",
        "æĺ¯åºĶ"
      ],
      [
        "å®ŀ",
        "çİ°"
      ],
      [
        "è®¾å¤ĩ",
        "éĢļè¿ĩäºĴèģĶç½ĳè¿ŀæİ¥"
      ],
      [
        "¡é",
        "¥®"
      ],
      [
        "¢é",
        "ĺŁ"
      ],
      [
        "ªè",
        "ĮĦå·¥ä½ľ"
      ],
      [
        "¶ç³»",
        "ç»Łæ²ŁéĢļ"
      ],
      [
        "ºè°ĥ",
        "çłĶ"
      ],
      [
        "èº«ä½",
        "ĵæľĢéĩįè¦ģ"
      ],
      [
        "è½¯ä»",
        "¶ç³»ç»Łæ²ŁéĢļ"
      ],
      [
        "ģæĺ",
        "İäºĨ"
      ],
      [
        "ıä¸Ģä¸ª",
        "æľįåĬ¡åĳĺ"
      ],
      [
        "ä½įè°ĥæķ´",
        "åĨħå®"
      ],
      [
        "å¾ªçİ¯",
        "è¿Ľè¡Į"
      ],
      [
        "å¤ļè¯´",
        "å¤ļè¯»å¤ļåĨĻ"
      ],
      [
        "å¤ļåĲ¬",
        "å¤ļè¯´å¤ļè¯»å¤ļåĨĻ"
      ],
      [
        "åħ¶ä»ĸ",
        "è½¯ä»¶ç³»ç»Łæ²ŁéĢļ"
      ],
      [
        "åºıç¼ĸç¨ĭ",
        "æİ¥åı£"
      ],
      [
        "æľīçĤ¹",
        "ç´¯"
      ],
      [
        "å°±åĥ",
        "ıä¸Ģä¸ªæľįåĬ¡åĳĺ"
      ],
      [
        "å¿ĥæĢģå¹³",
        "åĴĮ"
      ],
      [
        "çĶ¨ç¨ĭ",
        "åºıç¼ĸç¨ĭæİ¥åı£"
      ],
      [
        "éĢĤéĩı",
        "è¿ĲåĬ¨"
      ],
      [
        "éĴĪå¯¹ä¸į",
        "åĲĮå²Ĺ"
      ],
      [
        "éĩıåĮĸ",
        "æĪĲæŀľ"
      ],
      [
        "è¿ĻåĽĽçĤ¹",
        "æľĢéĩįè¦ģ"
      ],
      [
        "æ¯ıå¤©",
        "åĿļæĮģèĥĮåįķè¯į"
      ],
      [
        "åĿĩè¡",
        "¡é¥®"
      ],
      [
        "æī¾å¥½åĽ",
        "¢éĺŁ"
      ],
      [
        "çľĭèĭ±",
        "æĸĩçĶµå½±ä¹Łæĺ¯å¥½æĸ¹"
      ],
      [
        "æĻºèĥ½åĮĸ",
        "ç®¡çĲĨåĴĮæİ§åĪ¶"
      ],
      [
        "ç®Ģæ´",
        "ģæĺİäºĨ"
      ],
      [
        "å¸®ä½łåĴĮ",
        "åħ¶ä»ĸè½¯ä»¶ç³»ç»Łæ²ŁéĢļ"
      ],
      [
        "ä¿ĿæĮģåŃ¦ä¹łåĴĮéĢĤ",
        "åºĶèĥ½åĬĽ"
      ],
      [
        "è®°å¾ĹéĢĤå½ĵ",
        "ä¼ĳæģ¯"
      ],
      [
        "æľīä»Ģä¹ĪæĪĳèĥ½å¸®",
        "ä½łçļĦåĲĹ"
      ],
      [
        "åı¯ä»¥è¯ķè¯ķçķ",
        "ªèĮĦå·¥ä½ľ"
      ],
      [
        "åģļå¥½å¸Ĥåľ",
        "ºè°ĥçłĶ"
      ],
      [
        "çī©èģĶç½ĳå°±æĺ¯è®©åĲĦç§į",
        "è®¾å¤ĩéĢļè¿ĩäºĴèģĶç½ĳè¿ŀæİ¥"
      ],
      [
        "APIæĺ¯åºĶ",
        "çĶ¨ç¨ĭåºıç¼ĸç¨ĭæİ¥åı£"
      ],
      [
        "å®ŀçİ°",
        "æĻºèĥ½åĮĸç®¡çĲĨåĴĮæİ§åĪ¶"
      ],
      [
        "ä½įè°ĥæķ´åĨħå®",
        "¹"
      ],
      [
        "éĴĪå¯¹ä¸įåĲĮå²Ĺ",
        "ä½įè°ĥæķ´åĨħå®¹"
      ],
      [
        "åĿĩè¡¡é¥®",
        "é£Ł"
      ],
      [
        "çľĭèĭ±æĸĩçĶµå½±ä¹Łæĺ¯å¥½æĸ¹",
        "æ³ķ"
      ],
      [
        "åı¯ä»¥è¯ķè¯ķçķªèĮĦå·¥ä½ľ",
        "æ³ķ"
      ],
      [
        "çī©èģĶç½ĳå°±æĺ¯è®©åĲĦç§įè®¾å¤ĩéĢļè¿ĩäºĴèģĶç½ĳè¿ŀæİ¥",
        "èµ·æĿ¥"
      ],
      [
        "C",
        "o"
      ],
      [
        "L",
        "e"
      ],
      [
        "d",
        "e"
      ],
      [
        "e",
        "t"
      ],
      [
        "¨",
        "éĢ"
      ],
      [
        "¬",
        "åŃ¦ä¹ł"
      ],
      [
        "·",
        "é¢ĺ"
      ],
      [
        "¹",
        "çĽ®"
      ],
      [
        "º",
        "ä¸Ĭ"
      ],
      [
        "ģ",
        "åĴĮå°ļ"
      ],
      [
        "ħ",
        "æĭ"
      ],
      [
        "ī",
        "æĭ"
      ],
      [
        "Ĭ",
        "éĩį"
      ],
      [
        "Į",
        "æĸ¹"
      ],
      [
        "Ľ",
        "å°ı"
      ],
      [
        "Ł",
        "äººç±»"
      ],
      [
        "ł",
        "ç»Ł"
      ],
      [
        "äº",
        "Ľå°ı"
      ],
      [
        "çļĦ",
        "æĬĢæľ¯"
      ],
      [
        "è®",
        "ºä¸Ĭ"
      ],
      [
        "åĪ",
        "·é¢ĺ"
      ],
      [
        "æĺ¯",
        "è®©è®¡ç®Ĺæľº"
      ],
      [
        "äºĨ",
        "åĨį"
      ],
      [
        "åı",
        "Įæĸ¹"
      ],
      [
        "å°",
        "Ĭéĩį"
      ],
      [
        "æĢİä¹Ī",
        "åĬŀ"
      ],
      [
        "æĢİä¹Ī",
        "æĹ©èµ·"
      ],
      [
        "ä¸ª",
        "èĢ"
      ],
      [
        "åŃ¦",
        "åİŁçĲĨ"
      ],
      [
        "ä¼",
        "łç»Ł"
      ],
      [
        "è¦ģ",
        "ä¸įè¦ģ"
      ],
      [
        "å¾Ī",
        "å¥½çļĦ"
      ],
      [
        "æľī",
        "ä¸ªèĢ"
      ],
      [
        "åľ¨",
        "åŃ¦ä¹ł"
      ],
      [
        "åľ¨",
        "ç»Ļ"
      ],
      [
        "çĲĨ",
        "è®ºä¸Ĭ"
      ],
      [
        "ç®Ĺ",
        "æ³ķ"
      ],
      [
        "æİ¨",
        "çĲĨ"
      ],
      [
        "çĶ¨",
        "éĩıåŃĲ"
      ],
      [
        "çĶ¨",
        "Le"
      ],
      [
        "åģļ",
        "äºĽå°ı"
      ],
      [
        "æİ¨èįĲ",
        "ä¸ª"
      ],
      [
        "æİ¨èįĲ",
        "çĶ¨Le"
      ],
      [
        "éĹ",
        "¨éĢ"
      ],
      [
        "åĮ",
        "ħæĭ"
      ],
      [
        "æĦŁ",
        "çŁ¥"
      ],
      [
        "æĦŁ",
        "æĥħåĲĹ"
      ],
      [
        "åĬĽ",
        "åŃ¦åİŁçĲĨ"
      ],
      [
        "éĢĤ",
        "åĲĪ"
      ],
      [
        "æĭ",
        "Łäººç±»"
      ],
      [
        "æĥ³",
        "æĥ³"
      ],
      [
        "ä»İ",
        "åīį"
      ],
      [
        "çİ",
        "ĩ"
      ],
      [
        "å°ı",
        "åĴĮå°ļ"
      ],
      [
        "éĩĮ",
        "æľīåº§"
      ],
      [
        "éĩĮ",
        "æľīä¸ªèĢ"
      ],
      [
        "ä¹Ĳ",
        "äºİ"
      ],
      [
        "è·",
        "Ŀç¦"
      ],
      [
        "æĻºèĥ½",
        "çļĦæĬĢæľ¯"
      ],
      [
        "ç®Ģ",
        "åİĨ"
      ],
      [
        "æ¯Ķ",
        "ä¼łç»Ł"
      ],
      [
        "åĬ©",
        "äºº"
      ],
      [
        "éĥ½",
        "å¹³"
      ],
      [
        "è®¡ç®Ĺæľº",
        "å¿«å¾Īå¤ļ"
      ],
      [
        "éĿĻ",
        "äºĨåĨį"
      ],
      [
        "æŃ¥",
        "ä¸Ń"
      ],
      [
        "è¯Ńæ³ķ",
        "å¼Ģå§ĭ"
      ],
      [
        "è¿Ľ",
        "æŃ¥ä¸Ń"
      ],
      [
        "Pythonæĺ¯",
        "å¾Īå¥½çļĦ"
      ],
      [
        "ä¿ĿæĮģ",
        "éĢĤå½ĵ"
      ],
      [
        "è¿ĺä¸įéĶĻ",
        "åĳĢ"
      ],
      [
        "è¿ĺä¸įéĶĻ",
        "åĳ¢"
      ],
      [
        "çĦ¶",
        "åĲİ"
      ],
      [
        "åĪ«å¤ª",
        "éļ¾"
      ],
      [
        "åĪ©",
        "çĶ¨éĩıåŃĲ"
      ],
      [
        "é¡",
        "¹çĽ®"
      ],
      [
        "æıĲåįĩ",
        "ç®Ĺæ³ķ"
      ],
      [
        "åĨ·éĿĻä¸ĭæĿ¥å¥½å¥½",
        "æĥ³æĥ³"
      ],
      [
        "åħ¥",
        "éĹ¨éĢ"
      ],
      [
        "æ¨¡",
        "æĭŁäººç±»"
      ],
      [
        "ç»ĥ",
        "æīĭ"
      ],
      [
        "å»ºè®®ä»İåŁºç¡Ģ",
        "è¯Ńæ³ķå¼Ģå§ĭ"
      ],
      [
        "ä»ĸ",
        "äºº"
      ],
      [
        "åģļå¥½",
        "èĩªå·±çļĦ"
      ],
      [
        "è¿Ľè¡Į",
        "è®¡ç®Ĺ"
      ],
      [
        "åºĻ",
        "éĩĮæľīä¸ªèĢ"
      ],
      [
        "æľīåº§",
        "å±±"
      ],
      [
        "å±±",
        "éĩĮæľīåº§"
      ],
      [
        "çŃī",
        "èĥ½åĬĽ"
      ],
      [
        "çŃī",
        "åıĮæĸ¹"
      ],
      [
        "æĦ¿æĦı",
        "è¯´è¯´åĲĹ"
      ],
      [
        "ä»Ĭå¤©å¤©æ°Ķ",
        "è¿ĺä¸įéĶĻåĳ¢"
      ],
      [
        "ä¸ĢçĽ´",
        "åľ¨åŃ¦ä¹ł"
      ],
      [
        "äººå·¥æĻºèĥ½",
        "æĺ¯è®©è®¡ç®Ĺæľº"
      ],
      [
        "éĩıåŃĲè®¡ç®Ĺ",
        "åĪ©çĶ¨éĩıåŃĲ"
      ],
      [
        "Co",
        "de"
      ],
      [
        "et",
        "Code"
      ],
      [
        "ģåĴĮå°ļ",
        "åľ¨ç»Ļ"
      ],
      [
        "īæĭ",
        "©"
      ],
      [
        "åĪ·é¢ĺ",
        "æıĲåįĩç®Ĺæ³ķ"
      ],
      [
        "å°Ĭéĩį",
        "ä»ĸäºº"
      ],
      [
        "çĲĨè®ºä¸Ĭ",
        "æ¯Ķä¼łç»Ł"
      ],
      [
        "åģļäºĽå°ı",
        "é¡¹çĽ®"
      ],
      [
        "æİ¨èįĲçĶ¨Le",
        "etCode"
      ],
      [
        "åĮħæĭ",
        "¬åŃ¦ä¹ł"
      ],
      [
        "æĦŁçŁ¥",
        "çŃīèĥ½åĬĽ"
      ],
      [
        "åĬĽåŃ¦åİŁçĲĨ",
        "è¿Ľè¡Įè®¡ç®Ĺ"
      ],
      [
        "éĢĤåĲĪ",
        "åĩºåİ»èµ°èµ°"
      ],
      [
        "ä»İåīį",
        "æľīåº§å±±"
      ],
      [
        "å°ıåĴĮå°ļ",
        "è®²æķħäºĭ"
      ],
      [
        "ä¹Ĳäºİ",
        "åĬ©äºº"
      ],
      [
        "è·Ŀç¦",
        "»"
      ],
      [
        "éĥ½å¹³",
        "éĿĻäºĨåĨį"
      ],
      [
        "Pythonæĺ¯å¾Īå¥½çļĦ",
        "åħ¥éĹ¨éĢ"
      ],
      [
        "ä¿ĿæĮģéĢĤå½ĵ",
        "è·Ŀç¦»"
      ],
      [
        "çĦ¶åĲİ",
        "åģļäºĽå°ıé¡¹çĽ®"
      ],
      [
        "åĪ«å¤ªéļ¾",
        "è¿ĩ"
      ],
      [
        "æ¨¡æĭŁäººç±»",
        "æĻºèĥ½çļĦæĬĢæľ¯"
      ],
      [
        "åģļå¥½èĩªå·±çļĦ",
        "å·¥ä½ľ"
      ],
      [
        "åºĻéĩĮæľīä¸ªèĢ",
        "ģåĴĮå°ļåľ¨ç»Ļ"
      ],
      [
        "å±±éĩĮæľīåº§",
        "åºĻ"
      ],
      [
        "çŃīåıĮæĸ¹",
        "éĥ½å¹³éĿĻäºĨåĨį"
      ],
      [
        "ä¸ĢçĽ´åľ¨åŃ¦ä¹ł",
        "è¿ĽæŃ¥ä¸Ń"
      ],
      [
        "äººå·¥æĻºèĥ½æĺ¯è®©è®¡ç®Ĺæľº",
        "æ¨¡æĭŁäººç±»æĻºèĥ½çļĦæĬĢæľ¯"
      ],
      [
        "éĩıåŃĲè®¡ç®ĹåĪ©çĶ¨éĩıåŃĲ",
        "åĬĽåŃ¦åİŁçĲĨè¿Ľè¡Įè®¡ç®Ĺ"
      ],
      [
        "åĪ·é¢ĺæıĲåįĩç®Ĺæ³ķ",
        "èĥ½åĬĽ"
      ],
      [
        "çĲĨè®ºä¸Ĭæ¯Ķä¼łç»Ł",
        "è®¡ç®Ĺæľºå¿«å¾Īå¤ļ"
      ],
      [
        "æİ¨èįĲçĶ¨LeetCode",
        "åĪ·é¢ĺæıĲåįĩç®Ĺæ³ķèĥ½åĬĽ"
      ],
      [
        "Pythonæĺ¯å¾Īå¥½çļĦåħ¥éĹ¨éĢ",
        "īæĭ©"
      ],
      [
        "çĦ¶åĲİåģļäºĽå°ıé¡¹çĽ®",
        "ç»ĥæīĭ"
      ],
      [
        "åºĻéĩĮæľīä¸ªèĢģåĴĮå°ļåľ¨ç»Ļ",
        "å°ıåĴĮå°ļè®²æķħäºĭ"
      ],
      [
        "çŃīåıĮæĸ¹éĥ½å¹³éĿĻäºĨåĨį",
        "æ²ŁéĢļ"
      ],
      [
        "¡",
        "æĶ¹"
      ],
      [
        "©",
        "åĽº"
      ],
      [
        "¯",
        "ç"
      ],
      [
        "¯",
        "¡æĶ¹"
      ],
      [
        "¶",
        "å®Į"
      ],
      [
        "¹",
        "è¯į"
      ],
      [
        "º",
        "çĤ¹"
      ],
      [
        "è",
        "Ī"
      ],
      [
        "Ġ",
        "å¤ļ"
      ],
      [
        "Ġ",
        "åĴĮ"
      ],
      [
        "Ġ",
        "è®¾"
      ],
      [
        "Ġ",
        "åħ³"
      ],
      [
        "Ģ",
        "æ³ķ"
      ],
      [
        "ģ",
        "åĲ"
      ],
      [
        "ĥ",
        "å¼ı"
      ],
      [
        "ĥ",
        "ä»¬"
      ],
      [
        "ĩ",
        "å¹"
      ],
      [
        "ĳ",
        "ä¸Ĭ"
      ],
      [
        "Ĵ",
        "éĢĤ"
      ],
      [
        "ķ",
        "åľ¨"
      ],
      [
        "Ĺ",
        "ä¸į"
      ],
      [
        "ĺ",
        "çĤ¹"
      ],
      [
        "Ŀ",
        "è¯ķ"
      ],
      [
        "Ł",
        "å¤įä¹ł"
      ],
      [
        "ä¸",
        "ļ"
      ],
      [
        "çļĦ",
        "ä»Ģä¹Ī"
      ],
      [
        "çļĦ",
        "äºº"
      ],
      [
        "çļĦ",
        "åĪĨ"
      ],
      [
        "çļĦ",
        "èĩªå·±"
      ],
      [
        "æľ",
        "Łå¤įä¹ł"
      ],
      [
        "æĺ¯",
        "ä¸Ģç§į"
      ],
      [
        "æĺ¯",
        "æİ¥åı"
      ],
      [
        "ä½ł",
        "æľī"
      ],
      [
        "ä½ł",
        "åı¯ä»¥"
      ],
      [
        "åı",
        "¯ç"
      ],
      [
        "å°",
        "Ŀè¯ķ"
      ],
      [
        "ä¸į",
        "åı¯ç"
      ],
      [
        "æĢİä¹Ī",
        "èĥĮåįķè¯į"
      ],
      [
        "æĢİä¹Ī",
        "æīįèĥ½"
      ],
      [
        "ä¸Ģ",
        "èµ·"
      ],
      [
        "ä¸ª",
        "èĬĤ"
      ],
      [
        "å®",
        "ĥä»¬"
      ],
      [
        "åŃ¦",
        "çļĦä»Ģä¹Ī"
      ],
      [
        "å¤ļ",
        "ä¸ªèĬĤ"
      ],
      [
        "å¿",
        "Ĩ"
      ],
      [
        "ä¼",
        "ĺçĤ¹"
      ],
      [
        "åĴĮ",
        "åĲĮ"
      ],
      [
        "æĪĳ",
        "å°ı"
      ],
      [
        "å·",
        "©åĽº"
      ],
      [
        "åľ¨",
        "ä¸Ģèµ·"
      ],
      [
        "å°±",
        "æĦŁ"
      ],
      [
        "å¿ĥ",
        "åĮĸ"
      ],
      [
        "æŀ",
        "ģåĲ"
      ],
      [
        "çĶ¨",
        "èģĶ"
      ],
      [
        "äºĭ",
        "çī©"
      ],
      [
        "è®°",
        "å½"
      ],
      [
        "è®°",
        "å¿Ĩ"
      ],
      [
        "çĤ¹",
        "ä¸Ĭ"
      ],
      [
        "å¸",
        "ĥå¼ı"
      ],
      [
        "æł",
        "¹è¯į"
      ],
      [
        "æł",
        "ĩå¹"
      ],
      [
        "èĩªå·±",
        "å®Įç¾İ"
      ],
      [
        "æĽ´",
        "èĩªä¿¡"
      ],
      [
        "ä¸Ń",
        "å¿ĥåĮĸ"
      ],
      [
        "ç¼",
        "ºçĤ¹"
      ],
      [
        "ç¼",
        "Ģæ³ķ"
      ],
      [
        "æĪĲ",
        "å®ĥä»¬"
      ],
      [
        "æĪĲ",
        "å°±æĦŁ"
      ],
      [
        "å®ļ",
        "å°ı"
      ],
      [
        "å®ļ",
        "æľŁå¤įä¹ł"
      ],
      [
        "æĥ³",
        "æ³ķ"
      ],
      [
        "ç´",
        "§"
      ],
      [
        "å¤ª",
        "æ£ĴäºĨ"
      ],
      [
        "æĸ°",
        "äºĭçī©"
      ],
      [
        "åĩº",
        "èĪ"
      ],
      [
        "è¯į",
        "æł¹è¯į"
      ],
      [
        "èµ°",
        "åĩºèĪ"
      ],
      [
        "åİ»",
        "ä¸Ńå¿ĥåĮĸ"
      ],
      [
        "æķ°æį®",
        "è¢«"
      ],
      [
        "ç»ĵ",
        "åĲĪ"
      ],
      [
        "æ³¨",
        "èĩªå·±çļĦ"
      ],
      [
        "èĩªä¿¡",
        "ä¸įæĺ¯"
      ],
      [
        "èĢĮ",
        "ä¸įæĺ¯"
      ],
      [
        "èĢĮ",
        "æĺ¯æİ¥åı"
      ],
      [
        "ç§¯",
        "æŀģåĲ"
      ],
      [
        "æľ¬",
        "æĬĢæľ¯"
      ],
      [
        "è¯Ńè¨Ģ",
        "åĳĢ"
      ],
      [
        "ä¾ĭåı¥",
        "è®°å¿Ĩ"
      ],
      [
        "çĽ®",
        "æłĩå¹"
      ],
      [
        "æĢİä¹ĪåĨĻ",
        "ç®ĢåİĨ"
      ],
      [
        "å®Įç¾İ",
        "çļĦèĩªå·±"
      ],
      [
        "åı«",
        "æĪĳå°ı"
      ],
      [
        "åĲĥä»Ģä¹Ī",
        "å¥½"
      ],
      [
        "ç§¯ç´¯",
        "æĪĲå°±æĦŁ"
      ],
      [
        "è´¦",
        "æľ¬æĬĢæľ¯"
      ],
      [
        "è§īå¾Ĺ",
        "èĩªå·±å®Įç¾İ"
      ],
      [
        "åįĩèģĮ",
        "åĬłèĸª"
      ],
      [
        "åĮºåĿĹéĵ¾",
        "æĺ¯ä¸Ģç§į"
      ],
      [
        "æķĪ",
        "çİĩ"
      ],
      [
        "åĪĽ",
        "ä¸ļ"
      ],
      [
        "å¼ł",
        "æĢİä¹ĪåĬŀ"
      ],
      [
        "¶å®Į",
        "æĪĲå®ĥä»¬"
      ],
      [
        "Ġå¤ļ",
        "å°Ŀè¯ķ"
      ],
      [
        "ĠåĴĮ",
        "ç§¯æŀģåĲ"
      ],
      [
        "Ġè®¾",
        "å®ļå°ı"
      ],
      [
        "Ġåħ³",
        "æ³¨èĩªå·±çļĦ"
      ],
      [
        "ĳä¸Ĭ",
        "çļĦäºº"
      ],
      [
        "ĴéĢĤ",
        "åĮº"
      ],
      [
        "ķåľ¨",
        "å¤ļä¸ªèĬĤ"
      ],
      [
        "Ĺä¸į",
        "å®Įç¾İçļĦèĩªå·±"
      ],
      [
        "çļĦåĪĨ",
        "å¸ĥå¼ı"
      ],
      [
        "ä½łåı¯ä»¥",
        "åı«æĪĳå°ı"
      ],
      [
        "ä¸įåı¯ç",
        "¯¡æĶ¹"
      ],
      [
        "åŃ¦çļĦä»Ģä¹Ī",
        "è¯Ńè¨ĢåĳĢ"
      ],
      [
        "ä¼ĺçĤ¹",
        "èĢĮä¸įæĺ¯"
      ],
      [
        "çĶ¨èģĶ",
        "æĥ³æ³ķ"
      ],
      [
        "è®°å½",
        "ķåľ¨å¤ļä¸ªèĬĤ"
      ],
      [
        "å®ļæľŁå¤įä¹ł",
        "å·©åĽº"
      ],
      [
        "è¯įæł¹è¯į",
        "ç¼Ģæ³ķ"
      ],
      [
        "èµ°åĩºèĪ",
        "ĴéĢĤåĮº"
      ],
      [
        "åİ»ä¸Ńå¿ĥåĮĸ",
        "çļĦåĪĨå¸ĥå¼ı"
      ],
      [
        "æķ°æį®è¢«",
        "è®°å½ķåľ¨å¤ļä¸ªèĬĤ"
      ],
      [
        "ç»ĵåĲĪ",
        "ä¾ĭåı¥è®°å¿Ĩ"
      ],
      [
        "èĩªä¿¡ä¸įæĺ¯",
        "è§īå¾Ĺèĩªå·±å®Įç¾İ"
      ],
      [
        "èĢĮæĺ¯æİ¥åı",
        "Ĺä¸įå®Įç¾İçļĦèĩªå·±"
      ],
      [
        "çĽ®æłĩå¹",
        "¶å®ĮæĪĲå®ĥä»¬"
      ],
      [
        "åĮºåĿĹéĵ¾æĺ¯ä¸Ģç§į",
        "åİ»ä¸Ńå¿ĥåĮĸçļĦåĪĨå¸ĥå¼ı"
      ],
      [
        "Ġå¤ļå°Ŀè¯ķ",
        "æĸ°äºĭçī©"
      ],
      [
        "ĠåĴĮç§¯æŀģåĲ",
        "ĳä¸ĬçļĦäºº"
      ],
      [
        "Ġè®¾å®ļå°ı",
        "çĽ®æłĩå¹¶å®ĮæĪĲå®ĥä»¬"
      ],
      [
        "Ġåħ³æ³¨èĩªå·±çļĦ",
        "ä¼ĺçĤ¹èĢĮä¸įæĺ¯"
      ],
      [
        "ä½łåı¯ä»¥åı«æĪĳå°ı",
        "åĬ©æīĭ"
      ],
      [
        "æķ°æį®è¢«è®°å½ķåľ¨å¤ļä¸ªèĬĤ",
        "çĤ¹ä¸Ĭ"
      ],
      [
        "åĮºåĿĹéĵ¾æĺ¯ä¸Ģç§įåİ»ä¸Ńå¿ĥåĮĸçļĦåĪĨå¸ĥå¼ı",
        "è´¦æľ¬æĬĢæľ¯"
      ],
      [
        "ĠåĴĮç§¯æŀģåĲĳä¸ĬçļĦäºº",
        "åľ¨ä¸Ģèµ·"
      ],
      [
        "Ġåħ³æ³¨èĩªå·±çļĦä¼ĺçĤ¹èĢĮä¸įæĺ¯",
        "ç¼ºçĤ¹"
      ],
      [
        "¡",
        "Ī"
      ],
      [
        "¥",
        "¿è¶Ĭ"
      ],
      [
        "¥",
        "åº·"
      ],
      [
        "²",
        "åĨį"
      ],
      [
        "´",
        "è¿"
      ],
      [
        "º",
        "èĩªå·±"
      ],
      [
        "º",
        "²åĨį"
      ],
      [
        "»",
        "è¾"
      ],
      [
        "å",
        "ĭī"
      ],
      [
        "æ",
        "¡Ī"
      ],
      [
        "ç",
        "Į"
      ],
      [
        "ç",
        "º²åĨį"
      ],
      [
        "è",
        "Ħ"
      ],
      [
        "è",
        "¥¿è¶Ĭ"
      ],
      [
        "Ħ",
        "åĴĮ"
      ],
      [
        "Ĩ",
        "æĪĲ"
      ],
      [
        "Ī",
        "å¼Ģ"
      ],
      [
        "Ī",
        "åģļ"
      ],
      [
        "Ĭ",
        "å¤§"
      ],
      [
        "ĸ",
        "å»"
      ],
      [
        "Ĺ",
        "å¥½"
      ],
      [
        "Ĺ",
        "è¶Ĭ"
      ],
      [
        "ľ",
        "ä¸ª"
      ],
      [
        "ľ",
        "è¥¿è¶Ĭ"
      ],
      [
        "Ł",
        "æĪĳ"
      ],
      [
        "ł",
        "æĿ"
      ],
      [
        "ä¸",
        "ľè¥¿è¶Ĭ"
      ],
      [
        "åĪ",
        "Ĺå¥½"
      ],
      [
        "æĺ¯",
        "æ°"
      ],
      [
        "ä½ł",
        "æĥ³"
      ],
      [
        "ä½ł",
        "åı«"
      ],
      [
        "æĢİä¹Ī",
        "æıĲ"
      ],
      [
        "æĢİä¹Ī",
        "åĩı"
      ],
      [
        "ä»Ģä¹Ī",
        "ä¸ľè¥¿è¶Ĭ"
      ],
      [
        "å¼",
        "ºèĩªå·±"
      ],
      [
        "æĪĳ",
        "ä»¬"
      ],
      [
        "æĪĳ",
        "æľĢè¿ĳ"
      ],
      [
        "åħ",
        "ĭ"
      ],
      [
        "åħ",
        "Īåģļ"
      ],
      [
        "ï¼Ł",
        "âĢĶ"
      ],
      [
        "éĢ",
        "»è¾"
      ],
      [
        "ä¼ļ",
        "ç»§ç»Ń"
      ],
      [
        "å°±",
        "ä¼ļç»§ç»Ń"
      ],
      [
        "éĤ£",
        "æĪĳä»¬"
      ],
      [
        "æĿ¥",
        "èģĬ"
      ],
      [
        "åģ",
        "¥åº·"
      ],
      [
        "æŀ",
        "ĦåĴĮ"
      ],
      [
        "äºĭ",
        "çĽ¸"
      ],
      [
        "æĬ",
        "Ĭå¤§"
      ],
      [
        "æĭ",
        "ĨæĪĲ"
      ],
      [
        "æĭ",
        "ĸå»"
      ],
      [
        "æıĲ",
        "çº²åĨį"
      ],
      [
        "éĩı",
        "é£Ł"
      ],
      [
        "èģĬ",
        "ä»Ģä¹Ī"
      ],
      [
        "ç´",
        "łæĿ"
      ],
      [
        "å°ı",
        "ä»»åĬ¡"
      ],
      [
        "ä¸ĭ",
        "åİ»"
      ],
      [
        "é«ĺ",
        "çĥŃ"
      ],
      [
        "è·",
        "ŁæĪĳ"
      ],
      [
        "ç»ĵ",
        "æŀĦåĴĮ"
      ],
      [
        "åĲĥ",
        "é«ĺçĥŃ"
      ],
      [
        "æ´",
        "Ĺè¶Ĭ"
      ],
      [
        "èģĬå¤©",
        "åĲ§"
      ],
      [
        "è¯Ńæ³ķ",
        "æĢİä¹ĪåŃ¦"
      ],
      [
        "åĪĨéĴŁ",
        "è¯ķè¯ķ"
      ],
      [
        "å°ĳ",
        "åĲĥé«ĺçĥŃ"
      ],
      [
        "è®°å¾Ĺ",
        "å¥½å¥½ä¼ĳæģ¯"
      ],
      [
        "åĪ«å¤ª",
        "åĭī"
      ],
      [
        "å¾Ģ",
        "å¾Ģ"
      ],
      [
        "ä½ı",
        "åĺ"
      ],
      [
        "ç®¡",
        "ä½ıåĺ"
      ],
      [
        "åĿļæĮģ",
        "è¿ĲåĬ¨"
      ],
      [
        "å¤ļè¯»å¤ļ",
        "ç§¯ç´¯"
      ],
      [
        "æĦ¿æĦı",
        "è·ŁæĪĳ"
      ],
      [
        "æ³¨æĦı",
        "ä»Ģä¹Ī"
      ],
      [
        "æ³¨æĦı",
        "ç»ĵæŀĦåĴĮ"
      ],
      [
        "ä»»åĬ¡",
        "æĭĨæĪĲ"
      ],
      [
        "æħ¢æħ¢",
        "æĿ¥"
      ],
      [
        "èħ",
        "¿"
      ],
      [
        "çŃĶ",
        "æ¡Ī"
      ],
      [
        "æķ°åŃ¦",
        "æĢİä¹ĪåŃ¦"
      ],
      [
        "åĪĽä¸ļ",
        "è¦ģ"
      ],
      [
        "´è¿",
        "Īå¼Ģ"
      ],
      [
        "çĮ",
        "ľä¸ª"
      ],
      [
        "èĦ",
        "ı"
      ],
      [
        "åĪĹå¥½",
        "æıĲçº²åĨį"
      ],
      [
        "æĺ¯æ°",
        "´"
      ],
      [
        "ä½łæĥ³",
        "èģĬä»Ģä¹Ī"
      ],
      [
        "ä»Ģä¹Īä¸ľè¥¿è¶Ĭ",
        "æ´Ĺè¶Ĭ"
      ],
      [
        "ï¼ŁâĢĶ",
        "âĢĶ"
      ],
      [
        "éĢ»è¾",
        "ĳ"
      ],
      [
        "å°±ä¼ļç»§ç»Ń",
        "ä¸ĭåİ»"
      ],
      [
        "éĤ£æĪĳä»¬",
        "æĿ¥èģĬ"
      ],
      [
        "æĬĬå¤§",
        "ä»»åĬ¡æĭĨæĪĲ"
      ],
      [
        "æĭĸå»",
        "¶"
      ],
      [
        "éĩıé£Ł",
        "çī©"
      ],
      [
        "ç´łæĿ",
        "Ĳ"
      ],
      [
        "å°ĳåĲĥé«ĺçĥŃ",
        "éĩıé£Łçī©"
      ],
      [
        "åĪ«å¤ªåĭī",
        "å¼ºèĩªå·±"
      ],
      [
        "å¾Ģå¾Ģ",
        "å°±ä¼ļç»§ç»Ńä¸ĭåİ»"
      ],
      [
        "ç®¡ä½ıåĺ",
        "´è¿Īå¼Ģ"
      ],
      [
        "å¤ļè¯»å¤ļç§¯ç´¯",
        "ç´łæĿĲ"
      ],
      [
        "æĦ¿æĦıè·ŁæĪĳ",
        "è¯´è¯´åĲĹ"
      ],
      [
        "æ³¨æĦıç»ĵæŀĦåĴĮ",
        "éĢ»è¾ĳ"
      ],
      [
        "çŃĶæ¡Ī",
        "æĺ¯æ°´"
      ],
      [
        "åĪĹå¥½æıĲçº²åĨį",
        "åĨĻ"
      ],
      [
        "ä»Ģä¹Īä¸ľè¥¿è¶Ĭæ´Ĺè¶Ĭ",
        "èĦı"
      ],
      [
        "éĤ£æĪĳä»¬æĿ¥èģĬ",
        "èģĬå¤©åĲ§"
      ],
      [
        "æĬĬå¤§ä»»åĬ¡æĭĨæĪĲ",
        "å°ıä»»åĬ¡"
      ],
      [
        "å¾Ģå¾Ģå°±ä¼ļç»§ç»Ńä¸ĭåİ»",
        "äºĨ"
      ],
      [
        "ç®¡ä½ıåĺ´è¿Īå¼Ģ",
        "èħ¿"
      ],
      [
        "¢",
        "éľĩæĴ¼"
      ],
      [
        "¥",
        "ä¸į"
      ],
      [
        "³",
        "èĩªå·±"
      ],
      [
        "è",
        "Ĥ"
      ],
      [
        "ħ",
        "è¦ģ"
      ],
      [
        "Ī",
        "æĦŁäºº"
      ],
      [
        "ı",
        "å°±"
      ],
      [
        "Ĵ",
        "åĬ"
      ],
      [
        "Ķ",
        "è®°"
      ],
      [
        "Ŀ",
        "èĢĥ"
      ],
      [
        "çļĦ",
        "å¼Ģ"
      ],
      [
        "å¥",
        "ıå°±"
      ],
      [
        "å¥½",
        "ç´¯"
      ],
      [
        "å¥½",
        "æĹł"
      ],
      [
        "æĺ¯",
        "ä»Ģä¹Ī"
      ],
      [
        "æĢ",
        "¥ä¸į"
      ],
      [
        "æĢ",
        "ĿèĢĥ"
      ],
      [
        "åı",
        "ĪæĦŁäºº"
      ],
      [
        "ä¸į",
        "å¿"
      ],
      [
        "æĢİä¹Ī",
        "åįĩèģĮåĬłèĸª"
      ],
      [
        "åĴĮ",
        "éľĢè¦ģ"
      ],
      [
        "åĴĮ",
        "ä½łèģĬå¤©"
      ],
      [
        "æĪĳ",
        "åĸľæ¬¢"
      ],
      [
        "è¦ģ",
        "çĤ¹"
      ],
      [
        "è¦ģ",
        "åĴĮéľĢè¦ģ"
      ],
      [
        "æĹ",
        "¢éľĩæĴ¼"
      ],
      [
        "äºº",
        "è§£"
      ],
      [
        "æľī",
        "ä½łçļĦ"
      ],
      [
        "æľī",
        "åĴĮä½łèģĬå¤©"
      ],
      [
        "åŃ¦ä¹ł",
        "æĸ°"
      ],
      [
        "ä¼ļ",
        "æĢĿèĢĥ"
      ],
      [
        "çī",
        "¢"
      ],
      [
        "åģļ",
        "ç¬"
      ],
      [
        "è®°",
        "è´¦"
      ],
      [
        "ä»Ĭå¤©",
        "çī¹"
      ],
      [
        "çĤ¹",
        "å¥½çļĦ"
      ],
      [
        "åĪĨ",
        "æ¸ħ"
      ],
      [
        "ä¸Ĭ",
        "çļĦäºĭæĥħ"
      ],
      [
        "è°",
        "ľ"
      ],
      [
        "ä½ľ",
        "æĸĩ"
      ],
      [
        "åĪ«",
        "å¼Ģå¿ĥ"
      ],
      [
        "åĪ«",
        "äººè§£"
      ],
      [
        "æĽ´",
        "çī¢"
      ],
      [
        "éĴ",
        "±"
      ],
      [
        "æĥ³",
        "è¦ģåĴĮéľĢè¦ģ"
      ],
      [
        "è¿ĺ",
        "æľīåĴĮä½łèģĬå¤©"
      ],
      [
        "å®Į",
        "ä¼ļæĢĿèĢĥ"
      ],
      [
        "è¿Ļ",
        "æł·"
      ],
      [
        "é«ĺ",
        "æķĪçİĩ"
      ],
      [
        "èĬĤ",
        "å¥ıå°±"
      ],
      [
        "çľĭ",
        "å®Įä¼ļæĢĿèĢĥ"
      ],
      [
        "æ¯Ķ",
        "å¦Ĥ"
      ],
      [
        "åĲĥ",
        "çĤ¹å¥½çļĦ"
      ],
      [
        "å·¥ä½ľ",
        "ä¸ĬçļĦäºĭæĥħ"
      ],
      [
        "åĬ©",
        "åĪ«äººè§£"
      ],
      [
        "å¸®",
        "åĬ©åĪ«äººè§£"
      ],
      [
        "éĹ®é¢ĺ",
        "è¯»ä¹¦"
      ],
      [
        "æľį",
        "æĭĸå»¶"
      ],
      [
        "å°±æĺ¯",
        "æľīçĤ¹ç´¯"
      ],
      [
        "æĢİä¹ĪåŃ¦",
        "èĭ±è¯Ń"
      ],
      [
        "å°ĳ",
        "ä¸įå¿"
      ],
      [
        "è®°å¾Ĺ",
        "æĽ´çī¢"
      ],
      [
        "è¾Ľèĭ¦",
        "ä¸Ģå¤©"
      ],
      [
        "çĿĢ",
        "éĹ®é¢ĺè¯»ä¹¦"
      ],
      [
        "çĶµå½±",
        "åĳĹ"
      ],
      [
        "ç¥",
        "Ŀç¦"
      ],
      [
        "æĢ»ç»ĵ",
        "è¦ģçĤ¹"
      ],
      [
        "åĨ³",
        "éĹ®é¢ĺ"
      ],
      [
        "æĢİä¹ĪåĨĻ",
        "ä½ľæĸĩ"
      ],
      [
        "åĲİ",
        "æĢ»ç»ĵè¦ģçĤ¹"
      ],
      [
        "çŁ¥",
        "è¯Ĩ"
      ],
      [
        "åĩı",
        "å°ĳä¸įå¿"
      ],
      [
        "æħ¢æħ¢",
        "è°ĥæķ´"
      ],
      [
        "æī¾åĪ°",
        "èĬĤå¥ıå°±"
      ],
      [
        "è®²ä¸ª",
        "æķħäºĭ"
      ],
      [
        "å¸¦",
        "çĿĢéĹ®é¢ĺè¯»ä¹¦"
      ],
      [
        "çĬ",
        "ĴåĬ"
      ],
      [
        "è¯»å®Į",
        "åĲİæĢ»ç»ĵè¦ģçĤ¹"
      ],
      [
        "æĺ¯ç¬¬",
        "ä¸ĢæŃ¥"
      ],
      [
        "ä½łæľī",
        "æĦŁæĥħåĲĹ"
      ],
      [
        "åĴĮåĲĮ",
        "äºĭçĽ¸"
      ],
      [
        "ä½łåı«",
        "ä»Ģä¹Ī"
      ],
      [
        "æĢİä¹Īåĩı",
        "èĤ"
      ],
      [
        "æĪĳæľĢè¿ĳ",
        "åľ¨"
      ],
      [
        "åħĭ",
        "æľįæĭĸå»¶"
      ],
      [
        "çĮľä¸ª",
        "è°ľ"
      ],
      [
        "³èĩªå·±",
        "åĲ§"
      ],
      [
        "ħè¦ģ",
        "çļĦå¼Ģ"
      ],
      [
        "æĢ¥ä¸į",
        "æĿ¥"
      ],
      [
        "æĪĳåĸľæ¬¢",
        "åŃ¦ä¹łæĸ°"
      ],
      [
        "æĹ¢éľĩæĴ¼",
        "åıĪæĦŁäºº"
      ],
      [
        "æľīä½łçļĦ",
        "ç¥Ŀç¦"
      ],
      [
        "åģļç¬",
        "Ķè®°"
      ],
      [
        "è®°è´¦",
        "æĺ¯ç¬¬ä¸ĢæŃ¥"
      ],
      [
        "ä»Ĭå¤©çī¹",
        "åĪ«å¼Ģå¿ĥ"
      ],
      [
        "åĪĨæ¸ħ",
        "æĥ³è¦ģåĴĮéľĢè¦ģ"
      ],
      [
        "è¿Ļæł·",
        "è®°å¾ĹæĽ´çī¢"
      ],
      [
        "çľĭå®Įä¼ļæĢĿèĢĥ",
        "å¾Īå¤ļ"
      ],
      [
        "æ¯Ķå¦Ĥ",
        "åĳ¢"
      ],
      [
        "åĲĥçĤ¹å¥½çļĦ",
        "çĬĴåĬ"
      ],
      [
        "å·¥ä½ľä¸ĬçļĦäºĭæĥħ",
        "æĢ¥ä¸įæĿ¥"
      ],
      [
        "å¸®åĬ©åĪ«äººè§£",
        "åĨ³éĹ®é¢ĺ"
      ],
      [
        "è¾Ľèĭ¦ä¸Ģå¤©",
        "äºĨ"
      ],
      [
        "åĩıå°ĳä¸įå¿",
        "ħè¦ģçļĦå¼Ģ"
      ],
      [
        "æī¾åĪ°èĬĤå¥ıå°±",
        "å¥½äºĨ"
      ],
      [
        "æĢİä¹ĪåĩıèĤ",
        "¥"
      ],
      [
        "æĪĳåĸľæ¬¢åŃ¦ä¹łæĸ°",
        "çŁ¥è¯Ĩ"
      ],
      [
        "æľīä½łçļĦç¥Ŀç¦",
        "ı"
      ],
      [
        "åĲĥçĤ¹å¥½çļĦçĬĴåĬ",
        "³èĩªå·±åĲ§"
      ],
      [
        "åĩıå°ĳä¸įå¿ħè¦ģçļĦå¼Ģ",
        "æĶ¯"
      ],
      [
        "¤",
        "¾"
      ],
      [
        "¤",
        "è¯Ĩ"
      ],
      [
        "¤",
        "çĭ¬"
      ],
      [
        "¦",
        "ĸ"
      ],
      [
        "¨",
        "çĶµå½±"
      ],
      [
        "±",
        "åĲĮ"
      ],
      [
        "¹",
        "è¯Ħ"
      ],
      [
        "ç",
        "¤¾"
      ],
      [
        "é",
        "¦ĸ"
      ],
      [
        "Ĥ",
        "åĬł"
      ],
      [
        "ħ",
        "äºº"
      ],
      [
        "ĭ",
        "å¾ĭ"
      ],
      [
        "ĭ",
        "æĹł"
      ],
      [
        "ı",
        "æĹ¶"
      ],
      [
        "ļ",
        "å¾"
      ],
      [
        "è¯",
        "ļå¾"
      ],
      [
        "ä¹",
        "ĭæĹł"
      ],
      [
        "è®",
        "¤è¯Ĩ"
      ],
      [
        "æĺ¯",
        "ä¸Ģä¸ª"
      ],
      [
        "æĢ",
        "ķ"
      ],
      [
        "ä½ł",
        "æĺ¯"
      ],
      [
        "ä½ł",
        "åĲ¬"
      ],
      [
        "ä½ł",
        "ä¸įæĺ¯"
      ],
      [
        "åı",
        "ĤåĬł"
      ],
      [
        "åŃ",
        "¤çĭ¬"
      ],
      [
        "æĢİä¹Ī",
        "ä¿ĿæĮģ"
      ],
      [
        "æĢİä¹Ī",
        "è¯»ä¹¦"
      ],
      [
        "åŃ¦",
        "ç¼ĸç¨ĭ"
      ],
      [
        "å¤ļ",
        "åıĤåĬł"
      ],
      [
        "åĴĮ",
        "åħ´"
      ],
      [
        "æĪĳ",
        "ä¸ĢçĽ´"
      ],
      [
        "æĪĳ",
        "æĺ¯ä¸Ģä¸ª"
      ],
      [
        "åħ",
        "±åĲĮ"
      ],
      [
        "æĹ",
        "ĭå¾ĭ"
      ],
      [
        "å¾Ī",
        "ç¾İ"
      ],
      [
        "å¾Ī",
        "æ£ĴäºĨ"
      ],
      [
        "å¾Ī",
        "åŃ¤çĭ¬"
      ],
      [
        "æī",
        "¹è¯Ħ"
      ],
      [
        "æľī",
        "æĦı"
      ],
      [
        "æľī",
        "åĪĻ"
      ],
      [
        "è¯Ŀ",
        "é¢ĺ"
      ],
      [
        "å°±",
        "å¥½"
      ],
      [
        "éĤ£",
        "å°±å¥½"
      ],
      [
        "å¿ĥ",
        "éĩĮ"
      ],
      [
        "æİ¨èįĲ",
        "é¦ĸ"
      ],
      [
        "æİ¨èįĲ",
        "ä½łåĲ¬"
      ],
      [
        "åĪ«",
        "æĢķ"
      ],
      [
        "èµ·",
        "é£İ"
      ],
      [
        "ä¸Ģä¸ª",
        "äºº"
      ],
      [
        "è¶",
        "£"
      ],
      [
        "è¯į",
        "ä¹Łå¾Ī"
      ],
      [
        "AI",
        "èģĬå¤©"
      ],
      [
        "éĥ",
        "¨çĶµå½±"
      ],
      [
        "çľŁ",
        "è¯ļå¾"
      ],
      [
        "éľĢè¦ģ",
        "éļ"
      ],
      [
        "æ´",
        "»åĬ¨"
      ],
      [
        "éĥ½",
        "åľ¨"
      ],
      [
        "è¢«",
        "æī¹è¯Ħ"
      ],
      [
        "åĪĻ",
        "åĬłå"
      ],
      [
        "åĪ«å¤ª",
        "å¾Ģ"
      ],
      [
        "å¾Īé«ĺåħ´",
        "è®¤è¯Ĩ"
      ],
      [
        "æľīä»Ģä¹Ī",
        "éľĢè¦ģéļ"
      ],
      [
        "éĿ¢è¯ķ",
        "ç´§"
      ],
      [
        "æĶ¹",
        "ä¹ĭæĹł"
      ],
      [
        "è§īå¾Ĺ",
        "å¾ĪåŃ¤çĭ¬"
      ],
      [
        "æī¾åĪ°",
        "åħ±åĲĮ"
      ],
      [
        "äº¤",
        "æľĭåıĭ"
      ],
      [
        "äº¤",
        "æ´»åĬ¨"
      ],
      [
        "æŃĮ",
        "è¯įä¹Łå¾Ī"
      ],
      [
        "ä½łå·²ç»ı",
        "å¾Īæ£ĴäºĨ"
      ],
      [
        "è¦ģä¸įè¦ģ",
        "è·³æ§½"
      ],
      [
        "åĴĮåĲĮäºĭçĽ¸",
        "å¤Ħ"
      ],
      [
        "çĮľä¸ªè°ľ",
        "è¯Ń"
      ],
      [
        "ç¤¾",
        "äº¤æ´»åĬ¨"
      ],
      [
        "ıæĹ¶",
        "è¯´"
      ],
      [
        "ä½łä¸įæĺ¯",
        "ä¸Ģä¸ªäºº"
      ],
      [
        "å¤ļåıĤåĬł",
        "ç¤¾äº¤æ´»åĬ¨"
      ],
      [
        "åĴĮåħ´",
        "è¶£"
      ],
      [
        "æĪĳä¸ĢçĽ´",
        "éĥ½åľ¨"
      ],
      [
        "æĪĳæĺ¯ä¸Ģä¸ª",
        "AIèģĬå¤©"
      ],
      [
        "æĹĭå¾ĭ",
        "å¾Īç¾İ"
      ],
      [
        "æľīæĦı",
        "å¢ĥ"
      ],
      [
        "æľīåĪĻ",
        "æĶ¹ä¹ĭæĹł"
      ],
      [
        "è¯Ŀé¢ĺ",
        "åĴĮåħ´è¶£"
      ],
      [
        "å¿ĥéĩĮ",
        "åİ»"
      ],
      [
        "æİ¨èįĲé¦ĸ",
        "æŃĮ"
      ],
      [
        "èµ·é£İ",
        "äºĨ"
      ],
      [
        "çľŁè¯ļå¾",
        "ħäºº"
      ],
      [
        "è¢«æī¹è¯Ħ",
        "äºĨ"
      ],
      [
        "åĪĻåĬłå",
        "ĭī"
      ],
      [
        "åĪ«å¤ªå¾Ģ",
        "å¿ĥéĩĮåİ»"
      ],
      [
        "å¾Īé«ĺåħ´è®¤è¯Ĩ",
        "ä½ł"
      ],
      [
        "æľīä»Ģä¹ĪéľĢè¦ģéļ",
        "ıæĹ¶è¯´"
      ],
      [
        "æī¾åĪ°åħ±åĲĮ",
        "è¯Ŀé¢ĺåĴĮåħ´è¶£"
      ],
      [
        "æŃĮè¯įä¹Łå¾Ī",
        "æľīæĦıå¢ĥ"
      ],
      [
        "æĪĳæĺ¯ä¸Ģä¸ªAIèģĬå¤©",
        "åĬ©æīĭ"
      ],
      [
        "æľīåĪĻæĶ¹ä¹ĭæĹł",
        "åĪĻåĬłåĭī"
      ],
      [
        "¦",
        "èĻ"
      ],
      [
        "ª",
        "æĺ¯"
      ],
      [
        "ª",
        "ä½łèģĬå¤©"
      ],
      [
        "°",
        "åĪ°"
      ],
      [
        "°",
        "å¸¦"
      ],
      [
        "·",
        "åĳ"
      ],
      [
        "ģ",
        "éĴ±"
      ],
      [
        "ī",
        "æĪĳ"
      ],
      [
        "Ĭ",
        "è¯"
      ],
      [
        "Ń",
        "åŃ¦ä¹ł"
      ],
      [
        "è¯",
        "·åĳ"
      ],
      [
        "å¥½",
        "èµ·æĿ¥"
      ],
      [
        "åı",
        "ªæĺ¯"
      ],
      [
        "ä¸į",
        "æĸ"
      ],
      [
        "ä¸į",
        "é¡ºåĪ©"
      ],
      [
        "æĢİä¹Ī",
        "å¤įä¹ł"
      ],
      [
        "ä»Ģä¹Ī",
        "éĥ½"
      ],
      [
        "ä»Ģä¹Ī",
        "èħ"
      ],
      [
        "ä¸Ģ",
        "å®ļ"
      ],
      [
        "è¯´",
        "éĶĻ"
      ],
      [
        "æĪĳ",
        "åı¯ä»¥"
      ],
      [
        "æĪĳ",
        "ä¹Ł"
      ],
      [
        "æĪĳ",
        "è¯´éĶĻ"
      ],
      [
        "å¾Ī",
        "å¥½äºĨ"
      ],
      [
        "æľī",
        "ä¸Ģå¤©"
      ],
      [
        "åľ¨",
        "ä¸įæĸ"
      ],
      [
        "ä¼ļ",
        "æĽ´å¥½çļĦ"
      ],
      [
        "ä¼ļ",
        "å¥½èµ·æĿ¥"
      ],
      [
        "å°±",
        "èĥĸ"
      ],
      [
        "åģļ",
        "å¾Ĺ"
      ],
      [
        "çľ",
        "ģéĴ±"
      ],
      [
        "ä»Ĭå¤©",
        "å¥½ç´¯"
      ],
      [
        "åı¯ä»¥",
        "èģĬ"
      ],
      [
        "è°",
        "ģ"
      ],
      [
        "ä»Ģä¹Īæĺ¯",
        "äºĳè®¡ç®Ĺ"
      ],
      [
        "ä»Ģä¹Īæĺ¯",
        "çī©èģĶç½ĳ"
      ],
      [
        "ä»Ģä¹Īæĺ¯",
        "äººå·¥æĻºèĥ½"
      ],
      [
        "æıĲ",
        "å»ºè®®"
      ],
      [
        "è¿ĺ",
        "ç³»"
      ],
      [
        "èģĬ",
        "åķĬ"
      ],
      [
        "è¿Ļ",
        "åıªæĺ¯"
      ],
      [
        "æ¬¡",
        "ä¸Ģå®ļ"
      ],
      [
        "ä¸ĭ",
        "æ¬¡ä¸Ģå®ļ"
      ],
      [
        "éĻ",
        "ªä½łèģĬå¤©"
      ],
      [
        "è®²",
        "ç¬ĳè¯Ŀ"
      ],
      [
        "çĦ",
        "¦èĻ"
      ],
      [
        "éĥ½",
        "ä¼ļå¥½èµ·æĿ¥"
      ],
      [
        "æŀľ",
        "æĪĳè¯´éĶĻ"
      ],
      [
        "ä¸Ģæ¬¡",
        "èĢĥè¯ķ"
      ],
      [
        "å¼Ģå§ĭ",
        "äºĨ"
      ],
      [
        "ä¸Ģå¤©",
        "å¼Ģå§ĭäºĨ"
      ],
      [
        "ç¢",
        "°åĪ°"
      ],
      [
        "ä¸ĢåĪĩ",
        "éĥ½ä¼ļå¥½èµ·æĿ¥"
      ],
      [
        "åĽŀ",
        "çŃĶ"
      ],
      [
        "å¦Ĥ",
        "æŀľæĪĳè¯´éĶĻ"
      ],
      [
        "æ²¡äºĭ",
        "æ²¡äºĭ"
      ],
      [
        "ä½łå·²ç»ı",
        "åģļå¾Ĺ"
      ],
      [
        "ä½łä¼ļ",
        "åģļ"
      ],
      [
        "èĥĸ",
        "å°±èĥĸ"
      ],
      [
        "æĸ°çļĦ",
        "ä¸Ģå¤©å¼Ģå§ĭäºĨ"
      ],
      [
        "çĶŁ",
        "æĹ¥å¿«ä¹Ĳ"
      ],
      [
        "æİ¨èįĲä¸ª",
        "çĶµå½±åĳĹ"
      ],
      [
        "æĢİä¹Īæīįèĥ½",
        "æĽ´èĩªä¿¡"
      ],
      [
        "åĪĽä¸ļè¦ģ",
        "æ³¨æĦıä»Ģä¹Ī"
      ],
      [
        "ä½łæĺ¯",
        "è°ģ"
      ],
      [
        "°å¸¦",
        "åķĬ"
      ],
      [
        "Ĭè¯",
        "īæĪĳ"
      ],
      [
        "ŃåŃ¦ä¹ł",
        "ä¸Ń"
      ],
      [
        "è¯·åĳ",
        "Ĭè¯īæĪĳ"
      ],
      [
        "ä»Ģä¹Īéĥ½",
        "åı¯ä»¥èģĬ"
      ],
      [
        "ä»Ģä¹Īèħ",
        "°å¸¦åķĬ"
      ],
      [
        "æĪĳåı¯ä»¥",
        "éĻªä½łèģĬå¤©"
      ],
      [
        "æĪĳä¹Ł",
        "åľ¨ä¸įæĸ"
      ],
      [
        "è¿ĺç³»",
        "ä»Ģä¹Īèħ°å¸¦åķĬ"
      ],
      [
        "è¿Ļåıªæĺ¯",
        "ä¸Ģæ¬¡èĢĥè¯ķ"
      ],
      [
        "ä¸ĭæ¬¡ä¸Ģå®ļ",
        "ä¼ļæĽ´å¥½çļĦ"
      ],
      [
        "çĦ¦èĻ",
        "ĳ"
      ],
      [
        "ç¢°åĪ°",
        "äºĨ"
      ],
      [
        "ä¸ĢåĪĩéĥ½ä¼ļå¥½èµ·æĿ¥",
        "çļĦ"
      ],
      [
        "åĽŀçŃĶ",
        "éĹ®é¢ĺ"
      ],
      [
        "å¦ĤæŀľæĪĳè¯´éĶĻ",
        "äºĨ"
      ],
      [
        "ä½łå·²ç»ıåģļå¾Ĺ",
        "å¾Īå¥½äºĨ"
      ],
      [
        "èĥĸå°±èĥĸ",
        "åĳĹ"
      ],
      [
        "æĪĳä¹Łåľ¨ä¸įæĸ",
        "ŃåŃ¦ä¹łä¸Ń"
      ],
      [
        "G",
        "å¿«å¾Īå¤ļ"
      ],
      [
        "G",
        "æĺ¯ç¬¬"
      ],
      [
        "¢",
        "¦"
      ],
      [
        "£",
        "ç§"
      ],
      [
        "¨",
        "æľ"
      ],
      [
        "«",
        "å¹"
      ],
      [
        "¬",
        "å¼ı"
      ],
      [
        "±",
        "¡"
      ],
      [
        "²",
        "åĺ"
      ],
      [
        "æ",
        "¢¦"
      ],
      [
        "è",
        "±¡"
      ],
      [
        "Ĩ",
        "è§"
      ],
      [
        "Ĵ",
        "çĭ¬"
      ],
      [
        "Ķ",
        "ä»"
      ],
      [
        "ķ",
        "æľī"
      ],
      [
        "äº",
        "Ķä»"
      ],
      [
        "å¥½",
        "éļ¾"
      ],
      [
        "å¥½",
        "çĦ¦èĻĳ"
      ],
      [
        "å¥½",
        "æ¢¦"
      ],
      [
        "åĳ",
        "¨æľ"
      ],
      [
        "ä½ł",
        "ä¹Łå¾Ī"
      ],
      [
        "åı",
        "²"
      ],
      [
        "æĢİä¹Ī",
        "åħĭæľįæĭĸå»¶"
      ],
      [
        "æĢİä¹Ī",
        "äº¤æľĭåıĭ"
      ],
      [
        "æĢİä¹Ī",
        "çľģéĴ±"
      ],
      [
        "ä¸Ģ",
        "ä¸ĭ"
      ],
      [
        "ä¸ª",
        "å¥½æ¢¦"
      ],
      [
        "å¤ļ",
        "èģĶ"
      ],
      [
        "è§",
        "Ĩè§"
      ],
      [
        "åħ",
        "¬å¼ı"
      ],
      [
        "èĩª",
        "çĦ¶"
      ],
      [
        "åľ¨",
        "å®¶"
      ],
      [
        "ä¼ļ",
        "å¯¹"
      ],
      [
        "å°±",
        "è®°ä½ı"
      ],
      [
        "å¿ĥ",
        "åĳ¢"
      ],
      [
        "åģļ",
        "ä¸ªå¥½æ¢¦"
      ],
      [
        "æİ¨èįĲ",
        "éĥ¨çĶµå½±"
      ],
      [
        "åı¯ä»¥",
        "åĩºåİ»èµ°èµ°"
      ],
      [
        "ä»Ģä¹Īæĺ¯",
        "æľºåĻ¨åŃ¦ä¹ł"
      ],
      [
        "ä»Ģä¹Īæĺ¯",
        "API"
      ],
      [
        "éĶĻ",
        "åĲĹ"
      ],
      [
        "æĮģ",
        "æĽ´å¤ļ"
      ],
      [
        "éĢļ",
        "ä¿¡"
      ],
      [
        "çĲĨè§£",
        "åİŁçĲĨ"
      ],
      [
        "æĹ¶",
        "è¿ŀæİ¥"
      ],
      [
        "ç®Ģ",
        "åı²"
      ],
      [
        "ç³»",
        "å®ŀ"
      ],
      [
        "å±",
        "ķæľī"
      ],
      [
        "å·¥ä½ľ",
        "ä¸įé¡ºåĪ©"
      ],
      [
        "æ²¡",
        "èĢĥ"
      ],
      [
        "éľĢè¦ģ",
        "çĲĨè§£åİŁçĲĨ"
      ],
      [
        "åĲĮ",
        "æĹ¶è¿ŀæİ¥"
      ],
      [
        "äººç±»",
        "åıĳ"
      ],
      [
        "äººç±»",
        "ç®Ģåı²"
      ],
      [
        "Pythonæĺ¯",
        "ä»Ģä¹Ī"
      ],
      [
        "æĶ¯",
        "æĮģæĽ´å¤ļ"
      ],
      [
        "»åĬ¨",
        "éĢļä¿¡"
      ],
      [
        "æľ¬",
        "ä¹¦"
      ],
      [
        "æĻļ",
        "ä¸Ĭ"
      ],
      [
        "éĻħ",
        "çİ°"
      ],
      [
        "æĪĸèĢħ",
        "åľ¨å®¶"
      ],
      [
        "èĭ±è¯Ń",
        "è¯Ńæ³ķæĢİä¹ĪåŃ¦"
      ],
      [
        "ä»Ĭå¤©å¤©æ°Ķ",
        "æĢİä¹Īæł·"
      ],
      [
        "æľĢè¿ĳ",
        "æĢİä¹Īæł·"
      ],
      [
        "è®¾å¤ĩ",
        "åĲĮæĹ¶è¿ŀæİ¥"
      ],
      [
        "å¥½å¥½ä¼ĳæģ¯",
        "ä¸Ģä¸ĭ"
      ],
      [
        "çĥŃ",
        "å¿ĥåĳ¢"
      ],
      [
        "çĬ",
        "¯"
      ],
      [
        "è¯»å®Į",
        "ä¼ļå¯¹"
      ],
      [
        "ä½łä¼ļ",
        "çĬ¯"
      ],
      [
        "æĸ°çļĦ",
        "çĲĨè§£"
      ],
      [
        "åĵĪ",
        "åĵĪ"
      ],
      [
        "çī©çĲĨ",
        "éľĢè¦ģçĲĨè§£åİŁçĲĨ"
      ],
      [
        "ä¸įå®¢æ°Ķ",
        "åĳĢ"
      ],
      [
        "ä¸ŃåįĪ",
        "åĲĥä»Ģä¹Īå¥½"
      ],
      [
        "æĢİä¹ĪæıĲ",
        "é«ĺæķĪçİĩ"
      ],
      [
        "å¥½æĹł",
        "èģĬåķĬ"
      ],
      [
        "æĪĳæľĢè¿ĳåľ¨",
        "åŃ¦ç¼ĸç¨ĭ"
      ],
      [
        "Gæĺ¯ç¬¬",
        "äºĶä»"
      ],
      [
        "£ç§",
        "»åĬ¨éĢļä¿¡"
      ],
      [
        "«å¹",
        "²åĺ"
      ],
      [
        "Ĵçĭ¬",
        "çī¹"
      ],
      [
        "åĳ¨æľ",
        "«å¹²åĺ"
      ],
      [
        "ä½łä¹Łå¾Ī",
        "çĥŃå¿ĥåĳ¢"
      ],
      [
        "å¤ļèģĶ",
        "ç³»å®ŀ"
      ],
      [
        "è§Ĩè§",
        "Ĵçĭ¬çī¹"
      ],
      [
        "åħ¬å¼ı",
        "èĩªçĦ¶"
      ],
      [
        "å°±è®°ä½ı",
        "äºĨ"
      ],
      [
        "å±ķæľī",
        "æĸ°çļĦçĲĨè§£"
      ],
      [
        "äººç±»åıĳ",
        "å±ķæľīæĸ°çļĦçĲĨè§£"
      ],
      [
        "æĶ¯æĮģæĽ´å¤ļ",
        "è®¾å¤ĩåĲĮæĹ¶è¿ŀæİ¥"
      ],
      [
        "éĻħçİ°",
        "è±¡"
      ],
      [
        "æĪĸèĢħåľ¨å®¶",
        "å¥½å¥½ä¼ĳæģ¯ä¸Ģä¸ĭ"
      ],
      [
        "è¯»å®Įä¼ļå¯¹",
        "äººç±»åıĳå±ķæľīæĸ°çļĦçĲĨè§£"
      ],
      [
        "Gæĺ¯ç¬¬äºĶä»",
        "£ç§»åĬ¨éĢļä¿¡"
      ],
      [
        "åĳ¨æľ«å¹²åĺ",
        "Ľ"
      ],
      [
        "å¤ļèģĶç³»å®ŀ",
        "éĻħçİ°è±¡"
      ],
      [
        "åħ¬å¼ıèĩªçĦ¶",
        "å°±è®°ä½ıäºĨ"
      ],
      [
        "Gæĺ¯ç¬¬äºĶä»£ç§»åĬ¨éĢļä¿¡",
        "æĬĢæľ¯"
      ],
      [
        "¸",
        "ç¦"
      ],
      [
        "ı",
        "å®ī"
      ],
      [
        "Ŀ",
        "ä½ł"
      ],
      [
        "æĺ¯",
        "ä½ł"
      ],
      [
        "æĪĳ",
        "å¾Īå¼Ģå¿ĥ"
      ],
      [
        "ä»Ĭå¤©",
        "å¿ĥæĥħä¸įå¥½"
      ],
      [
        "å¾Ĺ",
        "çļĦ"
      ],
      [
        "å¹",
        "¸ç¦"
      ],
      [
        "è¿Ļ",
        "æĺ¯ä½ł"
      ],
      [
        "åºĶ",
        "å¾ĹçļĦ"
      ],
      [
        "ç¥",
        "Ŀä½ł"
      ],
      [
        "èĢĥè¯ķ",
        "æĢİä¹Īå¤įä¹ł"
      ],
      [
        "åĪ°ä½ł",
        "æĪĳå¾Īå¼Ģå¿ĥ"
      ],
      [
        "ä¸ĢåĪĩ",
        "é¡ºåĪ©"
      ],
      [
        "èĥ½å¸®",
        "åĪ°ä½łæĪĳå¾Īå¼Ģå¿ĥ"
      ],
      [
        "è®²ä¸ª",
        "ç¬ĳè¯Ŀ"
      ],
      [
        "åįĩèģĮ",
        "äºĨ"
      ],
      [
        "ç»§ç»Ń",
        "åĬłæ²¹"
      ],
      [
        "è°¢è°¢",
        "ä½ł"
      ],
      [
        "æģŃåĸľ",
        "æģŃåĸľ"
      ],
      [
        "æĢİä¹Īä¿ĿæĮģ",
        "åģ¥åº·"
      ],
      [
        "éĿ¢è¯ķç´§",
        "å¼łæĢİä¹ĪåĬŀ"
      ],
      [
        "æ²¡èĢĥ",
        "å¥½"
      ],
      [
        "ä½łä¼ļçĬ¯",
        "éĶĻåĲĹ"
      ],
      [
        "ıå®ī",
        "åº·"
      ],
      [
        "å¹¸ç¦",
        "ıå®īåº·"
      ],
      [
        "è¿Ļæĺ¯ä½ł",
        "åºĶå¾ĹçļĦ"
      ],
      [
        "ç¥Ŀä½ł",
        "ä¸ĢåĪĩé¡ºåĪ©"
      ],
      [
        "«",
        "æ´"
      ],
      [
        "°",
        "å¯"
      ],
      [
        "±",
        "æģ"
      ],
      [
        "º",
        "åħ"
      ],
      [
        "»",
        "æĦ"
      ],
      [
        "»",
        "æī¾"
      ],
      [
        "¼",
        "æ"
      ],
      [
        "¼",
        "Ķ"
      ],
      [
        "¼",
        "å¾Ĺ"
      ],
      [
        "å",
        "Ģ"
      ],
      [
        "Ī",
        "ä¸ĢåĪĩ"
      ],
      [
        "ĭ",
        "äºĨ"
      ],
      [
        "ĺ",
        "ç©¿è¶Ĭ"
      ],
      [
        "ŀ",
        "å¯"
      ],
      [
        "Ń",
        "çļĦ"
      ],
      [
        "è¯",
        "ºåħ"
      ],
      [
        "å¤",
        "±æģ"
      ],
      [
        "çļĦ",
        "æĺ¯"
      ],
      [
        "å¥½",
        "å¤§"
      ],
      [
        "äºĨ",
        "çĶŁ"
      ],
      [
        "ä½ł",
        "åĢ"
      ],
      [
        "åŃ",
        "ĺç©¿è¶Ĭ"
      ],
      [
        "æĢİä¹Ī",
        "åĴĮåĲĮäºĭçĽ¸å¤Ħ"
      ],
      [
        "æĪĳ",
        "çĽ¸"
      ],
      [
        "ä¼ļ",
        "æ²"
      ],
      [
        "éĤ£",
        "æİ¨èįĲ"
      ],
      [
        "åĽ",
        "ŃçļĦ"
      ],
      [
        "æİ¨èįĲ",
        "æľ¬ä¹¦"
      ],
      [
        "èĩªå·±",
        "å¤ª"
      ],
      [
        "ä»Ģä¹Īæĺ¯",
        "æ·±åº¦åŃ¦ä¹ł"
      ],
      [
        "åĪ«",
        "ç»Ļ"
      ],
      [
        "æĸ°",
        "å®¶"
      ],
      [
        "ä¿¡",
        "ä½ł"
      ],
      [
        "è®²",
        "çļĦæĺ¯"
      ],
      [
        "æķħäºĭ",
        "ä¹Łå¾Ī"
      ],
      [
        "äººç±»",
        "ä¸º"
      ],
      [
        "ãĢĭ",
        "ï¼ģ"
      ],
      [
        "èĻ",
        "«æ´"
      ],
      [
        "çī¹",
        "æķĪ"
      ],
      [
        "å¤§",
        "åİĭåĬĽ"
      ],
      [
        "ä¸ĢæŃ¥",
        "æĿ¥"
      ],
      [
        "ä¸ĢæŃ¥",
        "ä¸ĢæŃ¥æĿ¥"
      ],
      [
        "æĹ¶éĹ´",
        "ä¼ļæ²"
      ],
      [
        "æĽ´å¥½çļĦ",
        "äºº"
      ],
      [
        "çī©çĲĨ",
        "å¥½éļ¾"
      ],
      [
        "åİĭåĬĽ",
        "å¥½å¤§"
      ],
      [
        "æĬ±",
        "ä½ł"
      ],
      [
        "æĬ±",
        "æĬ±ä½ł"
      ],
      [
        "æĻļä¸Ĭ",
        "åĲĥä»Ģä¹Ī"
      ],
      [
        "°å¯",
        "¼æ"
      ],
      [
        "»æĦ",
        "Īä¸ĢåĪĩ"
      ],
      [
        "»æī¾",
        "æĸ°å®¶"
      ],
      [
        "¼Ķ",
        "çļĦ"
      ],
      [
        "¼å¾Ĺ",
        "æĽ´å¥½çļĦäºº"
      ],
      [
        "ŀå¯",
        "»æī¾æĸ°å®¶"
      ],
      [
        "è¯ºåħ",
        "°å¯¼æ"
      ],
      [
        "å¤±æģ",
        "ĭäºĨ"
      ],
      [
        "äºĨçĶŁ",
        "åŃĺç©¿è¶Ĭ"
      ],
      [
        "ä½łåĢ",
        "¼å¾ĹæĽ´å¥½çļĦäºº"
      ],
      [
        "æĪĳçĽ¸",
        "ä¿¡ä½ł"
      ],
      [
        "åĽŃçļĦ",
        "æķħäºĭ"
      ],
      [
        "èĩªå·±å¤ª",
        "å¤§åİĭåĬĽ"
      ],
      [
        "åĪ«ç»Ļ",
        "èĩªå·±å¤ªå¤§åİĭåĬĽ"
      ],
      [
        "è®²çļĦæĺ¯",
        "äººç±»ä¸º"
      ],
      [
        "æķħäºĭä¹Łå¾Ī",
        "æĦŁäºº"
      ],
      [
        "èĻ«æ´",
        "ŀå¯»æī¾æĸ°å®¶"
      ],
      [
        "çī¹æķĪ",
        "éľĩæĴ¼"
      ],
      [
        "æĹ¶éĹ´ä¼ļæ²",
        "»æĦĪä¸ĢåĪĩ"
      ],
      [
        "è¯ºåħ°å¯¼æ",
        "¼ĶçļĦ"
      ],
      [
        "äºĨçĶŁåŃĺç©¿è¶Ĭ",
        "èĻ«æ´ŀå¯»æī¾æĸ°å®¶"
      ],
      [
        "è®²çļĦæĺ¯äººç±»ä¸º",
        "äºĨçĶŁåŃĺç©¿è¶ĬèĻ«æ´ŀå¯»æī¾æĸ°å®¶"
      ],
      [
        "æĹ¶éĹ´ä¼ļæ²»æĦĪä¸ĢåĪĩ",
        "çļĦ"
      ],
      [
        "è®²çļĦæĺ¯äººç±»ä¸ºäºĨçĶŁåŃĺç©¿è¶ĬèĻ«æ´ŀå¯»æī¾æĸ°å®¶",
        "åĽŃçļĦæķħäºĭ"
      ],
      [
        "G",
        "æĺ¯ä»Ģä¹Ī"
      ],
      [
        "ä»Ģä¹Īæĺ¯",
        "éĩıåŃĲè®¡ç®Ĺ"
      ],
      [
        "ä»Ģä¹Īæĺ¯",
        "åĮºåĿĹéĵ¾"
      ],
      [
        "èĢĥè¯ķ",
        "æ²¡èĢĥå¥½"
      ],
      [
        "ç§ĳå¹",
        "»çļĦ"
      ],
      [
        "ä½łä¼ļåģļ",
        "ä»Ģä¹Ī"
      ],
      [
        "åľ¨",
        "å¿ĥ"
      ],
      [
        "åľ¨",
        "åĲĹ"
      ],
      [
        "äºĭ",
        "åĲĹ"
      ],
      [
        "åĪ«",
        "æĶ¾"
      ],
      [
        "æľīä»Ģä¹Ī",
        "äºĭåĲĹ"
      ],
      [
        "å¯¹ä¸į",
        "èµ·"
      ],
      [
        "åľ¨çļĦ",
        "åľ¨çļĦ"
      ],
      [
        "åľ¨å¿ĥ",
        "ä¸Ĭ"
      ],
      [
        "åĪ«æĶ¾",
        "åľ¨å¿ĥä¸Ĭ"
      ],
      [
        "ä»Ģ",
        "æĺ¯"
      ],
      [
        "ĭ",
        "åĲµæŀ¶äºĨ"
      ],
      [
        "ä»Ĭå¤©å¾Īå¼Ģå¿ĥ",
        "åĳĢ"
      ],
      [
        "æŀ¶",
        "äºĨ"
      ],
      [
        "åĴĮæľĭåıĭ",
        "æŀ¶äºĨ"
      ],
      [
        "å¿ĥæĥħä¸įå¥½",
        "åĲ§"
      ],
      [
        "åĴĮæľĭåıĭåĲµæŀ¶äºĨ",
        "åĳ¢"
      ],
      [
        "æĢİä¹ĪæĹ©èµ·",
        "åĵ¦"
      ],
      [
        "æķ°åŃ¦æĢİä¹ĪåŃ¦",
        "åĳĢ"
      ],
      [
        "æĢİä¹ĪåĨĻä½ľæĸĩ",
        "åĳ¢"
      ],
      [
        "ä½łæľīæĦŁæĥħåĲĹ",
        "åĲ§"
      ],
      [
        "æľ",
        "ĭåĲµæŀ¶äºĨ"
      ],
      [
        "æĢİ",
        "å¤įä¹ł"
      ],
      [
        "æĢİ",
        "åĴĮåĲĮäºĭçĽ¸å¤Ħ"
      ],
      [
        "åĴĮ",
        "æľĭåĲµæŀ¶äºĨ"
      ],
      [
        "ä»Ģä¹Īæĺ¯",
        "æľº"
      ],
      [
        "ä»Ģä¹Īæĺ¯",
        "åĻ¨åŃ¦ä¹ł"
      ],
      [
        "ä¸Ń",
        "åĲĥä»Ģä¹Īå¥½"
      ],
      [
        "on",
        "æĺ¯ä»Ģä¹Ī"
      ],
      [
        "Pyth",
        "n"
      ],
      [
        "ä½łå¥½",
        "åĲ§"
      ],
      [
        "èĢĥè¯ķ",
        "æĢİå¤įä¹ł"
      ],
      [
        "æĻļå®ī",
        "åĳĢ"
      ],
      [
        "ä¸ŃåįĪ",
        "åĲĥ"
      ],
      [
        "æĢİä¹ĪæĹ©èµ·",
        "åķĬ"
      ],
      [
        "æĢİä¹ĪèĥĮåįķè¯į",
        "åĵ¦"
      ],
      [
        "æĢİä¹ĪåĨĻç®ĢåİĨ",
        "åĳ¢"
      ],
      [
        "æĢİä¹ĪåįĩèģĮåĬłèĸª",
        "åĳ¢"
      ],
      [
        "å°±æĺ¯æľīçĤ¹ç´¯",
        "åĳĢ"
      ],
      [
        "å°±æĺ¯æľīçĤ¹ç´¯",
        "åķĬ"
      ],
      [
        "æĢİä¹ĪåŃ¦èĭ±è¯Ń",
        "åĲ§"
      ],
      [
        "æĢİä¹ĪåŃ¦èĭ±è¯Ń",
        "åĵ¦"
      ],
      [
        "æĢİä¹ĪåĨĻä½ľæĸĩ",
        "åķĬ"
      ],
      [
        "è§īå¾Ĺå¾ĪåŃ¤çĭ¬",
        "åĳĢ"
      ],
      [
        "è¦ģä¸įè¦ģè·³æ§½",
        "åĵ¦"
      ],
      [
        "ä»Ģä¹Īæĺ¯äººå·¥æĻºèĥ½",
        "åķĬ"
      ],
      [
        "æİ¨èįĲä¸ªçĶµå½±åĳĹ",
        "åĳĢ"
      ],
      [
        "åĪĽä¸ļè¦ģæ³¨æĦıä»Ģä¹Ī",
        "åĳ¢"
      ],
      [
        "åĪĽä¸ļè¦ģæ³¨æĦıä»Ģä¹Ī",
        "åĲ§"
      ],
      [
        "æĢİä¹Īåħĭæľįæĭĸå»¶",
        "åĵ¦"
      ],
      [
        "Pythonæĺ¯ä»Ģä¹Ī",
        "åĳ¢"
      ],
      [
        "æĪĳæľĢè¿ĳåľ¨åŃ¦ç¼ĸç¨ĭ",
        "åĳĢ"
      ],
      [
        "è°¢è°¢ä½ł",
        "åĲ§"
      ],
      [
        "P",
        "th"
      ],
      [
        "ä¹Ī",
        "æĺ¯"
      ],
      [
        "åı",
        "ĭåĲµæŀ¶äºĨ"
      ],
      [
        "æĢİ",
        "åŃ¦"
      ],
      [
        "æĢİ",
        "æł·"
      ],
      [
        "ä»Ģä¹Ī",
        "åĳ¢"
      ],
      [
        "åĴĮ",
        "åıĭåĲµæŀ¶äºĨ"
      ],
      [
        "å¿ĥ",
        "ä¸įå¥½"
      ],
      [
        "è®¡ç®Ĺ",
        "åķĬ"
      ],
      [
        "ä»Ģä¹Īæĺ¯",
        "æ·±"
      ],
      [
        "ä»Ģä¹Īæĺ¯",
        "åŃĲ"
      ],
      [
        "ä»Ģä¹Īæĺ¯",
        "æ·±åº¦"
      ],
      [
        "è¿ĺ",
        "ä¸į"
      ],
      [
        "éĿ¢",
        "ç´§"
      ],
      [
        "Py",
        "h"
      ],
      [
        "Py",
        "t"
      ],
      [
        "åĲµ",
        "äºĨ"
      ],
      [
        "ä½łå¥½",
        "åĵ¦"
      ],
      [
        "çĶµ",
        "åĳĹ"
      ],
      [
        "éĿ¢è¯ķ",
        "å¼łæĢİä¹ĪåĬŀ"
      ],
      [
        "åĴĮæľĭåıĭ",
        "åĲµæŀ¶"
      ],
      [
        "åĴĮæľĭåıĭ",
        "åĲµäºĨ"
      ],
      [
        "æľĢè¿ĳ",
        "æĢİä¹Ī"
      ],
      [
        "å¿ĥæĥħä¸įå¥½",
        "åķĬ"
      ],
      [
        "åĹ¨",
        "åĳĢ"
      ],
      [
        "åĹ¨",
        "åĲ§"
      ],
      [
        "ä½łå¥½åĳĢ",
        "åĲ§"
      ],
      [
        "ä½łå¥½åĳĢ",
        "åĵ¦"
      ],
      [
        "æĹ©ä¸Ĭå¥½",
        "åĳ¢"
      ],
      [
        "æĹ©ä¸Ĭå¥½",
        "åķĬ"
      ],
      [
        "åĴĮæľĭåıĭåĲµæŀ¶äºĨ",
        "åĳĢ"
      ],
      [
        "åĴĮæľĭåıĭåĲµæŀ¶äºĨ",
        "åĲ§"
      ],
      [
        "åĴĮæľĭåıĭåĲµæŀ¶äºĨ",
        "åķĬ"
      ],
      [
        "ä¸įå®¢æ°Ķ",
        "åķĬ"
      ],
      [
        "èĬĤæĹ¥å¿«ä¹Ĳ",
        "åĳĢ"
      ],
      [
        "ä¸ŃåįĪ",
        "åĲĥä»Ģä¹Ī"
      ],
      [
        "ä»Ĭå¤©å¾Īå¼Ģå¿ĥ",
        "åĳ¢"
      ],
      [
        "ä»Ĭå¤©å¾Īå¼Ģå¿ĥ",
        "åĲ§"
      ],
      [
        "ä»Ĭå¤©å¾Īå¼Ģå¿ĥ",
        "åķĬ"
      ],
      [
        "ä»Ĭå¤©å¾Īå¼Ģå¿ĥ",
        "åĵ¦"
      ],
      [
        "æīįèĥ½",
        "æĽ´èĩªä¿¡"
      ],
      [
        "æĢİä¹ĪæĹ©èµ·",
        "åĳĢ"
      ],
      [
        "æĢİä¹ĪæĹ©èµ·",
        "åĳ¢"
      ],
      [
        "æİ¨èįĲä¸ª",
        "çĶµåĳĹ"
      ],
      [
        "æĢİä¹ĪèĥĮåįķè¯į",
        "åĳ¢"
      ],
      [
        "æĢİä¹Īæīįèĥ½",
        "èĩªä¿¡"
      ],
      [
        "æĢİä¹ĪåĨĻç®ĢåİĨ",
        "åĲ§"
      ],
      [
        "æĢİä¹ĪåĨĻç®ĢåİĨ",
        "åĵ¦"
      ],
      [
        "æķ°åŃ¦æĢİä¹ĪåŃ¦",
        "åĲ§"
      ],
      [
        "æķ°åŃ¦æĢİä¹ĪåŃ¦",
        "åķĬ"
      ],
      [
        "æĢİä¹ĪåįĩèģĮåĬłèĸª",
        "åĲ§"
      ],
      [
        "è®²ä¸ªæķħäºĭ",
        "åĳ¢"
      ],
      [
        "è®²ä¸ªæķħäºĭ",
        "åķĬ"
      ],
      [
        "è®²ä¸ªæķħäºĭ",
        "åĵ¦"
      ],
      [
        "ä½łæľīæĦŁæĥħåĲĹ",
        "åķĬ"
      ],
      [
        "ä½łåı«ä»Ģä¹Ī",
        "åĲ§"
      ],
      [
        "ä½łåı«ä»Ģä¹Ī",
        "åķĬ"
      ],
      [
        "æĢİä¹ĪåĩıèĤ¥",
        "åĳĢ"
      ],
      [
        "æĢİä¹ĪåĩıèĤ¥",
        "åĳ¢"
      ],
      [
        "æĢİä¹ĪåĩıèĤ¥",
        "åĵ¦"
      ],
      [
        "æĢİä¹Īä¿ĿæĮģ",
        "åº·"
      ],
      [
        "æĢİä¹Īè¯»ä¹¦",
        "åĳĢ"
      ],
      [
        "æĢİä¹Īè¯»ä¹¦",
        "åķĬ"
      ],
      [
        "è§īå¾Ĺå¾ĪåŃ¤çĭ¬",
        "åĲ§"
      ],
      [
        "è¦ģä¸įè¦ģè·³æ§½",
        "åĳĢ"
      ],
      [
        "è¦ģä¸įè¦ģè·³æ§½",
        "åķĬ"
      ],
      [
        "çĮľä¸ªè°ľè¯Ń",
        "åĲ§"
      ],
      [
        "æİ¨èįĲé¦ĸæŃĮ",
        "åĲ§"
      ],
      [
        "æİ¨èįĲé¦ĸæŃĮ",
        "åĵ¦"
      ],
      [
        "è¢«æī¹è¯ĦäºĨ",
        "åĲ§"
      ],
      [
        "è¢«æī¹è¯ĦäºĨ",
        "åķĬ"
      ],
      [
        "è¢«æī¹è¯ĦäºĨ",
        "åĵ¦"
      ],
      [
        "ä»Ĭå¤©å¥½ç´¯",
        "åĳ¢"
      ],
      [
        "ä»Ĭå¤©å¥½ç´¯",
        "åĵ¦"
      ],
      [
        "ä»Ģä¹Īæĺ¯äºĳè®¡ç®Ĺ",
        "åķĬ"
      ],
      [
        "ä»Ģä¹Īæĺ¯çī©èģĶç½ĳ",
        "åĳ¢"
      ],
      [
        "æ²¡äºĭæ²¡äºĭ",
        "åĲ§"
      ],
      [
        "æ²¡äºĭæ²¡äºĭ",
        "åķĬ"
      ],
      [
        "çĶŁæĹ¥å¿«ä¹Ĳ",
        "åĲ§"
      ],
      [
        "çĶŁæĹ¥å¿«ä¹Ĳ",
        "åĵ¦"
      ],
      [
        "æİ¨èįĲä¸ªçĶµå½±åĳĹ",
        "åĲ§"
      ],
      [
        "æĢİä¹Īæīįèĥ½æĽ´èĩªä¿¡",
        "åĳĢ"
      ],
      [
        "æĢİä¹Īæīįèĥ½æĽ´èĩªä¿¡",
        "åĲ§"
      ],
      [
        "ä½łæĺ¯è°ģ",
        "åĳ¢"
      ],
      [
        "å¥½çĦ¦èĻĳ",
        "åķĬ"
      ],
      [
        "æĢİä¹Īåħĭæľįæĭĸå»¶",
        "åĳĢ"
      ],
      [
        "æĢİä¹Īäº¤æľĭåıĭ",
        "åĲ§"
      ],
      [
        "æĢİä¹ĪçľģéĴ±",
        "åĳĢ"
      ],
      [
        "æİ¨èįĲéĥ¨çĶµå½±",
        "åĵ¦"
      ],
      [
        "ä»Ģä¹Īæĺ¯æľºåĻ¨åŃ¦ä¹ł",
        "åĵ¦"
      ],
      [
        "ä»Ģä¹Īæĺ¯API",
        "åĳĢ"
      ],
      [
        "ä»Ģä¹Īæĺ¯API",
        "åķĬ"
      ],
      [
        "å·¥ä½ľä¸įé¡ºåĪ©",
        "åĳ¢"
      ],
      [
        "Pythonæĺ¯ä»Ģä¹Ī",
        "åĵ¦"
      ],
      [
        "èĭ±è¯Ńè¯Ńæ³ķæĢİä¹ĪåŃ¦",
        "åĳĢ"
      ],
      [
        "èĭ±è¯Ńè¯Ńæ³ķæĢİä¹ĪåŃ¦",
        "åĲ§"
      ],
      [
        "ä»Ĭå¤©å¤©æ°ĶæĢİä¹Īæł·",
        "åķĬ"
      ],
      [
        "æľĢè¿ĳæĢİä¹Īæł·",
        "åĳĢ"
      ],
      [
        "æľĢè¿ĳæĢİä¹Īæł·",
        "åĳ¢"
      ],
      [
        "ä¸ŃåįĪåĲĥä»Ģä¹Īå¥½",
        "åķĬ"
      ],
      [
        "ä¸ŃåįĪåĲĥä»Ģä¹Īå¥½",
        "åĵ¦"
      ],
      [
        "æĢİä¹ĪæıĲé«ĺæķĪçİĩ",
        "åĳĢ"
      ],
      [
        "å¥½æĹłèģĬåķĬ",
        "åĳĢ"
      ],
      [
        "å¥½æĹłèģĬåķĬ",
        "åĳ¢"
      ],
      [
        "æĪĳæľĢè¿ĳåľ¨åŃ¦ç¼ĸç¨ĭ",
        "åĳ¢"
      ],
      [
        "åĳ¨æľ«å¹²åĺĽ",
        "åĳ¢"
      ],
      [
        "ä»Ĭå¤©å¿ĥæĥħä¸įå¥½",
        "åĳĢ"
      ],
      [
        "åįĩèģĮäºĨ",
        "åķĬ"
      ],
      [
        "éĿ¢è¯ķç´§å¼łæĢİä¹ĪåĬŀ",
        "åĳ¢"
      ],
      [
        "æĢİä¹ĪåĴĮåĲĮäºĭçĽ¸å¤Ħ",
        "åĵ¦"
      ],
      [
        "æİ¨èįĲæľ¬ä¹¦",
        "åĲ§"
      ],
      [
        "ä»Ģä¹Īæĺ¯æ·±åº¦åŃ¦ä¹ł",
        "åĵ¦"
      ],
      [
        "æĻļä¸ĬåĲĥä»Ģä¹Ī",
        "åĳĢ"
      ],
      [
        "èĢĥè¯ķæ²¡èĢĥå¥½",
        "åĵ¦"
      ],
      [
        "ä»Ģä¹Īæĺ¯æľº",
        "åŃ¦ä¹ł"
      ],
      [
        "ä»Ģä¹Īæĺ¯æ·±",
        "åŃ¦ä¹ł"
      ],
      [
        "éĿ¢ç´§",
        "å¼łæĢİä¹ĪåĬŀ"
      ],
      [
        "G",
        "æĺ¯"
      ],
      [
        "ä»",
        "Ĭ"
      ],
      [
        "ä¹Ī",
        "å¥½"
      ],
      [
        "ä¹Ī",
        "åŃ¦"
      ],
      [
        "ä¹Ī",
        "æł·"
      ],
      [
        "ä¹Ī",
        "åĬŀ"
      ],
      [
        "ä¹Ī",
        "æīįèĥ½æĽ´èĩªä¿¡"
      ],
      [
        "æĺ¯",
        "æľīçĤ¹ç´¯"
      ],
      [
        "ä½ł",
        "æĦŁæĥħåĲĹ"
      ],
      [
        "æĢİ",
        "ä¿ĿæĮģ"
      ],
      [
        "æĢİ",
        "åįĩèģĮåĬłèĸª"
      ],
      [
        "æĢİ",
        "åħĭæľįæĭĸå»¶"
      ],
      [
        "æĢİ",
        "äº¤æľĭåıĭ"
      ],
      [
        "ä»Ģ",
        "å¥½"
      ],
      [
        "ä»Ģ",
        "åĳĢ"
      ],
      [
        "ä»Ģ",
        "æĺ¯æľºåĻ¨åŃ¦ä¹ł"
      ],
      [
        "æĢİä¹Ī",
        "åĳĢ"
      ],
      [
        "æĢİä¹Ī",
        "åįĩ"
      ],
      [
        "æĢİä¹Ī",
        "ä¿Ŀ"
      ],
      [
        "æĢİä¹Ī",
        "èĭ±è¯Ń"
      ],
      [
        "æĢİä¹Ī",
        "èģĮ"
      ],
      [
        "æĢİä¹Ī",
        "åĴĮåĲĮ"
      ],
      [
        "æĢİä¹Ī",
        "éĴ±"
      ],
      [
        "ä»Ģä¹Ī",
        "å¥½"
      ],
      [
        "ä»Ģä¹Ī",
        "åķĬ"
      ],
      [
        "ä»Ģä¹Ī",
        "äºĳè®¡ç®Ĺ"
      ],
      [
        "ä»Ģä¹Ī",
        "API"
      ],
      [
        "ä»Ģä¹Ī",
        "æ·±åº¦åŃ¦ä¹ł"
      ],
      [
        "åŃ¦",
        "æĢİä¹ĪåŃ¦"
      ],
      [
        "å¤©",
        "å¥½ç´¯"
      ],
      [
        "è¦ģ",
        "è¦ģ"
      ],
      [
        "è¦ģ",
        "æ³¨æĦıä»Ģä¹Ī"
      ],
      [
        "å°±",
        "æľīçĤ¹ç´¯"
      ],
      [
        "è¯Ń",
        "æĢİä¹ĪåŃ¦"
      ],
      [
        "è¯Ń",
        "è¯Ńæ³ķæĢİä¹ĪåŃ¦"
      ],
      [
        "ä»Ĭå¤©",
        "å¾Ī"
      ],
      [
        "ä»Ĭå¤©",
        "å¿ĥä¸įå¥½"
      ],
      [
        "ä»Ģä¹Īæĺ¯",
        "çī©"
      ],
      [
        "ä»Ģä¹Īæĺ¯",
        "éĩıåŃĲ"
      ],
      [
        "ä»Ģä¹Īæĺ¯",
        "äººå·¥"
      ],
      [
        "ä»Ģä¹Īæĺ¯",
        "åĿĹ"
      ],
      [
        "ä»Ģä¹Īæĺ¯",
        "åĮºåĿĹ"
      ],
      [
        "æıĲ",
        "é«ĺæķĪçİĩ"
      ],
      [
        "èĢĥ",
        "æĢİä¹Īå¤įä¹ł"
      ],
      [
        "èĢĥ",
        "æ²¡èĢĥå¥½"
      ],
      [
        "æ³¨",
        "ä»Ģä¹Ī"
      ],
      [
        "æ¯Ķ",
        "åĳ¢"
      ],
      [
        "Python",
        "åĳ¢"
      ],
      [
        "Python",
        "åĵ¦"
      ],
      [
        "ä½łå¥½",
        "åķĬ"
      ],
      [
        "èĭ±",
        "è¯Ńæ³ķæĢİä¹ĪåŃ¦"
      ],
      [
        "å½±",
        "åĳĹ"
      ],
      [
        "èĢĥè¯ķ",
        "æĢİä¹Ī"
      ],
      [
        "æĻļ",
        "åĲĥä»Ģä¹Ī"
      ],
      [
        "è·³",
        "åķĬ"
      ],
      [
        "çī©èģĶç½ĳ",
        "åķĬ"
      ],
      [
        "èĭ±è¯Ń",
        "è¯Ńæ³ķ"
      ],
      [
        "èĭ±è¯Ń",
        "è¯ŃæĢİä¹ĪåŃ¦"
      ],
      [
        "ä»Ĭå¤©å¤©æ°Ķ",
        "æĢİæł·"
      ],
      [
        "ä½łåĸľæ¬¢",
        "ä¹Ī"
      ],
      [
        "ä½łåĸľæ¬¢ä»Ģä¹Ī",
        "åĳĢ"
      ],
      [
        "ä½łåĸľæ¬¢ä»Ģä¹Ī",
        "åĲ§"
      ],
      [
        "ä½łåĸľæ¬¢ä»Ģä¹Ī",
        "åķĬ"
      ],
      [
        "ä½łåĸľæ¬¢ä»Ģä¹Ī",
        "åĵ¦"
      ],
      [
        "è®²ä¸ª",
        "äºĭ"
      ],
      [
        "å¿ĥæĥħä¸įå¥½",
        "åĳ¢"
      ],
      [
        "å¿ĥæĥħä¸įå¥½",
        "åĵ¦"
      ],
      [
        "åĹ¨",
        "åĳ¢"
      ],
      [
        "åĹ¨",
        "åķĬ"
      ],
      [
        "åĹ¨",
        "åĵ¦"
      ],
      [
        "ä½łå¥½åĳĢ",
        "åĳ¢"
      ],
      [
        "ä½łå¥½åĳĢ",
        "åķĬ"
      ],
      [
        "æĹ©ä¸Ĭå¥½",
        "åĲ§"
      ],
      [
        "æĹ©ä¸Ĭå¥½",
        "åĵ¦"
      ],
      [
        "æĻļå®ī",
        "åĳ¢"
      ],
      [
        "æĻļå®ī",
        "åĲ§"
      ],
      [
        "æĻļå®ī",
        "åĵ¦"
      ],
      [
        "åĴĮæľĭåıĭåĲµæŀ¶äºĨ",
        "åĵ¦"
      ],
      [
        "ä¸įå®¢æ°Ķ",
        "åĲ§"
      ],
      [
        "ä¸įå®¢æ°Ķ",
        "åĵ¦"
      ],
      [
        "èĬĤæĹ¥å¿«ä¹Ĳ",
        "åĳ¢"
      ],
      [
        "èĬĤæĹ¥å¿«ä¹Ĳ",
        "åĲ§"
      ],
      [
        "ä¸ŃåįĪ",
        "ä»Ģä¹Īå¥½"
      ],
      [
        "æķ°åŃ¦",
        "æĢİåŃ¦"
      ],
      [
        "åĪĽ",
        "è¦ģæ³¨æĦıä»Ģä¹Ī"
      ],
      [
        "å¼ł",
        "ä¹ĪåĬŀ"
      ],
      [
        "è¦ģä¸įè¦ģ",
        "æ§½"
      ],
      [
        "è¦ģä¸įè¦ģ",
        "è·³åķĬ"
      ],
      [
        "æİ¨èįĲä¸ª",
        "å½±åĳĹ"
      ],
      [
        "ä½łæľī",
        "æĥħåĲĹ"
      ],
      [
        "æĢİä¹ĪèĥĮåįķè¯į",
        "åĳĢ"
      ],
      [
        "æĢİä¹ĪèĥĮåįķè¯į",
        "åĲ§"
      ],
      [
        "æĢİä¹ĪèĥĮåįķè¯į",
        "åķĬ"
      ],
      [
        "æĢİä¹ĪåĨĻç®ĢåİĨ",
        "åĳĢ"
      ],
      [
        "æĢİä¹ĪåĨĻç®ĢåİĨ",
        "åķĬ"
      ],
      [
        "æĢİä¹ĪæıĲ",
        "é«ĺ"
      ],
      [
        "æĢİä¹ĪæıĲ",
        "æķĪçİĩ"
      ],
      [
        "æķ°åŃ¦æĢİä¹ĪåŃ¦",
        "åĳ¢"
      ],
      [
        "æķ°åŃ¦æĢİä¹ĪåŃ¦",
        "åĵ¦"
      ],
      [
        "åĪĽä¸ļè¦ģ",
        "æ³¨ä»Ģä¹Ī"
      ],
      [
        "å¥½æĹł",
        "åķĬ"
      ],
      [
        "æĢİä¹ĪåįĩèģĮåĬłèĸª",
        "åĳĢ"
      ],
      [
        "æĢİä¹ĪåįĩèģĮåĬłèĸª",
        "åĵ¦"
      ],
      [
        "å°±æĺ¯æľīçĤ¹ç´¯",
        "åĳ¢"
      ],
      [
        "æĢİä¹ĪåŃ¦èĭ±è¯Ń",
        "åĳĢ"
      ],
      [
        "æĢİä¹ĪåŃ¦èĭ±è¯Ń",
        "åķĬ"
      ],
      [
        "æĢİä¹ĪåĨĻä½ľæĸĩ",
        "åĳĢ"
      ],
      [
        "æĢİä¹ĪåĨĻä½ľæĸĩ",
        "åĵ¦"
      ],
      [
        "è®²ä¸ªæķħäºĭ",
        "åĳĢ"
      ],
      [
        "è®²ä¸ªæķħäºĭ",
        "åĲ§"
      ],
      [
        "ä½łæľīæĦŁæĥħåĲĹ",
        "åĳĢ"
      ],
      [
        "ä½łæľīæĦŁæĥħåĲĹ",
        "åĳ¢"
      ],
      [
        "ä½łåı«ä»Ģä¹Ī",
        "åĳ¢"
      ],
      [
        "ä½łåı«ä»Ģä¹Ī",
        "åĵ¦"
      ],
      [
        "æĪĳæľĢè¿ĳåľ¨",
        "ç¼ĸç¨ĭ"
      ],
      [
        "æĢİä¹ĪåĩıèĤ¥",
        "åķĬ"
      ],
      [
        "æĢİä¹Īè¯»ä¹¦",
        "åĳ¢"
      ],
      [
        "æĢİä¹Īè¯»ä¹¦",
        "åĲ§"
      ],
      [
        "éĿ¢è¯ķç´§",
        "å¼łä¹ĪåĬŀ"
      ],
      [
        "è§īå¾Ĺå¾ĪåŃ¤çĭ¬",
        "åĳ¢"
      ],
      [
        "è§īå¾Ĺå¾ĪåŃ¤çĭ¬",
        "åĵ¦"
      ],
      [
        "çĮľä¸ªè°ľè¯Ń",
        "åĳĢ"
      ],
      [
        "çĮľä¸ªè°ľè¯Ń",
        "åĳ¢"
      ],
      [
        "çĮľä¸ªè°ľè¯Ń",
        "åķĬ"
      ],
      [
        "çĮľä¸ªè°ľè¯Ń",
        "åĵ¦"
      ],
      [
        "æİ¨èįĲé¦ĸæŃĮ",
        "åĳĢ"
      ],
      [
        "æİ¨èįĲé¦ĸæŃĮ",
        "åķĬ"
      ],
      [
        "è¢«æī¹è¯ĦäºĨ",
        "åĳ¢"
      ],
      [
        "ä»Ĭå¤©å¥½ç´¯",
        "åĳĢ"
      ],
      [
        "ä»Ĭå¤©å¥½ç´¯",
        "åķĬ"
      ],
      [
        "ä»Ģä¹Īæĺ¯äºĳè®¡ç®Ĺ",
        "åĳĢ"
      ],
      [
        "ä»Ģä¹Īæĺ¯äºĳè®¡ç®Ĺ",
        "åĳ¢"
      ],
      [
        "ä»Ģä¹Īæĺ¯äºĳè®¡ç®Ĺ",
        "åĵ¦"
      ],
      [
        "ä»Ģä¹Īæĺ¯çī©èģĶç½ĳ",
        "åĳĢ"
      ],
      [
        "ä»Ģä¹Īæĺ¯çī©èģĶç½ĳ",
        "åķĬ"
      ],
      [
        "ä»Ģä¹Īæĺ¯çī©èģĶç½ĳ",
        "åĵ¦"
      ],
      [
        "ä»Ģä¹Īæĺ¯äººå·¥æĻºèĥ½",
        "åĳ¢"
      ],
      [
        "ä»Ģä¹Īæĺ¯äººå·¥æĻºèĥ½",
        "åĲ§"
      ],
      [
        "ä»Ģä¹Īæĺ¯äººå·¥æĻºèĥ½",
        "åĵ¦"
      ],
      [
        "æ²¡äºĭæ²¡äºĭ",
        "åĳĢ"
      ],
      [
        "æ²¡äºĭæ²¡äºĭ",
        "åĵ¦"
      ],
      [
        "ä½łä¼ļåģļ",
        "ä¹Ī"
      ],
      [
        "ä½łä¼ļåģļ",
        "ä»ĢåĳĢ"
      ],
      [
        "çĶŁæĹ¥å¿«ä¹Ĳ",
        "åĳĢ"
      ],
      [
        "çĶŁæĹ¥å¿«ä¹Ĳ",
        "åĳ¢"
      ],
      [
        "æİ¨èįĲä¸ªçĶµå½±åĳĹ",
        "åĳ¢"
      ],
      [
        "æİ¨èįĲä¸ªçĶµå½±åĳĹ",
        "åĵ¦"
      ],
      [
        "æĢİä¹Īæīįèĥ½æĽ´èĩªä¿¡",
        "åĳ¢"
      ],
      [
        "æĢİä¹Īæīįèĥ½æĽ´èĩªä¿¡",
        "åĵ¦"
      ],
      [
        "ä½łæĺ¯è°ģ",
        "åĳĢ"
      ],
      [
        "ä½łæĺ¯è°ģ",
        "åķĬ"
      ],
      [
        "ä½łæĺ¯è°ģ",
        "åĵ¦"
      ],
      [
        "å¥½çĦ¦èĻĳ",
        "åĳĢ"
      ],
      [
        "å¥½çĦ¦èĻĳ",
        "åĳ¢"
      ],
      [
        "å¥½çĦ¦èĻĳ",
        "åĲ§"
      ],
      [
        "æĢİä¹Īäº¤æľĭåıĭ",
        "åĳĢ"
      ],
      [
        "æĢİä¹Īäº¤æľĭåıĭ",
        "åĳ¢"
      ],
      [
        "æĢİä¹ĪçľģéĴ±",
        "åĳ¢"
      ],
      [
        "æĢİä¹ĪçľģéĴ±",
        "åĵ¦"
      ],
      [
        "æİ¨èįĲéĥ¨çĶµå½±",
        "åĳĢ"
      ],
      [
        "æİ¨èįĲéĥ¨çĶµå½±",
        "åĳ¢"
      ],
      [
        "æİ¨èįĲéĥ¨çĶµå½±",
        "åķĬ"
      ],
      [
        "ä»Ģä¹Īæĺ¯æľºåĻ¨åŃ¦ä¹ł",
        "åĳĢ"
      ],
      [
        "ä»Ģä¹Īæĺ¯æľºåĻ¨åŃ¦ä¹ł",
        "åĳ¢"
      ],
      [
        "ä»Ģä¹Īæĺ¯æľºåĻ¨åŃ¦ä¹ł",
        "åĲ§"
      ],
      [
        "ä»Ģä¹Īæĺ¯API",
        "åĲ§"
      ],
      [
        "å·¥ä½ľä¸įé¡ºåĪ©",
        "åĳĢ"
      ],
      [
        "å·¥ä½ľä¸įé¡ºåĪ©",
        "åĲ§"
      ],
      [
        "å·¥ä½ľä¸įé¡ºåĪ©",
        "åĵ¦"
      ],
      [
        "Pythonæĺ¯ä»Ģä¹Ī",
        "åķĬ"
      ],
      [
        "èĭ±è¯Ńè¯Ńæ³ķæĢİä¹ĪåŃ¦",
        "åķĬ"
      ],
      [
        "ä»Ĭå¤©å¤©æ°ĶæĢİä¹Īæł·",
        "åĳĢ"
      ],
      [
        "ä»Ĭå¤©å¤©æ°ĶæĢİä¹Īæł·",
        "åĳ¢"
      ],
      [
        "ä»Ĭå¤©å¤©æ°ĶæĢİä¹Īæł·",
        "åĲ§"
      ],
      [
        "æľĢè¿ĳæĢİä¹Īæł·",
        "åĵ¦"
      ],
      [
        "ä¸ŃåįĪåĲĥä»Ģä¹Īå¥½",
        "åĳ¢"
      ],
      [
        "ä¸ŃåįĪåĲĥä»Ģä¹Īå¥½",
        "åĲ§"
      ],
      [
        "æĢİä¹ĪæıĲé«ĺæķĪçİĩ",
        "åĳ¢"
      ],
      [
        "æĢİä¹ĪæıĲé«ĺæķĪçİĩ",
        "åĲ§"
      ],
      [
        "æĢİä¹ĪæıĲé«ĺæķĪçİĩ",
        "åĵ¦"
      ],
      [
        "åĳ¨æľ«å¹²åĺĽ",
        "åĳĢ"
      ],
      [
        "åĳ¨æľ«å¹²åĺĽ",
        "åķĬ"
      ],
      [
        "ä»Ĭå¤©å¿ĥæĥħä¸įå¥½",
        "åĳ¢"
      ],
      [
        "ä»Ĭå¤©å¿ĥæĥħä¸įå¥½",
        "åĲ§"
      ],
      [
        "èĢĥè¯ķæĢİä¹Īå¤įä¹ł",
        "åĳĢ"
      ],
      [
        "èĢĥè¯ķæĢİä¹Īå¤įä¹ł",
        "åĳ¢"
      ],
      [
        "èĢĥè¯ķæĢİä¹Īå¤įä¹ł",
        "åĲ§"
      ],
      [
        "èĢĥè¯ķæĢİä¹Īå¤įä¹ł",
        "åķĬ"
      ],
      [
        "è®²ä¸ªç¬ĳè¯Ŀ",
        "åĳĢ"
      ],
      [
        "è®²ä¸ªç¬ĳè¯Ŀ",
        "åĳ¢"
      ],
      [
        "è®²ä¸ªç¬ĳè¯Ŀ",
        "åĲ§"
      ],
      [
        "è®²ä¸ªç¬ĳè¯Ŀ",
        "åĵ¦"
      ],
      [
        "åįĩèģĮäºĨ",
        "åĳĢ"
      ],
      [
        "è°¢è°¢ä½ł",
        "åķĬ"
      ],
      [
        "æĢİä¹Īä¿ĿæĮģåģ¥åº·",
        "åĳĢ"
      ],
      [
        "æĢİä¹Īä¿ĿæĮģåģ¥åº·",
        "åĳ¢"
      ],
      [
        "æĢİä¹Īä¿ĿæĮģåģ¥åº·",
        "åķĬ"
      ],
      [
        "æĢİä¹Īä¿ĿæĮģåģ¥åº·",
        "åĵ¦"
      ],
      [
        "éĿ¢è¯ķç´§å¼łæĢİä¹ĪåĬŀ",
        "åĲ§"
      ],
      [
        "éĿ¢è¯ķç´§å¼łæĢİä¹ĪåĬŀ",
        "åķĬ"
      ],
      [
        "ä½łä¼ļçĬ¯éĶĻåĲĹ",
        "åĳĢ"
      ],
      [
        "ä½łä¼ļçĬ¯éĶĻåĲĹ",
        "åĲ§"
      ],
      [
        "ä½łä¼ļçĬ¯éĶĻåĲĹ",
        "åķĬ"
      ],
      [
        "ä½łä¼ļçĬ¯éĶĻåĲĹ",
        "åĵ¦"
      ],
      [
        "æĢİä¹ĪåĴĮåĲĮäºĭçĽ¸å¤Ħ",
        "åĳ¢"
      ],
      [
        "æİ¨èįĲæľ¬ä¹¦",
        "åĳ¢"
      ],
      [
        "ä»Ģä¹Īæĺ¯æ·±åº¦åŃ¦ä¹ł",
        "åĳĢ"
      ],
      [
        "çī©çĲĨå¥½éļ¾",
        "åĳ¢"
      ],
      [
        "çī©çĲĨå¥½éļ¾",
        "åĲ§"
      ],
      [
        "åİĭåĬĽå¥½å¤§",
        "åĲ§"
      ],
      [
        "åİĭåĬĽå¥½å¤§",
        "åĵ¦"
      ],
      [
        "æĻļä¸ĬåĲĥä»Ģä¹Ī",
        "åĲ§"
      ],
      [
        "å¤±æģĭäºĨ",
        "åĳ¢"
      ],
      [
        "å¤±æģĭäºĨ",
        "åķĬ"
      ],
      [
        "å¤±æģĭäºĨ",
        "åĵ¦"
      ],
      [
        "Gæĺ¯ä»Ģä¹Ī",
        "åĳĢ"
      ],
      [
        "Gæĺ¯ä»Ģä¹Ī",
        "åķĬ"
      ],
      [
        "ä»Ģä¹Īæĺ¯éĩıåŃĲè®¡ç®Ĺ",
        "åĳĢ"
      ],
      [
        "ä»Ģä¹Īæĺ¯éĩıåŃĲè®¡ç®Ĺ",
        "åĳ¢"
      ],
      [
        "ä»Ģä¹Īæĺ¯éĩıåŃĲè®¡ç®Ĺ",
        "åķĬ"
      ],
      [
        "ä»Ģä¹Īæĺ¯åĮºåĿĹéĵ¾",
        "åĵ¦"
      ],
      [
        "èĢĥè¯ķæ²¡èĢĥå¥½",
        "åĲ§"
      ],
      [
        "ç§ĳå¹»çļĦ",
        "åĲ§"
      ],
      [
        "ç§ĳå¹»çļĦ",
        "åĵ¦"
      ],
      [
        "ä½łä¼ļåģļä»Ģä¹Ī",
        "åĳ¢"
      ],
      [
        "ä½łä¼ļåģļä»Ģä¹Ī",
        "åķĬ"
      ],
      [
        "åľ¨åĲĹ",
        "åĳ¢"
      ],
      [
        "å¯¹ä¸įèµ·",
        "åĳ¢"
      ],
      [
        "å¯¹ä¸įèµ·",
        "åĲ§"
      ],
      [
        "ä»Ģæĺ¯",
        "äºĳè®¡ç®Ĺ"
      ],
      [
        "ä»Ģæĺ¯",
        "API"
      ],
      [
        "ä»Ģæĺ¯",
        "éĩıåŃĲè®¡ç®Ĺ"
      ],
      [
        "Pythn",
        "æĺ¯ä»Ģä¹Ī"
      ],
      [
        "ä¸ŃåįĪåĲĥ",
        "ä¹Īå¥½"
      ],
      [
        "ä¸ŃåįĪåĲĥ",
        "ä»Ģå¥½"
      ],
      [
        "Pth",
        "on"
      ],
      [
        "ä¹Īæĺ¯",
        "äºĳè®¡ç®Ĺ"
      ],
      [
        "ä»Ģä¹Īæĺ¯åŃĲ",
        "è®¡ç®ĹåķĬ"
      ],
      [
        "ä»Ģä¹Īæĺ¯æ·±åº¦",
        "ä¹ł"
      ],
      [
        "Pyh",
        "on"
      ],
      [
        "Pyt",
        "onæĺ¯ä»Ģä¹Ī"
      ],
      [
        "åĴĮæľĭåıĭåĲµæŀ¶",
        "åķĬ"
      ],
      [
        "ä¸ŃåįĪåĲĥä»Ģä¹Ī",
        "å¥½åĳĢ"
      ],
      [
        "æĢİä¿ĿæĮģ",
        "åģ¥åº·"
      ],
      [
        "æĢİä¹Īåįĩ",
        "åĬłèĸª"
      ],
      [
        "æĢİä¹Īä¿Ŀ",
        "åģ¥åº·"
      ],
      [
        "æĢİä¹ĪèģĮ",
        "åĬłèĸª"
      ],
      [
        "è¦ģè¦ģ",
        "è·³æ§½"
      ],
      [
        "ä»Ģä¹Īæĺ¯äººå·¥",
        "èĥ½"
      ],
      [
        "ä»Ģä¹Īæĺ¯åĿĹ",
        "éĵ¾"
      ]
    ]
  }
}